#version: 0.2 - Trained by `huggingface/tokenizers`
t h
i n
a n
r e
o u
o n
th e
a t
e r
in g
e n
s t
a l
t o
i t
m e
i s
o r
an d
s e
l y
y ou
l e
v e
b e
a s
o f
a r
w h
e s
n o
s o
h a
e d
th at
l i
t i
m y
c h
a y
l o
v er
u t
e l
k e
f or
r o
w i
p e
g h
i c
a c
m o
d e
h e
f e
a re
d o
l d
b ut
al ly
a b
ou t
on e
c o
wi th
r i
a d
i on
ha ve
g e
in t
en t
g o
u n
so me
w e
i f
th is
no t
th ing
s u
o p
li ke
a m
h o
n e
i d
u st
ou ld
in k
l l
the r
i r
u r
w as
p o
c e
no w
p er
th ink
e x
wh at
en d
c an
al l
gh t
j ust
m a
u se
d on
t y
c on
t r
you r
ver y
ab out
s i
c a
an t
pe op
peop le
an y
w ay
in d
wh en
s h
at e
at ion
ti on
ti me
k now
the y
w or
t er
ge t
o d
ho w
p re
w ould
u s
el l
u l
se e
fe el
q u
m p
mo re
o ther
o k
t e
in f
u p
g u
ou n
p ro
ac t
re ally
r a
t a
ou gh
s on
ro m
ca use
the re
se l
y e
th an
h i
re ad
s a
c i
e re
l a
be cause
wh o
c t
f rom
b o
i st
ar t
sel f
s s
it e
k ing
it y
a g
f ri
ur l
p s
d er
oun d
i ve
es s
fri end
v en
the m
s ay
per son
ou s
mo st
v i
w ant
ar d
p p
m u
lo ve
m ent
on g
s p
e very
ou r
w ell
to o
i l
p l
u m
mu ch
wh i
be ing
re n
b y
o l
co m
be en
co me
s he
go od
b le
e st
thing s
d ay
in e
wi ll
way s
ha d
ac k
d id
some thing
w n
lo t
i ll
on ly
tr y
c k
h as
the n
th ough
re d
al so
w o
re e
ty pe
re l
h er
do es
i ght
he re
f o
c ould
e ven
t ing
t al
m ay
r y
a st
v ing
al ways
lo ok
m s
f p
f un
wor k
e p
ab le
ma ke
t s
f ind
some one
u re
time s
li fe
co mp
ch o
ou ght
er s
ha pp
ne ver
wh y
ti c
the ir
j o
y es
ne ed
u ally
inf j
than k
s pe
un der
my self
po st
en ce
i m
su re
o ver
f ul
se d
int j
a p
d if
ri ght
d is
f i
ic e
me an
t en
a f
ye ar
f a
f j
th ought
m b
m an
in to
f ir
is h
int ere
intere st
f in
wh ere
be t
h el
pre t
i es
st and
c tion
i z
g r
c l
inf p
i g
go t
of f
fe ren
whi ch
re at
hi m
p le
st r
go ing
act ually
ty p
l it
lo w
e ver
s it
w r
ac e
fir st
k es
a h
re al
u e
u d
y s
or t
friend s
sh i
s er
pret ty
k ind
i de
a ch
it s
le ss
a in
at ed
p r
s en
d es
p h
ic al
feel ing
sa me
an g
e t
we re
m ind
dif feren
an s
o se
b ack
n a
g en
b ab
st ill
h is
ha ha
po int
d i
t le
li e
lo g
th read
ic k
st art
sa id
m any
a ge
person al
ne w
as s
sh ould
under stand
qu est
fo re
int p
m on
at ing
le d
l ong
b it
rel ation
quest ion
a w
le ar
ta ke
m at
some times
i ous
per i
e mo
pro bab
le t
so ci
c are
o m
use d
probab ly
i ly
be st
may be
ex t
t ell
ar ound
a k
ti ve
p ar
an ce
f f
hel p
w on
whi le
did n
o b
u su
emo tion
af ter
de fin
th ose
lo l
relation shi
s ound
t ed
year s
does n
m al
u al
m in
be lie
any thing
ag ree
in ce
m en
en fp
p art
b l
lit tle
differen t
as on
o h
tal k
ye ah
pl ay
c lo
po s
c er
fe w
g a
ro ver
as k
si de
wor ld
bet ter
int er
h ard
r u
r ough
t wo
usu ally
se s
g ive
s ince
j e
ex peri
the se
m ight
other s
are n
re me
w at
be fore
te st
s m
o wn
hi gh
do wn
s or
ar y
p ut
th rough
ir l
n ing
g reat
see ms
thank s
typ es
c ri
t end
ma kes
think ing
s cho
re ason
li st
c es
scho ol
every one
b ad
ic ally
pro ble
st e
i e
gen er
ce p
gu ess
ent p
m m
ve s
bo th
con t
or y
try ing
qu ite
c ur
ta in
g irl
fun ction
bo ok
happ en
m is
ma de
ver s
c ent
con f
la st
ation s
do ing
belie ve
p ic
wor d
defin ite
st u
interest ing
ag ain
happ y
ch e
w er
w ard
i mp
see m
an ge
o o
d re
b u
definite ly
every thing
0 0
ha ving
co l
u gh
vi e
is e
s c
of ten
g n
f u
v o
m ar
i ld
con s
s how
e as
jo y
n i
h um
relationshi p
le s
m us
c ra
wat ch
personal ity
st er
s ing
o ld
ro w
me d
a th
n ess
pos si
n er
c or
gu ys
any one
t ri
g l
v al
en ti
ke ep
he ad
for um
b r
tr a
pre s
i ther
comp le
en joy
an other
c ess
for t
la ugh
c al
me s
a u
de p
is n
el se
get ting
s ha
sen se
f ic
ch ar
des cri
en ough
od y
h ate
ut e
ide a
sp on
le ast
tal king
h one
tr ue
w el
su ch
n ice
ex p
clo se
li ve
ex act
ion s
b ig
c oun
ist j
at ive
t on
soci al
mb ti
n or
mb er
pre ss
m or
su b
c tive
mus ic
for m
com m
hone st
on ce
g i
ic s
b ody
iz e
h u
f am
t ur
g re
f ound
stu ff
sound s
si ve
won der
no thing
so l
su r
g s
a se
h and
b ro
proble m
e ither
sor ry
ci ally
li g
cer tain
en fj
int rover
ent j
re spon
read ing
us ing
with out
tion s
e k
fe ct
f ar
wr ong
w a
mal e
sit u
we en
your self
z y
gu y
wel come
f act
p u
es pe
m il
espe cially
come s
ate ly
wr it
read y
ul t
dep end
experi ence
ser ious
bet ween
ad v
fa v
ho pe
d r
c r
s y
comple te
dre am
n ed
c u
f el
li ght
ho we
ch ild
howe ver
ul ar
n y
ment s
f er
g er
d u
se x
gu e
p a
c ar
ra ther
feeling s
ve l
cep t
ma g
look ing
id er
n at
ir d
st op
e ach
reme mber
s k
say ing
a way
b er
li c
is fj
la in
ist p
ra in
d one
list en
f r
exact ly
al most
b i
jo b
would n
ans wer
we ek
c us
pl ace
b re
is m
a go
l u
si mp
tr u
ve d
c all
se t
to r
b a
i re
ex am
it ion
n ight
st ud
f ace
de c
y ing
e ar
b or
ti l
je ct
it ies
w ish
k id
b as
cons ider
str ong
it ive
l ine
is fp
v id
pe ct
t ly
al ready
ye t
c ou
on es
con d
e f
pl an
rel ate
ch ange
want ed
op en
a pp
vi de
vie w
ha ven
c re
ma king
gener al
i an
who le
ad d
al s
1 0
fam ily
p ast
vi ous
mon th
go d
il ity
day s
c ed
laugh ing
ge st
co ol
un til
p ed
p at
ac ter
function s
c our
al one
to ld
c y
con vers
f re
interest ed
word s
char acter
ca me
str u
re ct
p ri
he ar
exam ple
cl ass
al k
re g
complete ly
he al
es fj
start ed
col le
s ort
fav or
ho me
possi ble
st ory
su l
ou d
al though
to day
na me
d ra
op in
int el
sh it
is su
se en
s le
si mil
s ad
o t
g g
situ ation
you n
f t
simil ar
f ol
i mag
su p
at es
re cent
vide o
c reat
exp lain
was n
m i
ps y
mat ter
emotion al
o me
d ri
ar ch
c at
m ist
iz ed
am a
v ol
t ure
ph ys
he y
se cond
inf ps
fel t
m ine
et c
m ust
al ong
v ent
st o
log y
cra zy
h ar
cour se
imp ort
thought s
ing s
de al
hum an
me t
ar k
le a
heal th
h ur
g y
we ird
he art
v is
at tr
aw es
s ci
st re
fun ny
un i
ac tion
w ar
w ent
most ly
k en
gr ou
re p
or der
ba sed
fi gu
s ho
like ly
po se
a a
su per
ro om
cur ren
d ist
be come
be d
si gn
est p
to ok
r un
emotion s
awes ome
person ally
to t
f ps
com ing
spe ct
d ou
ma in
ple ase
sel ves
2 0
e e
tot ally
lear n
j ud
import ant
s ent
r am
com fort
e mp
con ne
sle ep
f all
x t
ext rover
h our
intj s
ex pect
l at
m it
mean s
mo m
spe c
ab sol
c lear
sit ive
wor king
pre fer
pre ci
ext reme
ok ay
mo ther
i le
ve lo
b ly
fol low
in ess
co gn
ou se
ti v
h mm
absol ute
ex c
wh e
writ ing
question s
adv ice
f ree
son g
de ep
de velo
favor ite
wa it
l an
per fect
o c
don t
int u
infj s
l ar
cou ple
recent ly
c as
est j
x d
c le
to ge
tur n
s ion
bo y
toge ther
d ing
what ever
pic ture
es fp
p aren
wo men
h h
ex ist
cu ri
fa ir
wo w
ap preci
par tic
sm all
dif fic
ar ing
p ur
an no
st ay
ne t
z ing
any way
pr of
as su
ta king
if ic
st ate
eas y
ca se
qu i
h al
k ed
ob vious
g ra
ton gue
d am
f ine
partic ular
men tion
month s
m id
se arch
to pic
gener ally
h or
si st
le ad
wr ite
ap pe
f it
as h
descri p
fe male
serious ly
whe ther
hel lo
comm un
en g
get s
honest ly
te ach
experi en
ful ly
depend s
h ouse
ne xt
nat ur
re sul
sp end
m ing
i a
a v
int ps
b t
int en
ward s
ment al
d ad
i al
en ne
d en
un less
mo ment
ga me
re st
relationshi ps
com mon
convers ation
or s
in ste
ar gu
s we
log ical
bre ak
sha re
ro l
tri ed
is ed
an e
press ion
c ha
grou p
colle ge
ha ps
ck ed
le ct
up id
a king
b rain
per haps
opin ion
p op
ar s
ag ram
st ant
le vel
spe ak
ur ing
ide as
cal led
ch ang
he ard
c ry
mo vie
r and
g an
an al
me et
ation al
ter n
sa w
st upid
dis cus
absolute ly
su g
1 00
mo ve
say s
tr ust
n um
s co
la w
p ick
j or
ho ld
inste ad
le ft
look s
figu re
s po
id ent
re lig
n on
ph one
ap pro
t u
ne cess
m one
feel s
ust r
go es
intel lig
comfort able
e yes
health y
enne agram
book s
b us
i o
in s
ro ss
qu al
diffic ult
po sed
paren ts
no tic
end ed
rand om
ro ll
vo id
bas ically
d ark
introver ted
post s
r are
ri st
in form
au ti
proble ms
ac tive
ma jor
s ou
as king
de ar
do min
ca p
mone y
in cl
hal f
kind a
to p
en er
enti re
f ac
be ha
i er
watch ing
ti ce
ab ility
beha vi
rom an
could n
l ate
li es
bro ther
reg ard
d y
happen s
te mp
curi ous
know n
p ass
ask ed
fu ll
mean ing
si l
simp ly
t it
z e
understand ing
h ell
ga mes
st y
i ent
sh ort
g on
extreme ly
eas ily
pres ent
hur t
inform ation
wor th
po wer
do m
them selves
real ize
at ten
ou ch
psy cho
b ri
sp ir
d a
th ree
b al
a void
re spect
be auti
g row
h y
d ic
l ack
p hi
w in
c king
ci ous
see ing
w ise
hour s
work s
sug gest
al low
k new
shi p
li ving
g in
it ed
an x
play ing
val u
lan gu
v ar
pe t
to wards
b and
ang er
d ate
atten tion
e at
si ster
qu o
qu ick
tru th
ck s
ama zing
w alk
the ory
post ed
dec is
n t
v ir
con stant
ne g
need s
gl ad
d ating
sur pr
happen ed
ci al
an im
k ill
beauti ful
st ere
act ed
sy ste
notic ed
in c
li ked
de ta
love d
bl ack
lo st
cr it
en fps
me ant
ri ble
cor rect
me di
ri ed
gi ven
b ur
w it
ex cept
ind i
fe ar
p ho
cont rol
f il
h it
roman tic
e vent
fo od
t ouch
un ch
curren tly
j u
appreci ate
inter net
dec id
stere o
phys ical
ab o
lit er
girl s
pr oud
d uring
b s
d ue
re s
i p
ide al
in st
dr ink
on line
know led
fr ustr
ent ps
pr ac
st ic
f ut
dra w
l ing
ch rist
pres sed
lea ve
vi l
f li
m as
de ath
out side
ie ty
ly ing
qui et
ag es
sci ence
l ink
c ru
indi vid
nor mal
g ing
ha ir
imag ine
re mind
h ang
lot s
ac cur
f ight
or ies
want s
an ces
ser v
cogn itive
c li
differen ce
ul ti
lear ning
ex tra
pro cess
fu ck
coun t
again st
spe ctive
en gl
issu es
wo man
ex press
d le
s un
br ing
de b
am er
ch ed
or ig
can not
kid s
e m
g ree
issu e
ta kes
descri be
lat er
nat ure
commun ic
si ght
in ation
er ing
ang ry
gi ving
soci e
individ ual
fut ure
k it
qu e
se ver
ta ken
i or
sh y
re f
st ra
su pp
tic al
cons cious
on t
f ast
ne ar
wonder ing
k s
b lo
3 0
knowled ge
m ate
co ld
ist ic
or gan
reason s
c ut
ma th
r ing
oo oo
il s
le g
aw are
p ay
sing le
1 9
u de
abo ve
orig in
respon se
e ye
fa ther
5 0
sub ject
simp le
ac tions
lear ned
youn ger
conf used
iz ing
in es
w ink
youn g
per c
di rect
dam n
val ue
aw k
c ing
fin ish
listen ing
s x
s at
real ity
ener gy
p or
ac cept
rel ated
wor ry
stre ss
sever al
old er
conne ct
in vol
in side
1 2
d s
log ic
tr ou
fort un
en cy
sm ile
comp ut
w ers
p ing
langu age
e le
sup pose
de st
sen sitive
gr am
natur al
domin ant
re search
ra id
awk ward
decid ed
c ute
mo od
neg ative
engl ish
sp ace
trou ble
gr ad
ar ily
hu ge
d ro
f ant
l and
lu ck
sou l
vi es
tell ing
be gin
f y
n f
che ck
bo red
fo cus
socie ty
mo vies
no tice
gon na
st ep
boy friend
po sit
certain ly
tru ly
bor n
ph y
intu itive
ir r
str ange
dou bt
test s
typ ing
s mo
sty le
p ie
quo te
li kes
dream s
1 6
descrip tion
cho ose
sup posed
a the
af raid
un k
mention ed
phi lo
h ind
ac ross
c ir
o s
1 5
syste m
sc re
per spective
id enti
constant ly
w w
so on
te ch
num ber
anx iety
philo so
situ ations
know ing
f an
te en
haha ha
an k
point s
l ately
con cer
ho t
m er
t reat
bor ing
obvious ly
in ed
ter m
de ad
spe cial
mes sa
pu b
experien ces
p t
any more
got ten
as ses
fin ally
gr ound
app aren
ear ly
com ment
find ing
b ar
b all
l er
op pos
am oun
ce ive
anal y
spec ific
p ain
for get
s id
when ever
mo tiv
stra ight
ent ly
ar ti
sh ed
u ght
spe aking
accur ate
us ion
b en
on d
end er
ed it
week s
c la
character s
je ctive
w al
mid dle
1 1
h un
sm art
s low
conne ction
y a
po sitive
par ty
sto od
some where
ver se
start ing
t ext
real ized
f our
rep ly
fi x
be l
di e
resul ts
ad mit
po lit
ga ve
su c
mis s
know s
ti red
behavi or
child ren
ho od
ke t
appro ach
a po
i ble
us er
s light
anno ying
in it
comput er
b ility
v s
con side
conside red
i ed
is ing
oppos ite
i li
act ing
hel ps
bu ild
typ ical
ta pat
be hind
j ok
tapat alk
g if
introver t
with in
1 8
an na
end ing
n ar
we ar
u tion
pro du
forum s
swe et
p y
cont in
pho to
necess arily
c ul
liter ally
not e
eas ier
s care
inf er
pl ac
appe ar
1 4
b at
bl ue
sc en
mor ning
amer ic
in ner
some how
st ar
ke y
argu ment
ar tic
pro ject
in sight
ter ms
incl ud
feren ce
cont act
valu es
z z
ure s
you tu
c tor
st ick
fe e
cl u
x x
is s
extrover ted
s ite
pub lic
emotion ally
ten ti
ig n
that s
ro te
some what
wh ite
un fortun
dis co
s sed
we ak
sk ill
particular ly
watch ed
oc cas
av at
co ok
other wise
hum or
wat er
mi x
inc red
w rote
are d
possi bly
stud y
th or
pp ed
fu cking
se ss
g one
fel low
i v
it al
t wi
u u
de pression
under stood
prof ess
youtu be
coun try
belie f
work ed
wor st
9 2
ans wers
infer ior
j a
tr ad
do w
attr acted
develo p
amoun t
look ed
par ti
bo t
post ing
apparen tly
intellig ence
ch ance
fe ction
show s
respon d
ip ul
rare ly
su mm
t v
d el
r ound
mar ried
st s
fair ly
o g
man ipul
n al
de f
tr ans
relig ion
do g
thread s
ath y
creat ive
tra its
e vil
p en
son gs
act ual
need ed
part ner
i i
ant s
sen sor
de gree
ter s
in de
s ar
lar ge
l ad
dis like
des ire
fo c
cho ice
sex ual
sid es
od d
vo ice
give s
use s
li ct
ac y
ard s
b ing
at s
th o
a do
r is
p as
pur pose
avat ar
dis agree
m ad
1 3
think s
con cl
develo ped
intu ition
po tenti
bl u
high ly
ut es
en vir
hu g
li ves
int ro
b ir
intel lect
jud ge
envir on
i led
h op
de ci
so c
n one
w ast
pass ion
fr ont
an i
y ed
me ss
de pressed
b ul
1 7
s al
st ri
curren t
clear ly
ser ies
conf lict
it self
dri ve
mat ure
gr and
care er
vers ion
cle an
sp ent
convers ations
at temp
k i
th row
assu me
f low
writ ten
unfortun ately
b other
b la
fa il
ig no
ple as
help ful
resul t
chang ed
c of
fli r
cru sh
a ir
uni vers
origin al
will ing
cre ate
l oud
li on
spir it
stud ent
bir th
w all
ef fort
e mb
re qu
ter rible
nor m
f ur
ro ck
see med
intellig ent
an ti
af fect
typ ed
imp ro
w anna
hi story
ab ly
tr ain
con v
ac tiv
lo se
a ut
mat ch
bu y
d ru
stru gg
spo t
want ing
jo ke
b ra
un healthy
up on
re ach
wor se
as pect
fic tion
g ender
j un
la zy
des p
id ence
c ult
ear th
p ort
li ed
un sure
2 00
i th
su ff
psycho logy
il ities
view s
inten se
teach er
f ive
cep tion
girl friend
re le
c in
me e
comp li
cof fee
h us
friend ship
posit ion
interest s
sk y
ef fect
pl us
fav our
deci de
r ational
stu ck
occas ion
lo ad
ac c
supp ort
for ward
min utes
col or
quick ly
in ti
re ly
ed u
dre ss
bus iness
l ish
pro gram
com b
fant as
de ter
use ful
r al
ch all
bo x
mist a
con sist
opin ions
a ver
play ed
se cre
ye ster
pe ace
mor al
ent er
du de
9 0
yester day
ye p
should n
long er
put ting
spec if
at t
descrip tions
suc cess
inde ed
d ry
gen u
war m
crit ic
te h
natur ally
init i
re comm
cor ding
l on
up set
hus band
c ise
peri od
surpr ised
gu il
at or
al e
li mit
mo ved
tur ned
en s
ch an
exp lo
for ce
or d
no body
face book
attr active
ap art
fi re
el d
mo ving
messa ge
ch at
consider ing
qual ity
w ed
d den
or ts
ist s
help ed
relig ious
f la
do or
ju mp
a de
wal king
genu ine
wonder ful
ag no
ru les
extra ver
in se
some body
c ate
d an
st at
identi fy
i bly
w ing
con cept
sh aring
ul ous
ra ge
aa aa
pu sh
p age
f lo
s ick
i ma
deb ate
po t
kit teh
to m
g es
hand s
i x
apo log
e th
m ulti
sil ly
st ories
be at
comp any
d ated
the s
comm it
p is
po or
sh op
plac es
c ity
invol ved
b b
sci enti
bi o
tit le
he he
li ber
co re
end s
mal es
follow ing
re cogn
descri bed
y y
com pet
ag ed
run ning
f as
u ro
su dden
ho l
fi ed
2 5
pro per
psy ch
incred ibly
aver age
stud ying
at ure
d um
f ill
m ic
pat tern
k y
s of
on ic
cir c
b unch
bab y
norm ally
l one
s j
im medi
stru ct
soc ion
hand le
typ ically
mo der
conf ident
hu gs
gre en
slight ly
val id
anim als
r ic
in ct
ob ser
e ating
en ces
dis order
requ ire
re la
am ong
decis ion
g ed
ac cording
tra vel
di re
sco re
summ er
sit ting
entj s
discus sion
ar r
po e
child hood
cal m
c ation
b an
christ ian
v a
event ually
for got
can t
un t
jo in
p es
scare d
potenti al
mee ting
f l
picture s
respon ses
environ ment
talk ed
state ment
s our
introver ts
pa int
wait ing
me l
cat ch
pro te
sho cked
philoso phy
on y
pri v
ic es
ce i
main ly
fe min
discus s
conf idence
t able
be y
deta ils
rela x
pp ing
skill s
socion ics
le an
ne y
al ot
p an
al i
al right
comple x
pa per
grow ing
li er
lo y
4 0
wi fe
frustr ating
iv ity
om g
entire ly
iz ation
roll ing
necess ary
bo ard
8 0
ci es
enfj s
fe ed
cry ing
univers ity
desp ite
recomm end
c up
car ing
be came
te m
part s
extrover t
dr unk
no pe
if y
ag re
mind ed
b ud
k er
ma ster
pre vious
hor rible
re fer
figu red
p ure
sh ut
defin ition
cra p
6 0
st ren
ig nor
d at
am p
su ck
des er
fre qu
dou ble
bo ss
ag gre
g ro
r ad
bus y
ho le
every body
ima ge
sa fe
f its
t re
perfect ly
me th
wit ch
t ough
ri dic
ma ch
vi be
experien ced
h id
test ed
h m
cat s
cla im
favour ite
ac king
cl asses
ob ses
begin ning
2 4
ac cep
depend ing
vi ol
sign ific
jud ging
c ree
ve red
en se
7 0
l ines
ist ps
ani me
go og
communic ation
me mor
cl ar
i phone
in v
specif ically
lone ly
do ctor
reg ular
exc ited
are a
pu ll
friend ly
him self
love s
pop ular
stren g
respon si
uni verse
sat is
gra de
blu shed
n es
as soci
big gest
3 3
igno re
tr ack
close st
rele v
bt w
b um
e vid
fore ver
deal ing
major ity
f lu
un comfortable
rel ative
c ure
hum ans
pie ce
ro ad
he a
p ha
en sive
de e
remind s
au thor
eng ine
go al
happ iness
vis ion
in a
per ceive
hi lar
ag er
fi eld
finish ed
se ason
ar ian
inf lu
mat ic
d un
d ance
su cks
live d
ne ither
ob serv
fre ak
l ay
ar ies
s sive
our selves
pur su
g ay
ul ation
any ways
decis ions
intellect ual
2 2
high er
sof t
n am
s n
me m
ter ri
prof ile
add ic
h n
ab or
mu m
sp orts
fur ther
sa ve
self ish
im possible
soci ally
o re
st or
usu al
ear lier
re pe
pa ir
profess ion
com ments
ach ie
ridic ulous
g ain
ac count
it ing
ro g
ex er
fas cin
j our
near ly
att ack
mem ory
on s
dist r
in sul
fam ili
cult ure
me tal
l li
inter pret
9 9
fir m
bey ond
be coming
pro cra
artic le
cont ent
procra st
e ps
ta ste
video s
var ious
meth od
ex plan
ke pt
ther ap
pre ference
to tal
sur round
hilar ious
in y
p ath
sh ir
signific ant
relev ant
inten tion
tem per
con gr
streng th
famili ar
m l
tri es
ent y
help ing
ar gue
s li
wh el
ad m
ly r
strong ly
phys ically
stre ssed
expect ed
fil m
su spect
your s
there fore
jo hn
ap point
gre w
circ um
foc used
strugg le
e qu
t t
to wn
multi ple
c is
mor row
te am
contin ue
f law
i us
it es
enjoy ed
emp athy
d ig
s qu
hmm m
r or
fac tor
ask s
th ro
br ought
inst inct
at ta
pl enty
man age
ne ut
dri ving
y o
dra wn
op port
haha haha
i gh
differen ces
stop ped
ee ee
opport un
lo ving
mo on
tern al
de fine
ca fe
over whel
sen sing
americ an
co ver
r on
tell s
cont ext
g gs
th ird
we ight
ye a
new s
op tion
tra it
includ ing
e go
pl ans
dum b
agre ed
v ous
jok es
g ri
to morrow
ob jective
bu ll
uni que
re present
mo ments
wast e
sto re
m ut
te a
ru le
goog le
enter tain
job s
bas ic
be sides
fa ke
circum st
b ilities
ro le
op er
keep ing
al co
or ient
mar ri
regard less
hy po
s me
t ex
bo w
ist ics
fantas y
f ing
n ah
re action
ep is
off er
fre sh
anim al
organ ized
ch es
sy mp
anno yed
cei ving
hi de
in depend
tend ency
dru gs
r ac
in put
istj s
twi ce
neut ral
pre dic
lyr ics
a il
deep ly
chang es
at ic
fa ult
wi ld
ri es
si x
regard ing
guil ty
plan ning
creat ed
m ou
ben ef
at tit
de red
grou ps
clo thes
grad u
happen ing
r r
us ers
turn s
cap able
prac tical
p un
ind ic
act s
imag in
lad y
evid ence
on to
vi a
k a
r ant
belief s
concl usion
spirit ual
v an
see k
lead er
i q
for ced
op s
her o
sk in
mist y
a sed
v ic
fa ith
au to
fact s
ve st
mat er
dire ction
k ick
d ar
is on
we ren
m r
every day
wa ke
j ack
ab str
ast ic
tic ally
hope fully
an ced
dep th
cate g
b are
ti es
who m
bro ke
c row
e h
g un
re gre
mar k
da ily
draw ing
b ound
be aut
priv ate
g ar
i ence
n ic
blo od
beaut y
h es
ch ick
x p
birth day
jun g
go ver
m ary
al ous
chang ing
anal ys
there d
pr in
bal ance
aggre ssive
marri age
am ing
inter nal
possi bility
coun ter
ra ised
phys ics
assu ming
compli ment
extraver ted
2 1
got ta
ext ent
dist ance
sudden ly
a ud
wo od
kind s
9 4
personal ities
s now
clu b
le ts
ma il
over all
str ate
mis sed
mis sing
n ut
di agno
sme ll
ar rog
ic ient
comp lic
ner vous
intro du
2 3
le y
gu es
call ing
prac tice
we bs
te red
immedi ately
gra ph
b ag
f le
t ml
behavi our
im pression
dat a
min ute
u g
th us
is fps
ri ch
argu ments
l s
be comes
e vol
p m
mb ers
adv ent
set ting
s ch
my ster
do gs
ang ers
sub jective
stereo type
d ed
e ff
g ent
ar io
pro ve
app ly
hh hh
ca st
af fection
sc ary
id k
ci p
dis appoint
f ren
f ash
inter action
b ase
f ish
w ind
be ar
ha bit
hop ing
attemp t
impro ve
mou th
r ace
con tr
love ly
exc ell
9 3
ere d
fre ed
j ap
r out
shi ps
je alous
go als
00 0
g ut
in stru
con ven
z ed
al bum
ca ught
na mes
cont ri
med ic
has n
vis ual
deter min
ra p
bit ch
oo o
bro ken
polit ical
f ly
y up
to ry
dun no
h at
the ories
c tr
ke eps
we b
w is
che mist
fash ion
6 6
m and
se qu
tend s
scen ario
i ans
n n
we a
comp lain
example s
stereo types
ac qu
aw ful
ru de
occasion ally
al tern
s l
art s
any where
off ic
os ity
any body
show ing
connect ed
a head
se par
n s
s end
circumst ances
y ay
ing ly
gu it
extrover ts
exist ence
direct ly
webs ite
d d
go ld
il ing
comp ared
ph ra
sha dow
ch ur
different ly
sleep ing
var i
luck y
loy al
i red
freed om
se ction
sa ke
concer ned
st ree
irr it
abstr act
ce le
cou rage
tech n
tml t
v ul
re main
sol ve
har der
obses sed
f lat
h ated
ex pression
hang ing
mo de
mat es
mista ke
excell ent
sol ution
p i
cho col
2 7
c ro
z o
we aring
possi bilities
introver sion
dream ing
ped ia
f ra
acc ident
edu cation
de cent
fo ot
ob ject
hu h
commun ity
su s
arti st
no vel
am ent
week end
b its
in vest
alco hol
st al
as p
ser ved
analys is
d anger
a int
p ages
num b
is es
mo del
esfj s
m ur
z er
pas sive
z a
as ide
per fection
tr ick
mind s
curi osity
u si
ous ly
gg ing
christ mas
c and
s wi
si gh
start s
attit ude
f ell
me as
me mbers
r up
li br
conf using
topic s
4 5
o w
ch ill
ition al
2 6
back ground
fren ch
exc use
explan ation
guit ar
pro gre
over ly
off ice
med it
enti al
bre aking
jud g
spend ing
chall en
c ard
s am
ac comp
des ign
frustr ated
sp an
emb arr
an a
se ll
la p
bas is
i mo
lo ck
reason ing
n ers
bri ggs
event s
dro p
motiv ation
slow ly
achie ve
let ting
rep lies
complic ated
j es
hear ing
drink ing
re ceive
ru sh
lea ving
re act
st are
su ic
op ath
str angers
ad or
clo ser
ton ight
isfj s
win dow
8 5
b ird
bo ld
sour ce
me chan
gl ing
dr ama
f ying
n u
to ler
it ions
as ser
ment ally
fall ing
parti es
c ross
op ti
au x
communic ate
in no
sha me
challen ge
let ters
crit ical
build ing
comb ination
hard ly
ti ll
ex ternal
tal ent
av y
al ive
man ner
expect ations
my ers
sent ence
disco vered
sensor s
i est
j er
fe ctive
sco red
develop ment
secre t
a while
b on
el s
use less
pres sure
pres sive
ins ane
bull shit
t un
t roll
en ess
off ended
let ter
tri p
mater ial
b right
j s
lo op
po l
est ps
assu mp
limit ed
chocol ate
d rain
l ord
p ink
wor ried
fic ial
ro o
inf ul
regre t
c ud
l in
s na
he avy
qu it
inf o
tic s
exer cise
gover n
in spir
anx ious
t ar
in sp
to ward
we red
qual ities
real istic
f at
str ic
bl ind
imag ination
allow ed
fascin ating
cele br
r an
honest y
disco ver
ar m
ay s
think er
every where
ga ther
bor der
min or
bare ly
ele ctr
b row
r at
bri lli
inst ance
pro mis
ment ary
sex y
dy nam
il led
car ry
teach ers
poe try
frequ ently
chemist ry
matter s
passion ate
inti mid
genuine ly
er y
st ated
me ta
rom ance
9 5
s witch
smo ke
accomp lish
ut ter
di ed
appro pri
user name
v it
cas ual
sar cas
an o
scienti fic
adm ire
v y
at o
as ing
ri d
sh all
pri mary
pick ed
2 8
feel er
cho se
spe e
oc cur
flir ting
f al
n ts
s an
re cor
en th
through out
individual s
procrast in
sarcas m
tr ity
ob sess
pa inful
critic ism
c ous
be low
lo sing
exist s
hold ing
cli ck
hun g
apolog ize
k o
ch i
hur ts
so li
fe males
je ction
mil lion
a ur
b log
kid ding
p on
v or
est ee
refer ring
sy n
e con
x n
re ject
me mber
wi ki
tr an
her self
medi a
scen e
we st
am bi
dee per
profession al
en cies
la bel
ven ess
chur ch
d au
z one
dan cing
b ought
pret end
bu mp
writ er
sho t
aspect s
b low
c am
ma int
che e
vo te
vis it
appe al
pattern s
ho ly
ta ught
inter view
attr action
but ter
ca pe
man i
care s
inter act
deta il
conv in
li king
ce ed
per ception
bo o
stand ards
memor ies
maint ain
n ur
ref lect
in stant
int e
estee m
bo thered
gif t
brilli ant
b by
el abor
po ll
stree t
bl ing
dau ght
m irr
he ren
ca stic
im mature
log ist
sar castic
pre p
ul ate
pro vid
cr ack
class ic
femin ine
s w
he h
int ri
val ent
fil led
athe ist
a i
o de
st ates
de li
ell ing
recogn ize
u h
col our
3 5
analy ze
activ ity
chall eng
pis sed
acqu aint
re served
tech no
7 5
s ched
c red
s and
en ing
st im
le ep
spe ed
cl ue
explain ing
me h
ha ust
ad ult
adv ant
as leep
hy per
surpr ising
engine ering
vul ner
3 4
ver t
ex haust
moder n
explain ed
polit ics
bat tle
bro wn
p in
we ed
su peri
bl unt
play s
human ity
va gue
jes us
fo ol
str anger
conf ess
convin ced
e uro
cur ity
mag ic
6 5
friend ships
min i
incl ude
bla me
x ic
trad ic
p ian
po lar
con tradic
tr ay
comp at
gen ius
tur ning
americ a
e qual
fi g
cl ing
cl oud
fant astic
mista kes
be long
dest ro
opportun ity
orient ed
t at
enjoy ing
ef fective
cree py
nf s
contin u
th ri
pro vide
feren ces
pri de
ris k
g or
ma o
d ir
s ke
out going
real ise
mis understood
gg ed
creat ing
inse cure
o logy
par k
level s
wea ther
k u
st age
but ton
la id
mas cul
mel low
n in
bro ad
pri or
prote ct
t ren
fe st
ass hole
contri but
fa iled
dr am
appropri ate
l ur
r ate
cal cul
appreci ated
pleas ant
activ ities
altern ative
g ust
argu ing
shir t
independ ent
enth usi
sched u
superi or
con temp
serv ice
conscious ly
ne uro
vi ll
jok ing
proper ly
d inner
h en
w and
call s
stre am
swe ar
pop ulation
athe tic
al o
h on
ty po
ca ses
pp y
comp ass
sc ale
libr ary
care ful
fr ank
spee ch
a x
if ied
head s
sad ly
creat ivity
langu ages
irr ational
trity pe
deser ve
epis ode
lo cal
temper ament
wi de
ast ro
har sh
leg al
arrog ant
m oun
m bo
t ro
re turn
qu ir
9 7
co de
ag ing
guess ing
gra phy
teach ing
d ick
for give
was h
qu ot
fin al
sha red
av ail
govern ment
h d
l mao
v ac
ad ap
col ors
vo ted
har m
dou b
fight ing
diagno sed
daught er
3 8
k iss
ve y
tru mp
colle ct
lean ing
th reat
te ars
eng age
kill ing
feed back
ast er
ans wered
nar cis
w ol
w inter
lo ss
de v
sh ell
didn t
bad ly
bu b
gl ass
plan et
emp ty
explo re
p ack
p her
t ree
st able
su it
op tions
ca ke
6 4
k is
ac ade
in cre
big ger
ber t
surpr ise
pay ing
pie ces
o tic
ho li
sit es
anno y
syste ms
numb ers
e ase
are as
si ze
man aged
w are
re ference
se es
de mand
ho bb
per ceiving
point less
inter n
sil ence
ador able
chee se
pian o
d ying
pr one
har ry
origin ally
le te
te le
stand ing
les son
har mon
stay ing
appe ars
ref le
talk s
express ing
stud ies
do ors
sh if
ate st
stereo typical
accep ted
mut ual
u red
x nt
feel ers
pro of
sen ti
dri ven
sho es
y el
is ol
lead ing
gif ts
comp are
gre atest
mix ed
parti cip
influ ence
fal se
r us
re ve
up date
log ically
stu b
sign s
subject s
ne igh
char ge
press ing
fac es
oooo oooo
success ful
t um
for med
fe et
su m
ma x
qu iz
had n
s ac
t one
v in
power ful
bur n
cir cle
narcis sist
sor ts
t b
form er
favor ites
fiction al
soli d
j i
m ately
cap ital
stress ful
elabor ate
st one
de mon
just ice
cri ed
ger man
room mate
go s
mil it
gy m
uu uu
mirr or
hobb ies
n el
n ick
p ants
be have
people s
cause s
let ed
9 8
n d
re li
me at
ul ations
br ings
set tle
v ive
per s
see king
sing ing
correct ly
pleas ure
flir t
hi p
par ano
mar ry
euro pe
r s
psycho logical
phra se
intri gu
do ms
ri de
gu ard
inte gr
h an
t f
ha h
ad a
bo ys
gen e
cr is
war ning
ane se
c ust
r ont
in ing
en ed
aw w
cor relation
discus sing
benef it
d it
g gling
pat ient
second s
supp or
progre ss
g as
me lan
le yes
il t
inter actions
enti ally
appear ance
suff er
p ra
u ti
op posed
dri ves
re sist
cri min
produ ctive
avail able
too l
pic king
cre te
mist ic
follow ed
spo ken
wis dom
sp ark
won dered
cond ition
search ing
rol leyes
regard s
or ange
work er
na ire
sc ar
describe s
ali en
atta ched
gent le
r ange
s ses
ex per
ant ed
clo sed
sy mbo
arti stic
student s
paint ing
g al
st ers
ul ty
question naire
aw ww
answer ing
lead s
gro wn
advant age
quot es
at tend
con cep
pre cise
des k
eng th
expect ing
bri ef
therap y
jap anese
wiki pedia
id i
tr um
coun ts
sive ly
ident ity
pol ite
u ck
ch est
for th
do cu
cause d
spon t
coun sel
cla i
d ates
p it
se y
think ers
des per
class ical
analy zing
con sequ
imp ul
strong er
scre en
danger ous
p al
put s
bring ing
m ac
work ers
descri bing
lea ves
ver bal
cor ner
open ing
sign ature
meaning ful
rad io
g ig
es cape
am s
relative ly
congr at
equ ally
7 4
a ke
u k
stand ard
low er
fol ks
e mail
se ven
be ll
ad hd
experi ment
gre y
fre aking
grad es
milit ary
p unch
bo re
sp ring
cho ices
cent er
bot tom
f ro
t iny
ir on
paren t
suic ide
stub born
b ill
s cri
un d
jo ined
ulti mately
liber al
z en
comp ar
tend encies
bu ilt
produ ct
pot ter
misty ped
moun tain
p c
cook ing
compli ments
d ge
un able
con crete
conf ront
gl asses
qui red
responsi ble
spont ane
sha pe
fam ous
character istics
require s
d or
gh o
remind ed
pas sed
suff ering
deter mine
stat us
cous in
f fe
t es
x j
re call
ex ception
ess entially
defin ed
accep ting
7 8
p lain
s is
worth y
b ath
sub tle
hea vi
jour nal
eff icient
tb h
t ang
the me
en e
as sign
h int
ti e
do ll
us ions
bi ble
cre am
dist ur
struct ure
author ity
observ ation
melan cho
idi ot
p lot
le on
sh er
bi ased
pat ience
var iety
res our
ug ly
3 6
b f
se a
ac tor
id io
mus ical
dra gon
associ ated
flaw s
s lo
t ask
re son
reason able
emp ath
disappoint ed
span ish
th ous
be er
not es
br it
cu z
bal anced
mess y
the ore
ve get
co p
ci ple
sp ort
less ly
mat ically
trad itional
thous and
b un
de lete
light s
stud ied
dist ant
smo king
connection s
insight ful
nes ses
zer o
se me
ti m
um ble
ang el
attr act
regular ly
pha se
repe at
meta ph
recor d
f ru
po em
consist ent
s ir
sh allow
pa id
stru ggling
estj s
initi ally
mascul ine
as sess
go sh
ful fill
hel d
pu zz
motiv ated
manipul ative
factor s
rout ine
s la
the tic
for d
co ll
who se
char ming
separ ate
h ence
i les
p se
re ci
or ing
war s
border line
m are
in o
re vol
no where
des ig
great er
explain s
philoso ph
nar row
congr ats
l am
for ms
dru g
crow d
4 8
he ck
ab s
ent s
what s
par ag
doesn t
respon ding
home work
da vid
por n
messa ges
project s
train ing
hid den
pursu e
meas ure
as sed
ad dress
con serv
ter ti
hi ll
list ed
au then
econ om
cust om
5 5
n ie
w tf
ex pl
con fir
ces ses
ton s
cud d
terti ary
st it
aren ess
prin ciple
fig uring
ho st
ra ph
sure ly
mil k
shop ping
c amp
r ation
at er
st aring
po li
bo b
cra ft
add ed
exc iting
l ength
ma them
aw areness
won t
cor por
hh h
treat ed
ado re
obser ve
chick en
vill ain
re ss
ro t
ab sor
fil ms
teen ager
m c
ar ter
up s
sp ic
bla h
effect s
bud d
b others
g lo
since rely
sk i
hur ting
mach ine
hid ing
perceive d
zo mb
e ve
cou ra
profess or
conv ince
compet itive
overwhel ming
re quest
ab lish
tri g
hor ror
authen tic
se ve
ab ilities
show ed
car s
bound aries
techno logy
compass ion
b il
wi l
fe at
po ke
con cent
est ablish
sil ent
pan ic
ke ts
sh el
ul ts
gen re
hum our
leg it
g ic
t rolling
night mare
develo ping
suggest ions
bio logy
s pre
co st
co py
po wers
ra ven
intuitive s
photo s
strate gy
9 6
ill ness
sur vive
random ly
c law
m ous
n it
st ars
me rely
ho les
con su
pre vent
mar ily
bi as
sad ness
sou th
agno stic
parag raph
d im
s ity
t w
re t
pre ferences
inf in
sur face
diffic ulty
init ial
moral ity
inno cent
so le
per cent
play er
bu ying
ni a
active ly
clar ify
reve al
e qui
ho ok
ep ic
tri but
incl ined
responsi bility
overwhel med
int ended
ta st
point ed
cle ver
atta ch
schedu le
f x
bit ter
mis sion
scre w
heavi ly
es fps
ed ge
ne at
night s
bot tle
re lie
ha m
day dream
mat ur
blo ck
arti sts
insul t
c ell
dre a
assu med
hea ven
strength s
advent ure
nin ja
tum bl
seme ster
c amer
o my
si m
pl at
conscious ness
surround ed
concep ts
4 6
lo ose
pres ence
experien cing
ord in
typo logy
re bel
ch ances
ro bot
ob lig
che m
laugh ed
stru ctive
inten tions
liter ature
trans l
categ ory
tat too
e li
x st
post er
oc cup
ific ation
commit ment
techn ically
medit ation
i bility
p ill
re ck
ic or
ind ust
good ness
coun tries
grow th
k no
p up
r ings
am using
vo c
emp lo
includ ed
vulner able
exper t
conserv ative
2 9
l unch
ti ps
com pre
mm mm
show er
app le
s ly
t all
can cer
du mp
state ments
link s
discuss ions
congrat ulations
g ers
r d
ab use
ur y
dif fer
sen s
sm iling
pur ple
ideal istic
prac tically
gram mar
therap ist
embarr ass
dynam ic
u ce
am bit
ta il
pu ff
deb ating
incred ible
philosoph ical
matur ity
b ang
e y
l or
cont rolling
fac ial
ref use
ele mentary
g ard
p ul
s wed
u sive
le st
cy cle
wall s
k ar
n ine
s ne
being s
ph ones
gi an
swe e
guil t
intention ally
tumbl r
t ac
fin an
gr anted
off ense
conf usion
bre ath
romantic ally
period s
myster ious
dram atic
i xt
re jection
ge or
gu id
ster n
cr ash
concer n
satis fied
conven tion
determin ed
b in
o sing
be ach
ar ms
con tain
ca tho
ta x
real izing
imag es
frustr ation
receive d
sher lock
p iz
al pha
ide als
soci opath
mor als
app lies
cy n
shit ty
vis ible
que en
manipul ation
ban ned
ignor ant
distr acted
auto matically
evol ution
mathem at
catho lic
l un
th y
th in
re actions
fe ars
app lic
super ficial
extrover sion
mas sive
flo or
o ops
to ri
de vil
sh ar
question ing
ob li
listen ed
cha os
allow s
weak ness
b ru
i tor
x s
at tribut
gr ate
sur vi
foc using
addic ted
insp ired
neigh bor
a im
d are
e c
z es
le e
comp an
je ans
ignor ing
gradu ate
e ight
as per
ver sus
per form
ah h
cru el
includ es
tre es
tex ting
fing er
3 7
4 7
li m
ur ge
where as
haha h
rain bow
rep ort
vir gin
thor ough
fail ure
firm ation
offic ial
dis ney
ction s
pr ay
che cked
spre ad
h all
th r
st ack
so o
ch ing
ac cess
mo tive
fun dam
bab ies
test ing
great ly
artic les
entertain ing
fundam ent
a ustr
f ed
el led
un known
ex clu
fu cked
apart ment
ske p
harmon y
piz za
g f
in heren
re quired
be gan
so lit
for mat
list s
sug ar
hit ler
jour ney
parano id
p iss
de mo
now ad
ak a
ner d
prefer red
walk ed
fra me
astro logy
ant ly
part ners
sco res
wit ty
concl usions
push ing
bo at
fo x
cl ash
mon o
pic s
stim ul
nowad ays
m ask
n ative
en courage
ti ght
ch er
un usual
off ensive
ser ve
med ical
emp has
vir t
dir ty
e v
h ates
at ory
able s
real ised
ak en
ste al
aaaa aaaa
immedi ate
cyn ical
b ite
no stal
ll ll
fri day
even ing
belie ving
walk s
program ming
k illed
r ated
na med
gi ant
plan e
suggest ed
austr al
on ed
ke ys
pe ts
na ive
believe d
imp act
mi les
cha otic
avoid ing
fl ash
graph ic
4 4
c ated
er r
be red
con struct
wo ke
bi a
accept able
yy yy
m acy
p la
am i
pro cesses
gener ation
brother s
band s
ulti mate
bud dy
c ket
s in
t an
st ance
se ts
ro se
some time
vi vid
im ate
thought ful
ish ed
ste ps
mar ket
rest aur
manipul ate
relax ed
poli ce
d ut
r ay
en light
ho mo
oun ce
pp l
dis gust
ud es
bl ings
in ser
ine se
mis er
br and
break fast
suggest ion
fast er
initi ate
jer k
contribut e
gho st
3 2
c ards
ad es
ag ger
talk ative
inter views
function al
sol ving
sho o
sj s
acquaint ances
v ast
sh ine
mes sed
judge ment
aux ili
pon der
cred it
confir med
p he
ch ess
ch uck
ex pressed
hi bit
af f
intimid ating
compat ible
yel low
rus si
no se
ch inese
lo ver
ro bo
seem ingly
second ary
twi st
hes it
obsess ion
b ic
com pe
gr ab
des c
sol ved
pri marily
spec trum
gree ting
teen s
techn ical
tun e
auxili ary
r ick
w ine
an n
en coura
de te
de pressing
di vor
ff y
cep tions
hor ri
viol ence
accident ally
r ise
ir relevant
fr an
anno ys
stri kes
mur der
promis e
u tions
is ms
ha bits
lo cation
wor ries
rel ating
sen ior
cook ies
gos si
j am
se curity
smo o
chan nel
assump tion
wol f
raven claw
c tiv
v ice
sen sit
after wards
bi polar
pure ly
myster y
contr ast
i ally
m ild
v ary
un te
con form
ci pl
sp here
dis cipl
understand s
cent s
rep lied
ben e
fix ed
respond ed
p ac
co ck
clo thing
inter acting
social izing
land s
clean ing
associ ate
manage ment
roo ms
hung ry
sac ri
d ual
f lying
o oh
and a
li f
un like
kind ness
point ing
heart ed
l acking
s che
re mo
co vered
ta int
man ager
high est
har dest
compet ent
observ ations
cris is
grate ful
a qu
al d
so oo
ac knowledge
he ight
ab sur
gu ide
sp lit
im press
sound ed
ru b
che er
lat ter
sat ur
worry ing
lad ies
jump ing
interpret ation
inspir ation
cling y
5 8
ge e
hi stor
high school
lu c
vol unte
law s
def ense
object s
6 8
o x
ho bby
cho osing
che cking
vo cal
igno red
ded ic
o ce
ab and
ad just
mar ks
hand ed
app lied
reach ed
opti mistic
b od
w s
and ro
wh il
go of
te eth
pro ven
spe cies
open ed
ball s
obser ving
sly ther
whil st
so ld
pe p
we ir
can ada
ss ss
nor th
tur al
aa a
nut s
c el
f ond
l ab
n ational
p tion
ver b
ven ge
mind set
sha ke
exp ensive
notic ing
lon gest
fing ers
asser tive
reli able
b ond
m bered
person a
stand s
gr asp
sho ot
prac tic
consist ently
pis ses
ignor ance
shir ts
chem ical
r ab
re ceiving
no ise
ph en
play ful
reme mbered
isn t
pes si
o gy
x ual
rep lying
throw ing
benef its
infin ite
geor ge
l ou
ar ri
li z
co inc
dr um
fall s
dic t
link ed
kit ty
direct ed
method s
resour ces
metaph or
no x
out s
te ar
rel ates
ff le
mm m
appreci ation
fit ting
invol ve
epis od
leader ship
d red
j k
n ast
ac ity
find s
heart s
hor se
non sense
touch ing
commit ted
gro cer
terri bly
procrast ination
mani fest
narcissist ic
re w
en vy
pe e
de leted
we stern
ir onic
po ol
who ever
care d
mist aken
sent ences
weak nesses
secre tly
lap top
b read
el iness
for mal
de gre
ra pe
fore ign
che ap
adv ance
mag ical
pick y
drink s
ii ii
compar ison
id ers
si g
sh ru
come dy
iz es
emp loy
exist ential
sty les
decis ive
plac ed
psych opath
stor m
hypo the
assump tions
expl oring
camer a
slyther in
over come
bl ank
bur st
grand mother
tast es
smoo th
degre es
st alk
so m
li ar
but t
pos sess
dri ver
mental ity
move ment
valu able
invol ves
sky pe
inti mate
peace ful
lon eliness
apolog ies
eth ical
tex ts
instant ly
provid ed
contemp l
spontane ous
7 7
d ies
m ill
re ward
er ror
me lo
se at
le m
un happy
end less
off end
plan ned
imagin ary
si blings
day dreaming
fo ld
comp rom
na il
aw ake
medi um
sexual ity
sal es
stri ke
ho sp
ra ise
sa ving
bo mb
clo ck
depend ent
num er
hun dred
bra ve
thes is
foot ball
surprising ly
precise ly
h ou
t asks
wh is
el ds
ro les
po d
ex ten
ca ve
world s
lic it
insight s
inser t
nox ious
re in
make up
di cho
part ly
exp and
break s
sensor y
potenti ally
episod es
b ye
s no
v amp
an ony
ad min
sp ell
right s
school s
cha p
sensit ivity
absur d
ti ed
for gotten
sp am
ang le
ob noxious
dre ssed
soul s
perspective s
travel ing
sch iz
bore dom
4 2
k in
m use
be tray
lo lo
de part
ad ults
ci ent
par al
sm ith
cri me
bi ke
add ition
sto mach
embarr assed
adap t
e gg
in n
out ward
ex e
pr on
min im
since re
sm arter
show n
cal i
cha ir
deb ates
math s
emb race
un icor
belie ves
psycho logist
em er
ww ww
stat istics
destro y
shif t
t win
be e
ter min
small er
cha se
teen age
admit ted
bat man
inti macy
deli cious
refle ction
l en
l ly
m ass
r p
as sist
pe ter
our s
express ions
ali ke
previous ly
predic table
ge ek
there s
sp ider
sen ses
conf use
cre ation
import ance
dark ness
meaning less
por tion
supposed ly
occas ions
sour ces
bub ble
ret ard
5 4
a es
m ir
w ings
se mi
be g
ar my
no on
ex pressive
hone y
oc d
deta iled
bul lied
viol ent
thro wn
jap an
loyal ty
g are
m art
th ur
en coun
ro ot
ex agger
sp in
um m
mm ing
brain s
deta ched
tren d
at mo
at ors
ti re
int s
some day
coun ting
identi fied
fan cy
scienti st
opportun ities
cand y
reject ed
luc id
st ating
ne ck
com ic
ach e
na ked
cer taint
sor ta
che ating
car to
mic ha
seve re
obli vious
6 7
i at
an thro
as ha
so ooo
po ses
dream er
remember ing
late st
holi day
theore tical
attach ment
vamp ire
6 2
b ach
st umble
is land
ti p
sc rat
hope less
spo ke
temp or
prin cess
prep ared
clai ms
g aming
p il
ab usive
we igh
ir ony
pro mo
di et
mon ster
close ly
child ish
sex ually
consider ate
dist in
stay ed
ideal ist
cul tural
certaint y
a thing
n ation
z el
as m
ti fic
creat ures
run s
inten sity
apparen t
surround ings
vic tim
judg mental
k at
per man
inter rup
bad ass
enjoy able
hand writing
fall en
ener g
finish ing
flow ers
affect s
moder ate
poke mon
b id
p ity
t ch
you th
ca uti
sa ved
person s
il logical
ine vit
cent ric
add ing
touch ed
communic ating
photo graphy
affect ed
challeng ing
b rush
le ment
ti ck
ma p
sol utions
den y
gif ted
odd ly
load ed
drain ing
thri ll
vac ation
lesson s
consequ ences
micha el
b ast
g id
the less
li p
ver sa
un necessary
su ms
ir ing
ca de
sp elling
pu shed
flow er
repe ated
j ane
l as
me al
be s
with draw
ind ul
every time
emp athetic
suc ceed
ado x
insp ire
ctiv ity
oce an
no tion
su spic
us a
ess ay
bl an
pu bl
attemp ting
vibe s
influ en
co pe
ca using
af firmation
relation s
par adox
vent ing
lar ger
def end
pot ato
obser ved
soft ware
veget arian
b c
j unk
ing e
st ab
st ain
se le
de fault
who a
stru ck
bur den
decid ing
fight s
xx xx
ja mes
sal t
strugg led
bird s
appeal ing
g ate
th om
ch art
any time
iz ations
wa king
sk ip
cap acity
accur ately
crush es
predic t
toler ate
intrigu ing
convention al
e valu
i ency
be ast
mo bi
ant e
sh or
need ing
om en
eth ics
sli p
prep are
frank ly
compre h
k ore
en sion
out come
just ify
com for
char is
affection ate
quir ky
finan cial
g am
u mp
re y
re sent
ch en
un likely
gr ay
gr ace
gi a
exc ite
fair y
eng aged
hold s
pass ing
kit ten
research ing
ja zz
join ing
eeee eeee
window s
bath room
corpor ate
miser able
a id
f ab
r hy
u ri
th um
in ven
or p
int ent
we al
sub conscious
tech ni
relax ing
procrastin ate
suppor tive
melancho ly
fru it
8 4
b ass
g ir
pe ers
read s
sp a
ol dest
pos ing
dro pped
complain ing
gossi p
sh es
im pressed
cl in
hum ble
br an
sho ck
scen es
wast ing
univers al
compet ition
mic ro
gradu ated
scenario s
c ough
p ig
an cient
happ ier
ud ed
hu ffle
sist ers
discus sed
cli mb
organ ization
comb ined
psych iat
fle x
utter ly
to ms
so cks
ag on
defin itions
cur se
behavi ors
win ning
ency clo
load s
wed ding
imagin ing
categ or
austral ia
greeting s
g ry
in sensitive
en counter
ad s
ah hh
pr ice
similar ities
arch ite
bur ning
arrog ance
h its
j im
y i
be th
as ian
op posit
la me
comp aring
should er
fore st
head ed
ger y
colle ction
gig g
sne ak
restaur ant
huffle puff
ge tic
pre gn
ist er
fi elds
hard core
mis m
bu g
ni hi
consider ation
colle a
prof ound
stupid ity
amoun ts
analy tical
rele ase
pun ish
medic ation
stric t
pul led
phen omen
grocer y
atmo sphere
f light
p unk
ther n
ter ing
happ ily
imp ly
sing er
wa ve
wish es
por tray
accept ance
connect ing
gard en
nast y
b ac
d ys
h r
v able
w ra
th ir
ar che
jo ys
tra pped
adv anced
quo ted
occasion al
lon er
disorder s
introdu ced
tar get
opposit es
c les
r as
w ound
si ble
sp ac
ren t
dis respect
emo ji
comm and
luck ily
posit ions
jun gian
bio logical
sn ap
ridiculous ly
survi val
demo cr
hosp ital
g ross
j an
j ac
m und
y er
le gs
for man
do s
ca ffe
dis play
pret ending
iz ar
among st
contr ary
irrit ated
electr onic
lur king
acade mic
cauti ous
j on
re place
re pet
un expected
qu ant
pr ison
after noon
cep tive
ear s
extraver t
addic tion
doub ts
embarrass ing
mobi le
gry f
8 8
i k
v ity
z zy
at y
er ic
per forman
il er
ill usion
cho sen
gen es
cons ci
nice ly
app lying
main stream
fac ed
ideal ism
comput ers
trad ition
fail ing
obses sive
c it
h ating
m ble
n ap
p ier
z on
in sist
in ability
to xic
ro bert
si e
life style
pr int
gen res
care ers
bu gs
br ut
scre am
ught er
pursu ing
flaw ed
gues ses
bold ed
holi days
b ust
f b
in visible
mo ves
ho lic
pro ceed
first ly
mis sive
cent ered
che ek
eas iest
pa ul
engl and
match es
attack s
xn fp
indust ry
archite ct
d ust
f action
f lies
l ust
se lect
es y
qu es
sound ing
tra ve
wa ves
du b
desire s
chat ting
instru ment
exhaust ed
n is
id al
tr ash
wo o
deal t
touch y
wast ed
poe ms
procrastin ating
intern ally
zomb ie
motive s
verb ally
gryf find
e u
al ex
li a
for cing
de liber
gu ar
hi er
need y
man ga
last ed
du ll
insul ting
alo of
trig ger
encyclo pedia
d ang
f if
in ity
mo tor
co s
ite ms
kill er
control led
grand ma
gold en
exhaust ing
b is
r um
re se
re venge
for getting
we ap
ta g
ci gare
wo ah
post ers
af ford
mis understanding
che ated
ger many
sun day
prote ctive
frequ ent
pull ing
offic ially
assess ment
a ses
f ers
u ma
y or
z i
ing u
so ever
de cl
do l
ind if
ist ically
social ize
writ ers
lect ure
sl am
ow l
idio ts
brit ish
glo bal
shar p
satur day
f s
j en
in correct
wi lli
fe red
ri ver
ble ss
gr ass
care fully
cra ve
hu gging
speak s
fli p
inv ited
instinct ual
cloud s
discipl ine
asha med
excite ment
gryffind or
5 00
i lies
z iness
re fresh
ch r
pe st
go o
un ited
su cked
per cei
ex change
con firm
pro s
che at
cor n
creat es
scre wed
parti ally
ix fp
terri fied
interpret ed
remo te
3 1
3 9
f ans
o il
s wit
at u
ke ir
he at
fe t
if ying
too ls
learn t
cha in
clu bs
cook ie
large ly
intellect ually
swi mming
talent ed
particip ate
docu ment
desper ate
fundament al
russi an
t ling
re mark
what soever
ra w
ren ce
fj s
ire ct
cap tain
inse curity
enthusi asm
intrigu ed
principle s
a unt
th ick
re move
the at
en de
is a
lo cked
ad vert
ent it
ter y
sa ge
defin ing
imp lying
mar i
pres ident
sto res
present ed
hit ting
def ensive
fascin ated
symp athy
hat red
impul sive
inheren tly
p ir
p us
s ket
s ending
ve gan
ri p
int end
un g
bl ur
open ly
dou che
anal ogy
ital ian
inv ite
squ are
symp toms
perfection ist
distur bing
depart ment
caffe ine
co w
ri l
ul ated
ci l
ill ustr
ru in
exam s
vis iting
bed room
roll er
suggest ing
allow ing
fli x
ele ment
suff icient
desig ned
5 2
r ice
st ation
so oooo
de ce
ho o
rel at
di p
comm only
god s
dam age
mood s
secre ts
instinct s
feat ures
lim its
thorough ly
dut y
minim al
b ie
e ast
i veness
it arian
li an
ti veness
lo vers
ll ing
af ric
na ils
bre athe
net flix
philoso pher
introdu ce
nn nn
e ternal
g ap
r ising
in vent
for ces
she ep
oo oh
comm er
wouldn t
bas ket
stic king
ele ments
scare s
liber t
psych ic
rich ard
discover ing
wash ing
counsel or
absor bed
goof y
k night
p d
p last
my th
ic iency
he m
con desc
od i
ext ended
sm iles
sha kes
pur poses
cli cked
extra version
process ing
kit chen
straight forward
ado p
bul ly
dig ital
novel s
sell ing
gor ge
hon or
mathemat ics
skep tical
0 1
g il
l ash
al ign
un cle
con spir
ess ential
sp iders
gr in
differen ti
adv ise
cour ses
cut ting
200 0
satis fying
season s
pair ing
thro at
yo ga
medic ine
toler ance
influen ced
d read
t ab
re moved
st on
ar i
mo d
sh out
pre mis
ul a
ill a
char m
dra g
cha me
liter al
dro wn
produ ce
gues sed
li ps
ma ker
gr ud
real ization
sc at
ni fe
mi le
arch y
strange ly
ground ed
nar c
attemp ts
satis faction
engine er
entertain ment
wood s
improve ment
invest ig
gather ing
pra g
empath ize
bil lion
sole ly
ordin ary
bod ies
hou ses
5 6
c ab
d well
j uni
it er
co lo
un fair
un related
su its
ur al
mu sh
com bo
mor tal
pa thetic
sto ck
twi light
poor ly
confess ion
fulfill ing
equi valent
relie f
a me
b our
an cy
my st
pl u
pl ant
str on
ner dy
sle pt
polit ic
priv acy
skin ny
inspir ing
8 2
e inste
p ound
re view
st ro
with drawn
we e
fri ght
under lying
dis ease
organ ize
aut ism
boss y
dar n
xnt p
numer ous
keir sey
libert arian
b ank
k ers
wi ch
ex ces
pre jud
ra ve
ste ad
sub type
bre ed
neg lect
desp ise
tre k
hero es
revol ution
solit ude
juni or
j aw
de x
ri ding
sound track
cra ppy
pu mp
wish ing
colle ctive
sci ences
ener getic
motiv ations
intense ly
aud ience
sam ple
electr ic
bub bly
tele vision
senti mental
pse u
dim ension
cali for
retard ed
performan ce
chr onic
i let
o ve
re as
ha w
li l
do o
ma sters
hi king
ci vi
vi al
aren t
dre w
sub scri
youn gest
bri dge
suggest s
sun shine
critic ize
dynam ics
tran sit
puzz le
robo ts
gorge ous
p ace
ex cl
ex hibit
tr ap
ind ie
ste am
cur ities
imp at
imp lies
mar ke
music ian
follow s
exist ed
trust ing
relig ions
hop es
inse curities
circ les
misty pe
setting s
symbo l
o id
an ne
co workers
un de
thank ful
ser ial
super natural
dist ingu
jud ged
sil ver
blo wn
reach ing
adm ir
represent s
mechan ism
syn dro
isol ated
distin ction
c ities
e lect
f ate
y ell
ad ed
la be
comp ul
mon key
mm er
ber ry
imag ined
mi a
eng aging
blo ody
leg end
iron ically
pil low
einste in
syndro me
or a
of fered
ha ble
te e
life time
dis appear
bl on
ste m
vo cate
tra de
tra um
cal y
close t
sub forum
cult ures
box es
christian ity
objective ly
jealous y
celebr ity
crimin al
drea med
anony mous
5 3
5 7
b oun
s had
y ard
er al
en joys
un conscious
su me
all er
la ughter
mis understand
sc orp
sur ance
stop s
cond itions
dist inct
100 0
figure s
dic tion
accur acy
treat ing
artic ulate
disco very
stri ve
ade qu
clar ity
indic ate
ene my
exclu sive
emphas is
6 3
er a
tr af
ess ence
tal e
prefer ably
bri d
var ies
bul lying
acc used
valid ation
narc iss
p our
th rew
me re
se cure
ed ited
de cor
ad vocate
function ing
fol k
lat in
lead ers
dark er
direction s
judg ment
dit to
econom ics
mund ane
stron gest
pseu do
d ab
g rain
k nife
m t
at m
co o
ma ga
cl um
last ing
tor n
open ness
stru ction
sco pe
fac ing
gree k
stra w
step hen
concer t
viol in
gain ed
irrit ating
suic idal
compat ibility
narciss ism
a ha
e cho
z ard
be ating
ke en
de structive
vo ices
simp li
ee e
concer ns
bother ing
challeng es
enthusi astic
wand er
comprom ise
traf fic
b izar
n iss
in formed
is ation
co ast
int x
un aware
un stable
per su
con sen
inf atu
vi o
sur vey
exist ing
scre aming
treat ment
conflict s
edu cated
claim ing
independ ence
spiritual ity
aud i
aud io
strate g
smell s
cand id
plat onic
b one
s wing
re put
to my
ti le
ac le
con structive
ant is
ind u
im men
list ic
bu tion
ton y
fam ilies
tur ing
vis ited
shy ness
soon er
colour s
effective ly
encoun tered
comfor ting
f ice
g t
t our
t went
and er
be li
ch or
el ly
ge o
id en
ex ual
inf x
cent ral
tit les
pet ty
trick y
cud dle
thousand s
a z
c s
r it
re lea
st ur
be ard
un e
mon day
ak ed
ner ves
prof iles
crit er
quiet ly
conv inc
dire ctor
ali ens
deser ves
repe ating
incre ase
drea my
emplo yed
lif ting
bach el
plast ic
conspir acy
twent y
b out
g it
k n
s ink
s word
t act
you re
ch asing
co oper
con vey
si a
us age
ci vil
red u
sk illed
prof it
swe at
awkward ness
soc cer
rr rr
docu mentary
clai med
mountain s
sacri fice
histor ical
repet itive
9 1
a haha
j ay
k ne
t in
so lo
ac cent
ad ing
un common
dis crimin
ear n
view ed
sign ed
ulti es
hhhh hhhh
medic ations
brow sing
settle d
europe an
divor ce
gir ly
califor nia
4 3
s ps
er t
al be
it ude
li ft
ri gid
im pressive
ful ness
dis hes
ass holes
serious ness
sco tt
hun ter
unfortun ate
flu ffy
orient ation
gun s
capital ism
shoo ting
t ay
y u
es p
no d
li qu
ke st
ast ron
comp la
comp leted
spe ction
pr ince
cent ury
med s
tri vial
bre athing
super vis
fee ly
train ed
custom er
ec centric
dex ter
bizar re
immen se
a ust
c end
g ur
le o
as y
ro me
ro cks
de vi
de cade
co worker
ho b
te asing
ish ing
che esy
mar ti
tra uma
past e
lea gue
food s
conven ient
blon de
albe it
8 6
e z
o logical
p ts
r ut
y um
at least
me me
ic king
don ald
ca kes
ag ers
der ail
never mind
defin ately
br ick
car l
gy n
20 10
break up
avoid ant
inc ident
approach ing
consist ency
desper ately
reci pro
tattoo s
marke ting
p ix
in come
the or
ch el
ch ris
ch ina
ur ous
sp are
thank fully
mean ings
str ing
inter personal
cra w
ase xual
cou ch
gra vit
speak er
tu es
tu red
cli p
concer ning
apo caly
scienti sts
cast le
rout e
web sites
intimid ated
wand ering
nostal gia
condesc ending
transit ion
a my
e aster
u ary
re stric
re charge
al ter
mo tion
mo ody
con ce
read er
bo ards
net work
kill s
bur sts
none theless
paper s
tt es
categ ories
butter fly
calcul us
encoura ging
coinc idence
beg ins
convinc ing
c um
d edu
y r
z odi
in competent
al as
wor n
te ase
ph an
soci able
char lie
fr ance
sou p
domin ance
struct ured
relative s
fresh man
introdu ction
advent urous
mechan ical
stric tly
demand ing
counsel ing
establish ed
volunte er
pep per
stumble d
scrat ch
weal th
zodi ac
m end
u x
st air
ur t
um n
bl at
inter pre
cr inge
creat or
cas h
four th
stick s
ambi gu
prior ity
confront ation
concent rate
outward ly
refresh ing
e ggs
f are
in capable
to ilet
no tific
lo o
out er
ri x
per sist
ma ils
ind irect
od ds
pro v
ap athy
ap athetic
ple ased
na vi
di alo
ob je
ted dy
gl or
exp licit
hand ful
hal lo
half way
invol ving
environ mental
rac ist
drain ed
isol ation
pra ise
horri bly
bene ficial
dedic ated
hypothe tical
swit ched
criter ia
b ars
v ag
me xic
ar a
ab sent
if f
ll a
pre ach
fi es
back wards
fu zzy
laugh s
else where
found ation
du ck
bi an
similar ly
valu ed
dro ve
smo ked
fantas ies
extraver ts
femin ism
safe ty
vari ant
cro ssed
minor ity
mani fe
dev ice
nightmare s
chap ter
unicor n
perman ent
compreh end
tay lor
k k
n ag
the ater
en xp
st ability
lo s
el der
ge on
im m
che ers
wish ed
ama zon
inst ances
identi fying
imagin ative
label s
valent ine
mini mum
compan ies
psychiat rist
chame leon
u to
y elling
mo ld
un realistic
hi re
fo o
fun ni
dis h
gl ance
nor ms
preci ous
diffic ulties
mention ing
appe ared
cha mp
bel le
americ ans
blu sh
program s
flu ent
rac ing
advent ures
album s
compassion ate
impress ions
beli ever
8 3
e g
r ul
al arm
to y
ho g
ur us
ta ge
ss ion
ag end
jo e
cor rup
each other
class mates
gg y
sto ic
ram ble
hor mon
christ ians
athe ism
ww w
intro spective
intro spection
explo de
arr ange
intention al
swed ish
entit led
p ile
v ine
re verse
le mon
ha vent
ti ring
he e
ad am
int r
ne ur
ex posed
ind ian
kind er
agree ment
dre sses
du h
domin ate
eye brow
hun ger
impro ving
insul ts
inno v
melancho lic
emplo ye
disgust ing
andro gyn
dicho tomy
impat ient
maga z
i am
m ul
m ouse
t is
st ark
ac knowled
po lic
ex ceptions
pro b
sa uce
ten sion
fa ils
di lem
lic ate
sleep y
break down
ling u
smile y
pen gu
recomm ended
actor s
authentic ity
applic ation
aband on
8 7
i do
r ating
s f
z oo
th under
re cover
be aring
wi cked
ir ish
po ison
ter ior
ter ror
fi ance
feren t
heal ing
cogn ition
roll s
auti stic
fli ck
dro pping
key board
project ing
compet ence
explan ations
econ omy
eli min
thr ones
tempor ary
punish ment
scorp io
diction ary
consen sus
androgyn ous
r ink
u ct
to l
mo s
su ited
po ly
con stit
pre par
qu er
pro p
dis regard
haha hahaha
mat o
ak i
defin itive
bl iss
bu cks
sub consciously
emp ire
ane ously
trust ed
anim ated
inst it
del usion
strugg les
flu id
remain s
gal ax
product s
dip lo
s can
in decisive
the mes
st acking
al ice
le f
ver ted
am used
pl ants
na iled
girl friends
far m
wasn t
hun ting
warm th
shop s
bow l
sch ol
nur ture
acquaint ance
reson ate
bun ny
zomb ies
ixt j
muse um
pron oun
aes the
yor k
dilem ma
z u
to ast
ti st
ri m
ma stur
ant a
rel uct
spe cially
fi red
fin n
par ad
gener ous
word ed
bu zz
personality cafe
ath le
sk im
mid night
neg at
slight est
anti cip
suspect ed
crow ds
invest ed
model s
doub ting
rab bit
brut al
prag matic
clum sy
c ine
d ur
l ance
l bs
o ch
re acting
st ing
or dered
se p
ti ger
ro y
de als
ge red
ge mini
am use
la ziness
ep i
their s
typ ings
back s
au gust
stop ping
sto le
sign als
20 11
fil ter
fix ing
vulner ability
format ive
carto on
4 1
b li
e lo
i xx
r of
t wit
one self
not ed
comp ens
off ering
ud ing
whe el
quo ting
pho bia
trouble s
humor ous
pen is
fas c
agre es
squ ir
bag s
occur red
demon str
hip ster
integr ity
assign ment
econom ic
camp us
percent age
xst j
pup py
practic ing
pessi mistic
repeated ly
premis e
reput ation
a ve
b ay
p ff
in appropriate
re spective
re treat
le x
be ats
ar row
es cap
out look
su stain
ur ban
per ceptions
what not
con ception
sh u
fri ed
sp i
too th
dis miss
man ual
gr at
real m
ach es
et z
ob s
down load
head phones
10 1
emp ir
bur ned
organ izing
soul mate
flo ating
hol mes
gri p
transl ation
kno ck
dete ct
admin ist
inn ate
mart in
suspic ious
pregn ant
7 6
e lic
f id
h ic
k ay
r ang
an cing
al ge
le l
de m
do od
un certain
un pleasant
we t
po ker
con sul
ant er
clo sure
sub st
pri vi
pho bic
positive ly
stim ulation
superior ity
cudd ly
tw enti
ambit ious
ox y
clin ical
cit iz
prejud ice
alge bra
h s
t ack
in qu
an ity
re tail
se ed
no ve
el li
pe an
fe ature
co ping
con du
tr ag
up per
who ops
ten se
ide ally
own er
ber g
stud io
worth less
deta ch
athe ists
edit ing
tenti ous
pleas ing
dress ing
blow ing
continu ed
tren ds
sim ult
asper ger
nostal gic
twist ed
melo dy
flex ible
hallo ween
mastur b
b age
c d
c ti
f art
en em
to e
to ys
no ises
so phi
he ter
po sure
ex fp
ble ed
over thinking
dis claim
ser ving
mar s
tri ps
sub missive
tor ture
dam mit
respect ed
trans late
grand father
cree p
terri fying
tex as
kick ed
eff iciency
instru ments
gene tic
gene tics
suppor ting
shru g
unde rest
polic y
pean ut
enem ies
c tic
s lap
in ward
en a
st i
ge ar
id a
ce re
ma gn
gu est
ap ril
ph leg
et te
pos ses
cont rover
imp lement
mar ch
cour t
den ial
wit ness
trans fer
bul let
crush ing
swi m
xnt j
trig gered
lun a
ponder ing
contempl ating
exe cu
admitted ly
bac on
indif ferent
dece mber
o ly
t l
t te
st ages
al ine
ro bin
de light
co in
co at
ri er
can ad
where ver
ph d
understand able
play list
dep ri
mor ally
tur tle
lic ense
bor row
sort ed
ama zed
20 12
text book
initi ative
lay ing
progre ssive
accomplish ed
cous ins
voc ab
cigare ttes
twenti es
g ang
l ac
s ane
in xj
es xp
li ly
de pressive
ma j
son s
il legal
com ics
work place
tri logy
char ged
respect ful
ju ice
del ay
pen cil
mess ing
aut umn
recogn ized
frequ ency
oper ate
sand wich
clue less
uuuu uuuu
doll ars
sens ation
anthro po
sele ctive
marti al
3 000
in accurate
be friend
be side
ar ius
ver sed
for giving
am en
your selves
si veness
us s
hi pp
sm ash
bu sh
tru ck
present s
eat en
hit ch
ju ana
sun ny
influ ences
surround ing
john ny
hypo thesis
snow fla
kis sing
tang ible
hint s
cudd ling
dump ed
virt ual
audi tory
stair s
n an
o cial
st un
no m
out right
co heren
ad ren
pre tentious
com bat
comp on
gr ump
ob ama
clo wn
ste in
conf ron
mar vel
ni etz
rain ed
bas h
creat ure
psy ched
brain ed
pop s
lon don
fla g
lay ers
significant ly
medit ate
occur s
compan ion
rp g
trave lling
rese mble
mari juana
agend a
negat ivity
4 9
6 9
7 2
e yed
e ager
f ence
h unch
t ad
in xx
in xp
st a
so ber
ch ic
lo ser
are r
are st
un predictable
su ffe
end ers
sh at
mus cle
tri ple
sub mit
week ends
character istic
war ri
house hold
present ation
hurt ful
amazing ly
organ ic
motiv ate
femin ist
rac ism
altern ate
boo ts
neuro tic
intern ational
hook ed
b last
c c
c ular
e er
p ale
be c
ul ating
la v
ess ays
come di
she er
over rated
ser ves
oh h
wonder s
free ly
avoid ance
summ ar
judge mental
oper a
pun s
san ity
xn fj
fro zen
ambit ion
civi liz
supervis or
prov ok
7 3
c do
g ag
l iness
m im
s wo
th a
in valid
en or
al a
ch ol
lo athe
ab used
ab road
some ones
ul ary
pro mp
di vid
question ed
ob tain
ste ve
cra ving
pres cri
hope ful
god damn
pat ri
exc uses
rest ing
pop ped
sou thern
cap ture
lack s
medi o
fortun ately
approach ed
stick y
manipul ated
catch ing
tre as
dee pest
dig ging
diagno sis
talent s
aur a
asper gers
stimul ating
relea sed
dialo gue
twit ter
simult aneously
disclaim er
g art
g ah
l g
w y
in som
ve t
ha ck
ti dy
ch ie
out comes
ex tr
la ke
ru ined
rough ly
vo car
home less
stre tch
sho ts
20 13
rest less
rol led
impro ved
clar ification
gar bage
phra ses
enlight en
shor ter
percei ver
basket ball
galax y
7 1
b ones
e quality
j ar
l abor
p am
ou red
st ir
no ble
for ts
for given
ac ious
ir a
si zed
gu ine
ct u
sub stance
dist ri
beauti fully
decid es
organ ised
attemp ted
refer red
addic tive
exer c
alco holic
stal king
opti mism
painful ly
maintain ing
contradic tory
desig ner
exclu sively
err ors
bast ard
blan ket
phenomen on
theat re
sket ch
distingu ish
shad es
vocar oo
5 1
d ani
e mails
f w
t j
x im
li me
wi re
ac counts
he els
am ous
ne ath
po op
up load
der ive
pl ate
min us
ste ms
listen er
class room
sun g
mix ture
fill ing
provid es
crack ed
brief ly
occup ied
perform ing
hundred s
thum b
colo red
3 00
a we
c ence
g lit
i pod
t ent
be ta
as ion
ic a
de mean
co t
if ies
ir k
con verse
sh iny
wor ship
her mit
under neath
im mer
dis connected
dis aster
des ired
agree ing
imp lied
sha pes
sur real
hand some
cy nic
reg ist
appe aring
ane cdo
cli che
count less
socie tal
produ ction
success fully
distr act
perfection ism
collect ed
legit imate
swed en
manife sts
phleg matic
nietz sche
suffe red
k im
p ony
re sc
to mato
me tr
li bra
ac id
co sts
ent ry
tr ance
sh orts
qu ad
pro ta
ct s
red dit
comp elled
sit s
ser ver
na zi
di verse
par ks
men tor
ga u
les bian
head ache
dri f
cas ually
tern ally
move ments
domin ation
cut s
py th
conv ic
favour ites
bb c
hol ly
doctor s
destro yed
senti ment
encourage ment
divor ced
charis matic
jac ket
stead y
schol ar
d ive
m all
t ank
w rap
on a
le ap
ar bit
li ous
de press
ma id
ma inten
don x
up dated
bo om
art work
sed u
long ing
form ing
sur gery
sk ir
set tling
ef forts
general izations
ft w
psy che
room mates
jok er
terri tory
mut ually
celebr ate
ambi vert
inevit able
techni ques
interpre ting
athle tic
c en
d ash
f red
s ni
st aff
go th
ne st
see ker
up bringing
la un
good bye
thank ed
par rot
bl end
cra f
lu x
general ization
spo il
negative ly
phy si
ado pt
valid ity
base ball
suit able
acade m
nick name
bill s
budd hi
solit ary
climb ing
deliber ately
sep te
e ous
l led
n fp
p asses
r ust
♥ ♥
re vel
it x
be ars
as ia
pe ak
ri al
con test
self less
di ary
ob st
imp lic
00 00
mag ne
lu mp
vol u
gra vity
domin ated
pass ions
sat an
hahaha h
comment ed
nar uto
profess ors
rad ical
freak s
provid ing
ax is
slo th
pill s
aqu arius
aband oned
jan uary
arbit r
septe mber
h ren
j r
er d
en ig
ch in
ic ed
un ting
pro ves
fri dge
right eous
off ers
lear ner
sor ting
interesting ly
cor re
cor relate
hand y
dri ft
hmm mm
stay s
appro ve
crit i
vil le
grad ually
scre ams
jun e
fla me
fl or
freak ed
attit udes
evol ved
nu clear
assign ments
rebel lious
remote ly
fasc ination
vocab ulary
h sp
n p
x y
in ch
re marks
is y
co vers
id es
pro ving
pro jection
happ iest
dis cer
dis liked
ten nis
ple ss
should ers
aw a
par is
play ers
sm ack
cont roll
enjoy ment
sha ped
hand ling
gest ures
phys ic
hur ry
sho e
dam ned
necess ity
ins anity
temp ted
spir its
draw ings
dest iny
willing ness
fla vor
jump ed
pis ces
fle e
base ment
fool ish
parano ia
desk top
ixt p
neighbor hood
inheren t
rhy th
afric a
gart en
mainten ance
a ther
b ounce
d j
o be
t am
in formative
to ber
ch ip
lo west
ab y
su pre
pa use
surpr ises
pay s
fortun e
avat ars
ris ks
proper ty
sn u
indic ator
graph ics
sna ke
cam ping
dor m
reson ates
hesit ant
weir do
kore an
gigg le
bis exual
grump y
b ble
d c
g li
i um
i able
k ate
er o
to dd
and y
ha y
li can
who re
sp ouse
fun eral
af fair
man ic
ose xual
di a
di vide
reason ably
gener ic
vers ions
view ing
gg le
appro val
sid ed
def ending
environ ments
throw s
aggre ssion
abor tion
achie ving
crow ded
disappoint ing
gut s
determin ing
judg ments
wol ves
kis ses
dete ctive
reward ing
schiz oid
quant um
willi am
commer cial
easter n
psyched elic
pyth on
laun dry
s way
s ions
t ou
de bt
ur a
per tain
ex fj
just ified
ant ee
pre fers
sp it
gr as
ach i
soci ology
cli ff
nar r
summ ary
sal ad
tran sport
nur se
resour ce
custom ers
mathemat ical
rainbow s
termin ate
zel da
publ ished
nihi l
antis ocial
prota gon
a hem
f ist
f ont
t abs
y rs
al y
or g
as sure
ha i
li ze
ke e
ac hable
con vo
sh in
ra ising
ta urus
sa v
bo ot
sp or
man aging
into ler
less er
di am
di ving
defin es
je ff
pres ses
lic king
awes om
exc el
oc tober
couple s
hor ny
hun t
manipul ating
stat ic
concept ual
million s
boo st
collect ing
threat ened
doors lam
sum med
puzz les
bene ath
invent ed
elect ro
iden tical
exerc ising
c art
g amer
l end
p tic
s have
s anta
at tain
to ss
ha mmer
li mb
ch ant
el dest
ac counting
de t
ab normal
co ward
if er
am or
po lish
sh ark
mu d
tal es
his m
ass ass
mon t
last s
cu es
gg ers
second ly
nt p
vir go
remind ing
near by
apo logy
foc uses
blu es
fantas ize
recogn izing
minded ness
symp ath
indic ates
vari ables
swi ft
rat io
nur sing
reflect ing
button s
kis sed
budd hism
attribut e
indul ge
wra pped
exces sive
labe led
kinder garten
trag ic
adren aline
b anter
e ag
p and
v om
th ou
al together
se i
ly n
li est
ro of
pe ar
ac ies
ent ered
si es
si ms
der s
sp at
mon itor
ga ze
down s
important ly
trust worthy
couldn t
ju ly
intuitive ly
text ed
fla v
hehe he
deser t
track s
represent ed
instru mental
shadow s
manner isms
troll s
celebr ities
vague ly
dir t
quir ks
metaph ors
seve rely
skep tic
chuck le
sacri fic
exten sive
collea gue
spac es
guar antee
scat tered
vio let
ambigu ous
civiliz ation
6 1
b ers
w ins
in justice
re pre
re ferences
the ist
to s
be gun
lo ops
de pic
ge ome
int on
qu ie
sa il
gr ind
fu cks
ni bal
ner ve
add s
add itional
pri me
ram bling
cle arer
hor ses
fac tory
fight er
treat s
trad itions
ii i
concl ude
bul lies
edu c
mel t
squ ee
gri ef
jack son
enthusi ast
abs ence
tw ins
xst p
cock y
collea gues
politic ians
bachel or
immense ly
gravit ate
dani el
8 9
c kets
j elly
k icking
t witch
v on
w rest
w reck
x ps
the art
en sure
st ell
al ert
to es
be an
so ap
wi red
de em
de voted
tr aged
pro spect
art sy
im mortal
emo ti
ince ption
sm ar
tra il
mi ke
share s
cry stal
law ful
law yer
avoid ed
truth s
trans form
conflict ing
flo od
sna pe
vac u
harm less
max im
radio head
villain s
vary ing
hearted ly
dicho tom
dub step
adequ ate
b ree
e ts
f fin
n ab
it ation
so pho
ti er
co z
any how
ta p
over think
log ists
ext p
ob sc
oh hh
cer ity
high light
word ing
head ing
gre ed
sur fing
bro od
writ es
rain y
dec ades
ip ad
por trait
analy se
photo graph
clu sive
ital y
loud ly
prote ction
selfish ness
path s
auto matic
carry ing
oooooooo oooooooo
attend ing
concent ration
adop ted
myst ical
liqu id
canad ian
a e
d v
d ino
e leg
p anda
v ation
in j
re feren
re pressed
re turned
at a
al t
ar gh
mo dest
de re
do t
out fit
we ars
po cket
fa de
man ly
experi mental
au th
mor on
bas ics
line ar
fre ud
remind er
em ma
flow ing
rational ize
initi ating
goog led
lay er
pair s
regre ts
rap id
stree ts
flat tered
virt ually
compe te
kore a
3 60
e ct
f oun
h ul
m ult
re read
ro b
mo ck
out let
pro portion
sp ur
sp ite
ry an
under grad
fi le
des pair
min s
ga thered
mis ery
mis leading
vo ke
ner ds
ton es
social ism
sex ist
car ried
cool er
class ify
war ming
expect ation
ideal ists
bel ly
morning s
flir ty
rational ity
comb ine
require ments
rad i
satis fy
observ ant
fle sh
chi ps
contradic t
integr ation
symbo lic
reci pe
thom as
techni que
relat able
hormon es
coheren t
enor mous
buddhi st
5 9
h t
r ar
y ah
in ations
re tro
al m
ro be
do se
ad er
ent ering
mp tion
ap t
ah hhh
pr act
mat t
min ent
men tions
proble matic
mis conception
mor bid
app les
view point
heart less
sho cking
gra ve
tit an
worth while
spir ited
anim ation
knowledge able
bel t
birth days
ix fj
beat les
ban ana
memor ize
pha ses
trick s
switch ing
butter flies
continu ing
lur k
paragraph s
fundament ally
phe w
consci ence
architect ure
weap on
differenti ate
reluct ant
auth ors
h ed
k an
k nit
r he
v ain
in er
re solve
re solved
re tire
ou l
ti ming
wi zard
ic on
mo cking
co ke
co aster
ex ternally
ca pr
sel dom
sa ur
vi an
mu g
fi les
own ed
vo tes
gre g
stuff ed
order s
pop corn
cru shed
admit ting
poe tic
responsi bilities
distr action
nic er
ration ally
eli za
compre hen
dut ch
thur s
charis ma
pound s
rit ual
awesom eness
re cur
st an
to ps
me g
se ct
ti fied
my stic
pe er
ac com
mo le
he ated
out doors
co ps
co stu
op athy
po o
per ceptive
ex terminate
king s
str ay
di al
gl ut
cal ming
dream t
rain ing
week ly
pat ron
gg gg
commun ist
meet up
qual ify
hy ster
ele ph
hot el
plac ing
freak in
profession ally
attack ed
fish ing
conven ience
mechan ics
challeng ed
demand s
xs fj
stalk er
inevit ably
kne e
tues day
eyebrow s
insom nia
b ent
b aff
c ue
k or
k ink
u hm
in her
re tain
al an
is lam
or chest
le ge
mo t
si al
ta pe
king dom
vi br
sp ill
im ho
stand point
seem ing
mus lim
br on
pu shy
hor o
enne aty
da ve
stereo typically
fy i
polit ically
sess ion
grand parents
arr ang
kick s
vari ation
theore tically
indust rial
differ ing
attribut es
neighbor s
mono lo
plane ts
unicor ns
pengu in
sopho more
1 50
d up
g low
p ies
s words
an ato
the sia
al bert
or gas
wh ining
ent repre
po w
po le
ex cer
ex terior
ind er
ind ia
ble w
her s
fi er
fin als
gen i
sc and
social ist
gi le
fact ual
sle e
20 14
boy friends
gra pher
den ying
rest ed
lect ures
spo on
da wn
serv ices
note book
stri p
sky rim
program mer
att acking
recogn ition
moder ately
achie ved
distr acting
van illa
fra gile
jer ks
sna il
temperament s
expl or
host ile
frame work
rp gs
potato es
weap ons
shakes pe
coo lest
explicit ly
funni est
elo qu
heter osexual
arbitr ary
smar test
a o
b end
g and
i val
th ru
re pub
me mes
ch ron
el le
ro ses
ic y
mo dif
do om
do zen
ce real
ex posure
con cise
ca ps
sp elled
um in
kind ly
new bie
bit ing
might y
vo ting
enti ous
mor ph
general ized
sup press
stre ak
emp t
net working
spir al
teen agers
approach es
purpose ly
consist s
specif ics
disappoint ment
separ ated
usi ble
destro ying
continu es
doub ted
symbo ls
finan cially
contain s
bru ce
llll llll
psychopath s
carto ons
snowfla ke
thurs day
g pa
l eness
o le
u ber
w an
w ack
pe red
de fe
ent ity
po ver
ra z
ss s
ag ent
pl s
um mm
whi ms
red uce
thank you
under developed
man ners
sen sible
wat ers
vers ity
bu cket
dr ank
listen s
add y
reg ion
mi red
dri vers
stre t
mother s
break er
tu tor
qual ified
stereo typing
research ed
wal let
weak er
bing e
fur nit
color ful
bb ish
board ing
circumst ance
pi lot
lin ux
deli ver
threat ening
ski pped
cheer ful
kitten s
bless ing
traum atic
apocaly pse
nove mber
medio cre
repub lican
g ul
l f
st ats
se man
ve gg
as se
as well
lo c
po et
sh ining
wo re
dis gu
hel pless
je an
ste el
gl ory
form ula
bre ast
bas ing
spec ulation
opinion ated
appro achable
major ing
hy p
hy brid
kill ers
fuck in
dead lines
obser ver
pursu it
stor ming
insul ted
bon us
promis ed
san guine
contradic tion
fest ival
contribut ing
dev ast
refle ctive
distur bed
dragon s
homo sexual
consci entious
rof l
controver sial
treas ure
forgiven ess
obsc ure
furnit ure
a pe
e up
i als
l ined
r ous
u es
th re
re x
re active
re cording
er m
st ones
is xj
le wis
ve hic
ic ious
ac les
per pet
qu ar
ra ises
need less
dis organized
fa ults
str ings
mind less
mat rix
ted ious
ru th
mis anthro
cor d
music ians
respon ds
ber ries
ear ned
extreme s
bur nt
ref ers
oooo o
awkward ly
analy zed
ky o
complex ity
tre mend
vision ary
sn ack
represent ation
gradu ating
invest ment
bump ing
crack s
exception ally
tac tics
steal ing
encoura ged
mild ly
arri ve
arri ved
assist ant
delusion al
elli ot
traged y
d ess
d udes
o at
p ical
v ise
w ary
re con
on o
en ix
le af
so cr
mo ds
do me
un certainty
un conventional
si bling
she et
ine ff
dis likes
real istically
ph arm
mon og
ext j
ak in
je ez
tend er
tra iler
char ity
spon ge
cond itional
mi gr
spo ts
ref used
comment ing
mach ia
sn ark
interpret ations
fig ur
impul se
und ant
confront ational
consu ming
reveal ed
applic able
xs fp
fran cis
dual ity
lou is
mill en
bran ch
ende aring
infatu ated
pts d
magaz ine
underest imate
maj ors
chic ago
demean or
eag le
shakespe are
8 1
e a
n g
o li
w re
y d
ing en
to wer
be ans
as hi
as pie
ar se
wh iny
ch u
ke vin
wi e
gh et
ad voc
int ru
un ion
qu arter
ok ed
sa git
bo l
ite m
ren der
ck y
over bearing
dis connect
man kind
ide ology
bu ried
ative ly
light ly
vent ure
20 15
oc curren
concer ts
wal t
behavior al
14 0
mix ing
inde x
mee ts
feed ing
deser ved
road s
depth s
cross ing
roo ts
blow s
particip ating
nick names
attend ed
absor b
enlight ening
thum bs
pus sy
dab ble
amuse ment
flor ida
1 30
d na
f is
f ought
g lee
j et
p ine
u hh
v as
in hibit
re sur
me als
ar ab
co ding
su al
op hren
ne il
gu m
bo ils
over load
na vy
je wel
ste pping
fu el
mar ked
tri al
cal vin
nor we
war rant
search ed
cha sed
spo iler
nt j
mas och
fortun ate
ki en
bra z
cin nam
commit ting
paint ings
bud get
pursu ed
gain ing
gather ings
sw ings
max i
efficient ly
tang ent
doll ar
relie ved
tax es
sin cerity
schiz ophren
energ ized
admir able
hob bit
squir rel
protagon ist
machia vel
cinnam on
7 9
a ven
a ire
e en
g us
j as
n ard
t read
w rist
an tic
at ile
st ag
be hold
as u
lo ses
ut ed
de fic
ho mes
ne cro
per ci
con quer
si mon
pro phe
act ress
ci de
ive s
sp y
est im
able d
mis read
cra z
nor thern
sub types
cu be
past a
pat ch
pat rick
class y
weird ly
assu red
phi l
phi es
motiv ational
argument ative
trans cend
concl uded
hop ed
eth nic
yy y
vic tori
toler ant
nur turing
mascul inity
gho sts
stit ute
reck on
reck less
employ ment
aes thetic
arche type
document aries
align ment
rhyth m
dino saur
d b
p ad
p ud
r ank
v od
v ital
be loved
ch op
el it
ad dressed
ho c
ca ution
ell a
pro test
read ily
bo obs
her mi
ap h
dis comfort
par king
clo sing
thanks giving
ste w
che a
sur ing
open s
pri est
mine craft
har u
health ier
run ner
comfort ably
fall out
fit ness
spend s
bri an
socie ties
supp ly
mer cy
cook ed
uu u
tho od
conflict ed
emb ar
support ed
critic ized
flo yd
paint ed
mach ines
symp athetic
material istic
deli very
prior it
protect ing
wash ed
harm ful
awww w
address ing
consu me
oblig ation
oblig ated
kar ma
ev ange
sche me
height s
democr acy
grud ge
discrimin ation
astron omy
glor ious
tol kien
privi lege
condu ct
provok ing
volu me
educ ational
dichotom ies
hermi one
c p
d addy
f ry
g ie
j ones
k urt
o v
o ta
u ll
x us
re c
re sort
re turning
st even
al and
ed ward
ad mired
un intentionally
un employed
un controll
su red
con cur
pre su
pro ved
vi et
ble ach
jo int
ap pre
fa king
des ir
back ed
before hand
ste ak
child like
incl ination
var ied
mer ry
arti ficial
ja il
bra g
initi ated
inse cts
nut shell
vari ants
bon ding
pin point
thri ve
quiz zes
idio tic
soo thing
yyyy yyyy
andro id
drum s
seat tle
betray ed
sele ction
aller gic
notific ations
execu tive
geome try
anato my
b am
f ically
g all
j av
n as
s ab
s mal
s cent
s lack
in ju
in considerate
re lying
me ga
se ren
my tho
lo tr
el f
fe ather
do re
co sm
go ti
un consciously
ne goti
po v
ce ase
si mi
up side
pro m
ra h
ra ging
say in
work out
tic ket
fi li
di vine
log ies
fore most
ext re
par don
ru led
ste pped
wel coming
gi ver
light ing
car ol
ba king
fre el
vis ions
fall acy
expect s
appreci ates
brain storming
short ly
judge ments
nes sed
distr ust
nic est
evol ve
instru ctions
shel f
pla usible
hesit ate
dys functional
cow boy
anthropo logy
nihil ism
d ent
x xt
in significant
an arch
re sume
on ion
wh ist
es cal
so re
el ines
go at
like wise
ho ver
per pe
con firmation
up beat
sp ain
ful filled
fin ance
pr ick
ang st
gen cy
long ed
mat ched
ff s
emotion less
conf uses
mar ath
gg in
mine m
lea ther
uni ver
jud ger
swe ep
entire ty
fac ep
atten tive
grow s
glad ly
hair cut
serv ation
trouble d
contin ually
contact s
sar ah
meeting s
suck er
signific ance
dee med
represent ative
hypo critical
behaviour s
offic er
achieve ment
blind ly
brow ser
vit am
contemp late
consequ ence
coll ap
shel don
guid ance
aaaaaaaa aaaaaaaa
dict ator
betray al
exagger ated
ende av
symbol ism
obje ctivity
pronoun ced
finn ish
hipp ie
cynic ism
monog amous
0 6
g ently
g enders
i b
k ins
o ms
p ent
t ation
t wel
re views
be half
ad ul
int ra
go re
un wanted
thing y
con not
si li
ca ge
ca us
sh rink
ra chel
than king
dis plays
di gest
cent re
bu ff
sc ul
sc ru
char les
light er
simp ler
general ize
whole heartedly
cy cles
argu ed
pick s
quick er
mas ses
ele v
photo grapher
parti al
bul b
aut on
recogn ise
recommend ations
vic ious
phra sed
chi me
blog s
mani ac
neuro science
demon strate
pit ch
scri pt
budd ies
hall u
evalu ate
yi kes
pir ate
doo med
blat antly
employe es
implic ations
vacu um
enneaty pe
a this
a us
d al
e w
me tic
and rew
se as
as ingly
li hood
ti mid
ch et
ut s
out bursts
ad jective
po ckets
sh its
ok c
oun ge
ra ped
hi ke
fun k
under ground
na po
log ged
after life
list ing
br ad
sy nes
reg ister
appro xim
eat er
bur ns
inst all
oppos ing
ben evol
photo shop
round ed
mad ness
grand pa
rock y
hid es
firm ly
equ ation
indic ative
dar ling
analys ing
instru ctor
opti mist
mirr ors
advant ages
ku dos
legit im
transl ated
virgin ity
austral ian
volunte ering
lou der
interrup t
subst anti
spoil ers
corre ction
spat ial
rhe tor
eliza beth
recur ring
entrepre neur
1 20
b d
b ah
i ch
m am
o scar
r l
en vious
st am
st ink
al tru
ar ist
wh ine
li ars
de struction
out rage
op pon
ne on
ant agon
mp h
good s
rel and
jo se
fi ref
iz er
om i
bl ink
test o
hum ili
pres sured
cr am
pa ired
til ity
cre ed
colle ges
dist ress
dam aged
commun ism
truth fully
wit nessed
ideal ize
individual ity
16 0
mer it
star bucks
box ing
critic izing
wed nes
pis sing
master mind
team s
ls d
remain ing
inspir ational
dram at
sac red
reson ated
sla ve
attribut ed
shru gs
junk ie
resent ment
fab ulous
fab ric
portray ed
subscri be
yum my
flick r
explor ation
sagit tar
vod ka
c url
m g
m asks
o z
r ud
in i
in ches
ar ise
no tori
ro s
mo ms
out ta
un ts
un clear
ce iling
per se
per mission
just in
ca f
wor m
pro pose
ist a
cho res
fin ed
fin land
di ver
bit ches
bl aming
sc ener
mar x
watch es
tri ggers
dep t
lic ity
exam ine
name ly
ific ations
speak ers
sil ently
tit led
hy pe
correct ed
pho enix
em ily
bra vo
200 9
valid ate
addic t
cis es
section s
libr aries
insane ly
electr ical
promis es
tran sp
reflect s
battle s
belong s
vill age
yel led
length y
percent ages
icor n
restaur ants
russi a
vocal s
categor ize
guar ante
phan tom
mexic an
gau ge
narr ative
monolo gue
sagittar ius
i me
i reland
r ants
s add
w en
th ie
st ig
li ble
el a
de pre
ad der
con struction
up dates
pro se
sa int
dis sect
experi ments
gener ate
cons ent
hum ility
mus cles
ba ke
class ified
heal er
war n
leg ends
dro ol
party ing
ris on
dan cer
flo at
flu ctu
rant ing
rout ines
contri bution
dd dd
vari ations
roo ted
obsess ing
cher ry
iiii iiii
spin ning
genes is
fif th
willi ams
grud ges
compla ints
indirect ly
imm une
inqu is
regist ered
millen ni
twel ve
4 00
b aked
g le
v u
y ers
z oned
in u
an or
re solution
ar thur
ac er
do c
ne xus
ma fi
con cious
see ks
pl ato
com fy
she ets
ine t
over lap
af ar
iz zy
which ever
ang les
belie vable
cri es
mis interpreted
che cks
mar io
mar gin
ster one
nor way
view points
rep ul
lan e
anal og
dear ly
pass word
blo cks
gif s
pen al
ima gery
cup s
exer cises
gradu ation
misty ping
determin ation
bitch y
ambi ent
wide ly
incre asingly
annoy ance
guard ian
occup ation
guid ed
gee z
exten sion
paral lel
disrespect ful
reas surance
candid ate
compla int
empir ical
citiz en
warri or
gag a
chol eric
criti que
sympath ize
fier ce
empt iness
maxi mum
hoc key
desir able
napo leon
g age
h ue
j d
m int
m fa
u ous
v v
w u
in consistent
ing red
be having
be ef
as ap
no od
so da
ti ci
el and
for bid
mo th
co ach
co smo
go ose
per fu
pro to
bo sses
sp ice
il it
com position
im moral
dis rup
probab ility
ext end
min is
school ing
cor ners
gl are
fic ation
tur bul
ba it
dra gged
mi ch
20 2
free ze
commun ities
inst in
inst agram
blo cked
ele ven
dro ps
dead line
limit ing
stat istically
apolog ise
apolog izing
bio graphy
prote in
recommend ation
pull s
sli de
oper ating
hypo cris
bear able
sam sung
swee test
emphas ize
outs ider
whis per
whis key
encoun ters
hier archy
champ ion
prepar ing
prop ag
rar ity
accom mo
norwe gian
arist o
wednes day
a vi
b ane
c ass
d il
j ess
l um
m ash
re acted
re cru
on going
en o
ar o
ch arts
ay e
lo athing
ri a
ad ams
un willing
su f
po king
don ate
ter t
hi red
hi ya
um bre
ol en
here s
mean while
gr ant
low s
na ught
mon ty
mon sters
mal icious
book store
mis ogy
mar sh
mar ine
cal end
sha de
wonder fully
dec re
cy cling
pri ze
wait ed
hor iz
ash es
teach es
pop ping
psycho logists
eat s
ging er
dest ination
tom boy
scienti fically
shut ting
streng then
further more
sli m
appoint ment
entertain ed
strate gic
sw allow
ske wed
prior ities
calcul ating
contemp or
sum mon
empath ic
spic y
evolution ary
aim ing
stimul ated
rein force
anony m
wwww wwww
tempor arily
motor cycle
mush rooms
strateg ies
conce al
prob able
aesthe tics
confron ted
divid ed
holly wood
emoti cons
capr icorn
testo sterone
ingred ient
instin ctive
hypocris y
a is
a ah
e tern
f m
f ue
i ers
k ra
m me
n ud
t p
re placed
en n
st j
it a
be ck
es h
ch ord
do pam
ri pped
con vert
ca sts
pre sume
ye h
has h
red undant
tic kets
under wear
im personal
dis position
fa thom
typ al
mind fulness
mon d
wat son
sha king
tur key
dream ers
gest ure
ped est
attr acts
20 16
exist ent
fair ness
appe als
notic es
fac ade
present ing
decis iveness
draw s
cli mate
individual istic
ref rain
ref uses
cut est
dead ly
tho do
clean ed
200 5
upset ting
eth ic
mic row
catch es
rad ar
evid ent
tt tt
indic ation
vic tory
flat tering
incre ased
han nibal
polite ly
pla gue
sold ier
weir dest
inven tor
thir ty
philosopher s
washing ton
drown ing
admir ation
compul sive
instit ution
pover ty
smal lest
hallu cin
a vid
b acking
f ling
p g
u top
v m
re fu
re public
en h
en force
le go
ed ition
ro cket
pe g
ri e
end or
ul tra
more so
pro minent
ven us
ast e
never theless
dis son
iz z
cl ay
cl utter
ang els
di versity
gener ations
ward robe
sing ular
wel p
sy l
cu red
lu ke
app la
class ics
video games
weird ness
enne gram
jor dan
ze aland
psycho logically
scre wing
bar rier
produ ced
produ ctivity
public ly
sess ions
stri king
bra gging
according ly
33 33
hahahaha hahahaha
vic ti
wis er
irrit ates
asp ir
achieve ments
asser tion
recor ds
isol ate
demon s
guard ed
gentle man
plat form
tall er
applic ations
pessi mist
lolo lolo
eeeeeeee eeeeeeee
arche types
dol ph
goo gling
neglect ed
devi ant
intr ins
parad ig
geni uses
mafi a
a ay
b ap
c licking
f and
l ud
n ig
n els
o led
s ass
an th
en vision
al leg
al chemist
to me
es que
el sa
de licate
ab ras
out spoken
ri des
ad heren
like lihood
ur able
ex pose
can cel
con ceive
ul um
ren s
ble ssed
fo g
dif fers
real ising
di vision
om ni
ga my
inter acted
ru ining
cri pp
tri ad
char lot
hu bby
wonder land
adv is
car nation
hur ric
conversation al
rare st
win ner
indi go
mas sage
cru cial
individ ually
messa ging
cul tiv
star ters
zz zz
disagree ment
requ ited
acc um
calm ly
prote ctor
dat ab
inv iting
associ ation
cafe bot
gri m
hypo cr
judg ers
asser t
inno cence
electr on
schedu les
refle x
integr ate
patient s
progress ion
concep tions
spread ing
spider man
percei vers
fright ening
boun cing
craw l
lingu istics
assass in
quie ter
bree ze
eleph ant
c m
k ale
n oun
n fj
o ter
w age
th x
in th
in consist
re ceptive
er k
en fx
ed i
ed gy
ch ri
de er
do ts
ab ra
int ric
od a
pro ced
sp ray
ren d
fi res
shi eld
few er
inter ior
sm irk
vo red
cons iders
comple ment
comple ting
hu gged
depend ency
tor ment
vis ually
sho ve
couple d
dy lan
walk er
touch es
ele ction
negative s
notice able
mer maid
motiv ates
affect ing
200 1
chat ty
struct ures
mechan isms
recor ded
fool s
assign ed
pup pies
virt ue
robo tic
dict ate
fet ish
dimension al
vag ina
cine ma
compens ate
respective ly
oly mp
lav ender
comedi an
mot to
dome stic
facep alm
a med
b op
c ating
g ment
h rs
l is
l ul
l ens
l mfa
m d
p ant
p acking
s fj
s abo
â x
st ically
ro ts
ac cus
de feat
un attractive
un requited
su pr
op hi
ne o
ex ceed
can c
mb ling
real ist
ys is
new spa
ie ties
bu ck
mar ty
sol ar
car a
sk ies
simp listic
rep or
fear ful
sun set
communic ations
ground s
build s
18 0
limit ations
door mat
femin ists
flu ff
author itarian
jour n
nut r
irrit ate
meas ures
medit ating
sna kes
spee ches
spontane ity
journal ism
cop ied
sens ical
embarrass ment
cher ish
enlight ened
bic y
assist ance
jaw z
misunderstand ings
infatu ation
navi gate
depri ved
hyp no
scener y
etern ity
dopam ine
0 11
e gy
f us
l amp
n ate
x js
st rain
st olen
as cend
ha il
lo vable
pe ach
ac o
de tri
do ctr
co ca
ri ous
ent a
un it
su e
ex es
vi able
man u
ick le
ass ing
aw ak
ff ff
ru bbish
conf id
enti le
sub way
car ries
general izing
cy ber
class mate
met ro
aa ay
develo per
den ied
non y
valu ation
perc entile
build ings
lion s
impro vis
explo sion
jump s
memor able
engine ers
independ ently
van a
novel ty
chill ing
calcul ated
particip ated
scar let
coll age
survive d
pray er
adjust ed
mill er
perman ently
interrup ted
sneak y
iter ate
cere mon
discer n
supre me
occurren ce
benevol ent
disson ance
b ak
b ff
b pd
g ad
l isa
n ies
p ap
w ut
y n
re press
is ra
se cl
le th
ar rested
so b
li zed
ch it
ro ast
pe eps
ac es
de fi
de mis
de arest
co ordin
ge ass
un ity
un interesting
un conditional
ho ll
ex cess
end lessly
ta i
ci als
la u
bo il
will power
cho re
dis ast
dis soci
dis coura
scho oled
che f
sc al
fu tile
row ling
coun ted
sub je
writ ings
simp licity
dra stically
health care
war ned
super power
sign al
assu mes
spo ck
anim ate
stereo typed
abo ard
res ident
blo om
oooo oo
simple st
clu es
del ve
psych opathy
moder ation
catch y
six teen
rr r
mater nal
cam pa
lur ker
shell s
incre ases
shif ting
neigh bour
capital ist
behave d
infin ity
cell s
bin ary
bia ses
practic ed
coinc ident
expand ing
paral ysis
cigare tte
advert ising
afric an
navi g
nag ging
distri bution
lux ury
stell ar
costu me
seman tics
eup hor
cosm ic
simi liar
adul thood
contempor ary
victi ms
abras ive
charlot te
hypocr ite
journ als
d af
d ances
h art
j est
j ama
k ier
n ations
w arts
in surance
in competence
an ni
an archy
re co
re lies
re acts
re phrase
me ow
ly ric
as sa
of t
ar c
ch alk
lo lol
lo cated
pe as
ac quired
ac tiveness
do d
go lf
un biased
ex presses
con sole
pre servation
pro longed
um bling
ill umin
af fir
cl am
aw fully
soci o
cer tific
sor row
cur ve
bu gging
bu ffy
cor ny
gl as
sub stitute
cr unch
car lin
stre aming
cle ared
paren ting
hal o
respect s
blo cking
soul mates
flow s
bla de
five s
program med
beat en
require ment
popular ity
stor ms
contri bu
cro wn
stare s
trity pes
reject ing
dev ices
shif ts
senti ments
experiment ing
prevent s
transl ates
employ er
weal thy
tab oo
straw berry
kn ack
blat ant
seed s
masturb ation
bleed ing
lily socks
compon ent
summar ize
mim ic
intoler ant
brood ing
comprehen sion
orgas m
scand ina
marath on
calend ar
a dept
b ender
d in
g el
k ines
o we
s ends
s mel
re ne
re ign
re mix
re serve
it able
it ative
is ons
and re
se al
ed itor
ro pe
de void
do main
ad ri
un easy
un natural
un reasonable
ex it
ty ler
te ly
inf uri
ta o
mu li
sp el
ill nesses
im migr
dis put
af fin
into xic
ort ed
na w
na z
gen o
new er
aw ard
world view
inter fe
high way
ste er
mis chie
hand led
depend able
tor s
plan es
attr activeness
sho re
super hero
develo ps
appreci ating
spo iled
bur ger
ideal ized
frustr ates
sun light
sun glasses
comment ary
bar bar
pen s
sal e
safe ly
temper ature
wild ly
six th
mr s
chick s
aggressive ly
contr act
sl ut
cand les
accomplish ments
contribut ed
questionnaire s
scri p
cudd les
wil de
compe ting
pac if
chemical s
metaphor ical
contempl ative
pron ounce
vampire s
promo te
cheek s
fif teen
cab in
politic ian
exces sively
indu ced
geo graphy
persist ent
grat itude
sti muli
enlighten ment
derive d
skir ts
foun tain
socr ates
guarante ed
fue led
microw ave
chri stop
b ark
e hh
l ounge
n ir
n inten
r n
r ates
s ought
s ins
x sx
st up
al led
ar mor
li o
ti d
ti ble
lo cks
pe eve
ac ces
ac ular
fe bru
ab ol
out door
un ethical
su cking
am ate
just ification
ma ps
pre valent
up front
pl ug
ine pt
ck les
comp elling
man son
man ia
cl inton
off line
typ ist
sit ies
mon op
je wish
down right
tend ed
cor related
cal ories
found ed
cr us
cr acking
sy nony
mist er
super powers
stere d
correct ing
cli ps
deb at
supp lies
por tal
deci pher
spot light
comb ines
table t
symp h
mater ials
quit ting
brow se
calcul ate
pack ed
doll s
fru its
shel ter
consu med
swee tie
gigg les
pregn ancy
select ed
nnnn nnnn
notific ation
delay ed
eer ie
todd ler
vom it
vehic le
intru sive
resur rect
chea per
mytho logy
athis e
okc upid
suf foc
paradig m
lmfa o
nir vana
ninten do
febru ary
1 10
f g
p ms
s ang
s mother
u rist
at tic
al ity
be ware
li k
el ing
de le
co zy
ri on
ri dd
con ve
sh ud
ag gra
fri ggin
wo ot
rel ent
fo ster
over weight
dif f
dis playing
dis card
fa me
ick y
new ly
ni che
dr un
mag net
sk ull
dist aste
20 17
lan a
cas hier
descrip tive
resul ting
positive s
jok ingly
trad es
actual ized
disagree ing
willing ly
train s
match ing
200 8
specif y
dan ish
pot ent
liber ty
fl our
cree ps
memor izing
sli ce
equ als
cover ing
fashion ed
wea kest
chur ches
accident al
passive ly
tran qu
resist ance
slo an
narrow ed
swee theart
disgust ed
ann ounce
lands cape
suspic ion
deliber ate
simpli fied
redu ced
employe e
constit ution
parad ise
roy al
detach ment
sophi stic
academ ically
skeptic ism
eleg ant
hed on
whims ical
ineff icient
inconsist encies
amate ur
j in
j ere
m our
n j
n ay
s th
u c
y all
y ang
in quir
re vive
re clusive
al le
al lot
or n
se c
be es
es sed
no one
so y
el lo
wi z
de test
do z
out cast
ri o
un a
ex otic
can on
up tight
com posed
cho ir
mb lance
off ence
ple x
pr an
inter ven
reme mbers
old s
sub ur
sex ism
listen ers
gg les
situation al
spo ok
hell a
hy gi
nt ps
leg ally
19 84
stress ing
pain s
slow er
reach es
acc use
explo sive
chat ter
push es
faith ful
determin es
intern ship
fro wn
distur b
sla ves
hill s
sens ations
sociopath ic
dedic ation
smith s
yi eld
wound s
decl are
advert ise
illustr ate
scat ter
diplo matic
escap ism
compon ents
fw b
enig ma
flee ting
referen cing
pow der
snark y
synes thesia
naught y
e ving
g ary
j ol
o red
s que
t ard
w ah
re pair
at om
st oned
it ch
me mo
or al
ve gas
as ive
of c
no tions
ti fy
ch ili
lo re
ro d
ac ou
he li
if ul
pro pos
who lly
ag an
mu shy
whi p
fun ky
comp art
over look
fa int
cl ut
cl ust
sen sual
fore head
mon k
care less
cer tified
imp rac
exp ense
gi ble
stuff s
light ning
ny c
lu cy
ba be
sle eve
vol unt
war craft
hor n
sco t
sco pes
enneagram s
nt js
hang out
dest ined
pen ny
ris es
stri ving
comb inations
ord ination
sick ness
ix fx
dum ble
clar ifying
hahahaha haha
weight s
gar age
compliment ed
rush ing
accomplish ment
reflect ed
ai med
acquaint ed
contradic tions
marry ing
exper ts
punch ing
coll ar
request s
reveal ing
oblig ations
ey re
compe tit
sig ning
lem me
exagger ating
indif ference
remark able
shout ing
bour ne
stro ke
resc ue
revel ation
swords man
turbul ent
adheren ce
subje ctivity
campa ign
affin ity
2 50
a holic
d ign
f uss
g asp
l ers
l ace
o med
r ou
r ats
t ink
in cess
you x
le ash
ar ia
ch im
lo oo
pe cu
de th
out line
ge m
un familiar
if i
ne c
id s
ur ges
po ser
pre occupied
bo wie
mu ffin
pl z
whi m
com pose
lot tery
under rated
im perfect
over seas
off ending
mat ured
ak u
par anor
bl and
bl un
ask a
ru g
sm iled
cur sive
ton ous
sub tly
fr inge
spec ulate
lar gest
dam aging
non sensical
blo s
dead pan
motiv ating
ben ch
purpose fully
port u
explo red
fla ky
hehe h
hol low
equ ations
town s
squ ish
orient ated
practical ity
van es
van ity
mechan ic
jer ry
fat al
occur ring
procrastin ator
alternative s
spark s
condition ing
spontane ously
hill ary
wil son
occup y
report ed
pray ing
construct ed
histor ically
infinite ly
smooth ly
emer gency
las er
evalu ation
quant ity
jen ny
hog warts
acknowled ging
acknowled ged
stun ning
pertain ing
org ans
scul p
legitim ately
substanti al
jose ph
perfu me
datab ase
christop her
imprac tical
dumble dore
pecu liar
d ye
g no
g als
j ag
j ason
j aded
k ir
n ant
u hhh
w l
in al
in ate
in complete
re vi
re versed
re sili
al oud
it ated
it als
me sh
ar on
ar ises
es oter
ha v
ch rome
de pp
do ses
co b
co li
ri vers
un popular
un fold
ll l
ther ine
po wered
per plex
sh un
qu anti
up loaded
pro ces
ta me
ta sty
read ers
il ly
um s
dis missed
dis abled
man a
fin est
gr it
ort ex
kind le
mat the
care free
min es
sc roll
sur render
cr ay
cr atic
mag ically
sup pressed
heart break
stre sses
uni form
mid st
teach ings
random ness
domin ating
cap tiv
ju li
extra ordinary
em bed
sight ed
supp orts
ris ky
port land
fantas izing
ens ions
fire fox
fla gs
table s
tem pered
john son
equ ate
sequ ence
asp ire
meas ured
design s
tun es
schedu led
neuro typical
potter more
ration als
loose ly
guid elines
tori al
conform ist
rub ber
ssss ssss
practic es
exe cut
geek s
withdraw al
trave led
pour ing
museum s
spi ke
consul t
citiz ens
drif ting
depress ants
gli mp
pand ora
sail or
dv d
freel ance
approxim ately
propag anda
anni vers
e va
f ickle
k m
k on
m ig
o reg
s ans
the d
al f
me w
is xp
you s
ha zel
li gh
li ca
li ck
un important
un finished
un reliable
ho lo
per mit
they re
wor ms
pre y
pre ced
pro posed
pro lly
ta ils
ta ker
ag ency
fri es
der a
vi gil
sp arrow
ble h
dis played
ph r
ob jection
agree able
wel fare
social ising
form ulate
cr ic
sy ll
car bon
10 6
sad istic
similar ity
order ing
aa ah
super man
fall acies
cap ability
roman tici
valu ing
sun rise
que ens
knowing ly
analy st
appear ances
bat tery
creative ly
lad der
spot less
suff ice
commit ments
poe ts
pan cakes
ridic u
relev ance
pursu its
cis ion
introdu cing
acqu ire
separ ation
mur dere
thri lled
incre asing
uti lize
dor k
tang ents
plot ting
veget ables
consu mer
marily n
dim ensions
sociopath s
cruel ty
pessi mism
hypothe tically
chap ters
brut ally
jen n
commer cials
ame lie
aust en
mexic o
prepar ation
oxy gen
companion ship
cot ton
tomato es
magne tic
diam ond
wack y
recon ci
jewel ry
outrage ous
firef ly
thie f
depre cating
penal ty
ingredient s
doz ens
a version
a hah
d ough
e i
e val
h iring
j umble
j edi
k not
k tor
l ind
m ers
m ies
r ance
s ack
re de
st ared
al aska
to wel
is is
se inf
ar med
for k
wi erd
pe re
de an
go ku
un available
ne red
ne phew
ur an
ex xp
end ure
sh red
there of
la unch
pp le
sp r
fun n
under graduate
sed uce
dis honest
dis cre
dis missive
fi de
year n
om fg
ie i
vie wer
welcome s
sk ate
consider able
pur chase
dad s
cha ins
sco tch
fli pping
cut eness
grad ing
star ving
pas sage
fl utter
inv asion
freak y
distr actions
dar th
dar win
conven tions
cand le
asser tiveness
celebr ating
accomplish ing
hen ry
acade mia
harmon ious
gentle men
chest er
tang led
host ility
ski pping
crash ing
itor s
mir acle
compreh ensive
bran ches
jim my
wra th
haw k
labe ling
bachel ors
elder ly
immer sed
aby ss
squee ze
inj ury
arrang ed
disgu ise
elit ist
stew art
perpe tu
vitam in
oppon ent
aristo tle
instinctive ly
hurric ane
nutr ition
esoter ic
6 00
a hahaha
c able
o i
p ry
p ton
v ion
y oda
in correctly
re minis
at l
at las
en ch
en ses
st if
ve in
no isy
ver ge
de ed
de live
ab hor
out ing
co al
co co
un interested
un emotional
some things
ne west
can o
don nie
tr ous
any e
mp ed
sa fer
art is
ous ing
dis sa
fa ve
gr an
real izes
back yard
ga zing
ru ins
down side
down hill
col on
often times
mes ses
hate ful
exp ans
coun ty
mor gan
gi b
bi king
bre w
vid s
dra ft
working s
oc top
swe ater
law rence
temp tation
sty lish
vir us
cli ents
dominant s
four s
17 0
air port
accep ts
cree ped
inv ade
explan atory
ego tist
jung le
aud rey
wood en
diagno se
fle et
wind s
web cam
shame less
intimid ate
blunt ness
harsh ly
tro pes
slo ppy
coll abor
mmmm mmmm
tac tic
pac ed
pep pers
manifest ation
paral y
bubble s
thur t
bast ards
xxxx xxxx
inven tion
spa ghet
phenomen a
aty pical
rul er
convic tion
achi ever
kee per
mult it
retro spect
francis co
arab ic
evange lion
jav a
sweep ing
electron ics
newspa per
aggra v
paranor mal
seinf eld
b outs
d ings
e ved
f wi
g ab
g ence
t z
w agon
y le
z ip
in adequate
an as
an nie
at us
st all
st iff
no oo
ti a
ti ous
mo i
de ck
co con
un can
un den
un ks
we ther
su sp
op ard
ne ther
per ks
ex emp
tr am
tr ace
si an
time less
inf l
up lifting
pro active
ag res
ven det
find ings
over looked
dis liking
dis appeared
mb a
man go
off s
back pack
na use
play ground
ru shed
cur sed
cur tain
mis conceptions
sc ence
sc ars
sing s
val ley
head aches
wa ist
gue se
convers ing
home made
spect acular
clear ing
free zing
argu ably
bal ancing
liter ary
deb ated
damn it
huge ly
hind sight
philoso phies
messa ged
ya wn
miss ions
stick ied
pas sen
sal ty
fur ry
spot ting
secre tive
chan nels
inv ading
99 99
bow s
indic ated
dar kest
evol ving
myster ies
hat ers
mand atory
meas uring
fat i
promis cu
dram as
dit ch
impul ses
puzz led
kno cked
swee ts
mono gamy
ann oun
liz ard
inspire s
magaz ines
definitive ly
pff t
guest s
comedi ans
affair s
wrest ling
immortal ity
orchest ra
ruth less
auton omy
umbre lla
horiz on
deviant art
drun ken
acou stic
blun tly
portu guese
rede mption
vendet ta
7 00
b ind
b ies
c ke
e tr
f ang
f rog
m ma
n c
n fps
s lu
s rs
x box
re play
re tri
at i
al li
it tle
me ter
or ang
be gging
es xj
li ver
ti ca
ch ats
lo an
ver ts
ro th
ac cents
mo des
fe as
ld r
but thurt
ab rup
co ordination
ad ic
un ge
un usually
un bearable
su shi
am anda
ir y
po sh
per formed
ex fx
ma stered
con sol
sh ri
up coming
son ic
ci a
sp rink
ren a
im pose
im posed
im maturity
fir ing
real ism
question able
side ways
put in
imp licit
social ization
wa its
plan ner
pri m
home town
dra gging
vis ibility
attr acting
mom my
tu ous
temp le
tit ude
truth ful
cru de
gree ce
dominant ly
fant ast
choose s
produ cing
14 6
star craft
tho ven
13 5
igno res
activ ated
fire works
femin inity
master y
master piece
predic ted
cro sses
ow ls
jer sey
drain s
obsess ions
poll s
cred its
belong ing
continu ously
protect ed
engage ment
leon ard
fulfill ment
revol ves
wil led
concent rating
equi p
expert ise
contain ed
obli vion
flash es
homo sexuality
sold iers
rein carnation
addition ally
bee thoven
wound ed
traum at
restric ted
lingu istic
recover ing
aesthe tically
bec ca
lg bt
horo scopes
perpet ual
braz il
uncontroll able
collap se
notori ous
transp arent
pedest al
sass y
intric ate
coca ine
contribu tions
sophistic ated
oreg on
delive red
spaghet ti
b art
c ings
e se
g b
h ud
h ats
h edge
m ute
m ama
n vm
p ist
r m
s d
s often
th ai
in animate
re m
ou sed
se cular
be ver
ar in
so ck
li i
wi d
mo z
fe ver
ab leness
out burst
co ws
ir resist
ur ai
can nab
ma jo
si p
sh ing
pro ps
sa x
la wn
bo iled
self ie
sp ine
um i
com ings
com posing
ble s
day dreams
post ure
im per
ful lest
ig an
sen ess
na ps
na omi
di lig
ance st
after ward
own ing
cri mes
che w
che wing
sha w
mor se
sub sequ
car pet
fr on
app led
cour tes
reg ain
mi ya
human ities
prefer ring
gra pe
resul ted
den om
swe aring
cap tured
ze ch
present ations
da isy
respect ing
phi lip
bur y
res id
supp lement
direct ing
15 4
tech nic
bat ter
ja ke
def ence
wanna be
200 7
multi p
mel ted
content ment
rac es
bag gage
fle w
ooo oh
66 6
irrit able
govern ments
meta physical
cam us
hyper bo
adap ting
hip sters
pal m
bell a
rot ten
absor bing
bil ly
kno cking
sne e
conform ity
whis pers
rhy me
goo ey
remark ably
douche bag
simpli fy
dood le
patri ot
anecdo tal
metr ics
♥♥ ♥♥
transport ation
geno cide
compart mental
proces sed
fwi w
7 13
a er
d izzy
e co
e there
f usion
g im
g ates
o on
o live
r ly
r ally
r ural
y og
an them
re creation
on ia
at ures
en do
is ure
se per
le scence
as cri
no min
so lic
li ms
li zing
ch unk
wi pe
ic ing
ic eland
do pe
ri ers
un caring
un limited
un doubted
ty rion
si ll
ca u
pro voke
than x
bo res
off spring
mat ical
bl er
down town
sc ra
sc oring
br al
ton ed
mor mon
sur ve
cu tie
nat al
lu ll
consider ably
reg ina
sto red
jud ges
follow er
lan n
pur se
den se
hy dr
ling er
fli pped
death s
em per
ref using
19 4
12 2
identi fies
text books
apo lo
iss ance
ado lescence
sal ary
fur y
ral ph
critic isms
apolog ized
deser ving
33 3
eeee e
define tly
overwhel m
ego s
dumb ass
bon ds
regret ting
tar ot
ran ks
rid dle
bump s
intri gue
tren dy
pack age
han nah
orange appled
length s
stack s
mono tonous
employ ers
pod cast
publ ish
publ ishing
democr at
unexpected ly
pier cing
pier cings
alex ander
decl ine
01 10
plu sh
excl uding
kne es
recipro cate
funni er
rul ing
lef ty
ixx p
inward ly
rapid ly
gand alf
sponge bob
dabble d
warrant ed
dramat ically
repor ting
isra el
holl and
hygi ene
funn ily
egotist ical
cannab is
majo red
7 17
g ies
i as
j ab
o st
r in
s mug
t inder
x ox
in ating
in decisiveness
re moving
on ions
to ll
le isure
be cu
ar ty
es xx
ha unting
ay a
ac ed
mo an
de ity
de ja
do mine
do sto
un true
un necessarily
ho or
ho ard
ne arest
ir responsible
ce o
per cus
ma h
con ced
con vol
con dem
way ne
pre cision
ok en
ra ine
bo iling
ag ami
ven ue
mu cha
well sy
il le
she pher
ast ound
over coming
dis agreed
af firm
man n
man agers
fin ite
gr abs
cl one
real ities
pr ank
mon keys
min a
men u
ga ps
high lights
cont acted
vo y
ni p
mus lims
ster o
val s
sha m
welcome d
cu les
car rots
bi go
intel li
mi chel
cat er
vol atile
rep orts
prefer able
ane ous
dark o
da iry
frustr ations
19 95
12 3
strange st
16 7
hood ie
ado les
color ado
specif ied
fill s
fl ute
gri d
rac ial
ka i
hero in
visual ize
66 7
complain s
sl ang
sus cep
sam urai
nu ff
bump ed
daught ers
contradic ting
thri ft
broad er
tele port
rus sell
reve als
guard ians
reci pes
revol ve
establish ing
fox es
pee ves
possess ion
fold er
evalu ating
zon ing
investig ate
hob bes
derail ing
recipro cated
dedu ctive
corrup tion
innov ative
elimin ate
epi tome
tack le
warri ors
cen sor
academ ics
sacrific ing
baff led
dup licate
tremend ously
oat meal
intra personal
anonym ity
manu fact
acces sible
annivers ary
phr asing
uncan ny
solic ited
undoubted ly
8 00
a vo
b ure
e yel
e minem
i dol
n x
p able
r ors
v int
v age
ä r
re turns
the ad
er son
en vi
be live
of course
ar u
ar do
wh irl
es fx
ed ges
lo ooo
el ine
wi der
mo l
he im
ab un
ent ries
ir re
end ings
con ference
ca th
sh an
sh rooms
inf r
hi stri
ci ls
ist an
pp in
sp lash
work aholic
im ma
over tly
dis prove
dis agrees
year ning
off ish
di ale
bit es
hard ware
own s
high s
down loaded
cur ly
conf essed
sc rolls
show ers
cor respond
sur f
hand ic
wa vel
pu ber
cr ing
sy d
pa inter
ear ning
har vest
sho ld
learn s
follow ers
whe els
wait ress
intu it
temp ting
bri de
control s
inst alled
fast est
19 90
father s
text ure
pen etr
bla med
pleas ures
flir tat
univers ally
train er
feed s
hea ps
addic tions
therap ists
sli pped
oper ation
pun ished
bound ary
internal ize
hhhh h
bitch ing
chill s
xn xp
sw an
gor don
quir k
adap table
correlation s
crimin als
condition ed
alien ated
bell s
idio syn
desig ning
poli cies
bottle s
heaven s
shoo ter
discipl ined
grocer ies
77 7
saving s
exten sively
schiz o
aid s
pig s
flex ibility
dwell ing
chor us
liqu or
cum ber
los ers
subst ances
cere bral
shat tered
sedu ctive
vegg ie
inju red
diver gent
intrins ic
anth ony
cripp ling
kale ido
detri mental
coincident ally
reco very
cocon ut
orang es
equip ment
abun dance
wavel ength
puber ty
flirtat ious
0 7
e q
e ti
e than
e ii
g d
g la
g aw
k rist
m mo
o ok
p end
r h
u tic
y l
in corporate
re iterate
at ly
er ase
al lo
is ite
se ctor
ve ter
as i
ar cade
wh it
ha wa
ed die
li fel
ro bb
mo ist
do dge
ab it
ri der
go in
un to
ho bia
any who
time ly
how l
qu int
te aring
sa vi
pp el
sp ar
over time
ap ps
dis count
fi zz
mean time
man s
man ages
best friend
ince st
cont acting
cur ric
ange red
au tom
char ging
cr ust
lu ther
ama ze
order ly
super market
dou glas
tu b
respect fully
vir tues
medi eval
fear less
fight ers
cli ent
fuck er
gram matical
grad ed
bar riers
suc cin
trans gender
passion ately
explo sions
stat istic
bio logist
liber als
aggre s
memor ization
perceive s
predic ting
pun ct
prin cip
complain ed
pi geon
material ism
celebr ation
xn fps
ambi valent
valent ines
sand wi
threat s
explore r
compar isons
exception al
ski ing
ambit ions
vast ly
grab bing
conform ing
dedic ate
metaphor ically
gid dy
pier ce
hier arch
isa ac
bossy pants
reas suring
brid ges
loo sen
skim med
consul ting
smash ing
prescri bed
convic tions
physic ist
flav ors
titan ic
excer pt
eloqu ent
victori a
priorit ize
anarch ist
misogy n
lul z
ascend ant
ceremon y
demis exual
monop oly
dele ting
dign ity
agres sive
domine ering
bure au
vint age
succin ct
0 2
0 9
a gh
b acter
d ale
e ases
f ud
h ugh
h ousing
k g
k ong
k anye
m bed
r ack
t ite
t ina
u ed
in compatible
an chor
re consider
re becca
re morse
the e
at ro
er as
er go
st js
al ig
al tered
al gor
to x
me the
or thodo
se min
li th
ver ify
el er
el usive
wi i
pe gged
ac ute
mo il
de af
he mis
ri an
un till
we ep
if s
ll en
all en
con fide
tr act
si zes
ul terior
more over
other ap
up sets
gu ed
ra il
ta gs
hi jack
sa ga
ci st
com poser
good night
fo rens
dis illusion
fa ulty
log ging
new ton
je ws
ary a
mm orp
cur y
sc um
mar ia
hum id
exp lic
live ly
bro s
bro ok
cr acy
du g
cus p
wish y
cre w
human itarian
easy going
swe pt
trust s
cap abilities
regard ed
dy ed
dy stop
psycho tic
orig ins
gree t
oooo ooo
sat ire
por tions
12 5
land ed
posit ivity
doubt ful
mer cury
star ter
pen cils
spirit ually
200 2
200 6
rational e
relax ation
viol ated
clar ified
track ed
compliment ing
club bing
fashion able
lin ing
sw ag
stim ulate
broad cast
alternative ly
pack s
tree bob
mirror ing
uti lit
consequ ently
corpor ations
sim ulation
tac o
jam ie
rub bing
dict ates
len non
brush ing
tradition ally
print ed
sufficient ly
dab bling
candid ates
tact ful
aust in
corrup t
mul an
rang ing
bash ing
mont real
pear l
loc ations
thre shold
dinosaur s
elev ator
metic ulous
rhetor ical
inquis itive
refu gee
bap tist
fand om
conceive d
jere my
octop us
convol uted
b j
c un
c ers
d enti
f en
g ma
g ist
j up
k ung
o y
o la
o gen
t its
u ity
v ah
v sky
w ren
re new
re tired
the med
en na
al ds
al ley
to bac
to kyo
or i
you t
ar cha
ed ic
ch and
ut most
wi ves
mo to
de w
co g
ri g
ad verse
un acceptable
un intentional
was hy
con qu
tr acking
qu ette
inf lict
sa ves
sa usage
self ies
them self
vi va
day light
ms bossypants
jo sh
yes ss
im perfection
over analyze
dis c
dis posed
af fle
di aries
fore sts
par as
bl ab
clo seness
je b
sc is
sc rut
tri angle
br at
tur moil
gre gar
nothing ness
far ther
wa aay
adv ised
cu its
du ties
bi bli
call ous
class ification
home schooled
dra stic
mit ch
appreci ative
100 00
cap es
short comings
avoid s
correct ness
organ isation
por k
space y
bel gi
apo re
trad ing
tho le
sal mon
fail ures
bra h
sky diving
wed dings
aaaa a
shut s
obses sively
associ ations
hilarious ly
gri lled
separ ately
pi pe
sus an
card io
jes se
opti mal
shame ful
tun ed
speed ing
contemp t
gig gling
camer as
mmmm m
swed e
alpha bet
hesit ation
adjust ing
lab yr
possess ions
clock work
paral le
emer ald
exagger ation
promo tion
spa wn
price less
beth deth
pump kin
persu asion
apocaly ptic
lef to
magn ific
hitch hi
confron ting
prescri ption
hack er
glit ter
skir t
peak s
obe di
limb s
photograph s
hul k
inher ited
raz or
feather s
univer sities
analog ies
appla ud
aspir ations
bicy cle
discoura ged
daf t
assa ult
interfe re
expans ion
rena issance
moz art
courtes y
yog urt
becu ase
lifel ong
aggres siveness
algor ith
tobac co
gregar ious
labyr inth
9 000
a than
c unt
d ain
f ag
h p
j pg
k ant
m ice
o ven
o bey
p interest
p als
s if
ö r
re think
re cl
re vis
it t
it ate
no va
no ooo
ha mp
ha zy
ti an
ti est
ch up
ay n
lo on
el ite
ro ger
ac company
mo b
he x
out dated
ge ars
un ite
un solicited
op position
ne ts
po oh
per m
ma cho
ty win
con gre
od or
how ard
how dy
pre face
hi l
hi ps
vi gor
sp en
ck er
jo ck
yes yes
dis appearing
ten cy
af fili
cl ark
kind red
pr at
back up
lol z
cur b
mis interpreting
sc out
sc aring
ni k
ni gh
cra ziness
sing apore
fic ially
ek s
cr um
cu it
dri ll
cat aly
mist reat
emp athise
bus ines
ins ides
anx ieties
medi ate
frustr ate
em ulate
por no
16 2
ya hoo
acc ust
sof ter
moder ator
ban anas
observ able
dig ress
wild er
wea sel
zo om
perfection istic
nu ances
bright er
border s
appropri ately
sw ap
hyper active
pin ch
broad ly
adap ted
threat en
spark le
desper ation
cop ying
angel cat
sla very
budd ha
prevent ing
kar ao
guid es
fed eral
horri fying
pac ing
lif es
sno op
adapt ation
termin ology
len ses
mir anda
energ ies
pir ates
fright ened
revolution ary
adequ ately
coast ers
incident ally
indian a
ixx j
privi leg
masturb ate
turtle s
uuuuuuuu uuuuuuuu
promp ted
craf ts
inher it
gul lible
conscientious ness
machiavel li
scru bs
nood les
utop ia
awak ening
debat able
spook y
dera iled
jenn ifer
nether lands
emper or
karao ke
0 5
7 14
a izar
c ite
g ren
h tml
i to
j um
k ur
k aren
k nu
m un
p ong
p ness
p lots
p athy
s fp
u tility
͜ ʖ
in advert
in visibility
an ore
er otic
en ger
st ations
st ale
me lon
is ion
se vent
le xic
be bop
ar cho
no ld
that x
li ken
ch al
lo osing
el lie
gh i
de vo
are na
do in
do er
out fits
un ted
we as
like able
per former
ma iden
don alds
te ary
hi ber
ci ation
la yout
der p
person as
ous y
sp lend
il lion
come dies
has sle
wo oo
rel ay
her d
im posing
mb ur
gr acious
wr ink
ah u
na vel
di agram
ak ami
cur ry
mis communication
imp acts
br ace
mes is
mor i
hope lessly
cu bic
simp sons
tor tured
ear l
wish ful
ama zes
cha i
pick le
non fiction
power ing
power less
da unting
phi li
land er
forget ful
sid ers
wal ter
smart s
smart phone
disagree ments
pleas er
air plane
load ing
edu cate
psych otherap
valid ated
travel s
amp li
gro ove
associ ates
content s
squ ad
oper ates
marri ages
pun ctu
dar cy
abstr action
wind ed
dd d
decent ly
stal in
mur akami
zer land
45 8
tar ant
cred ibility
34 3
gor illa
xnt js
docu ments
seven th
punch ed
journal ist
brit ain
assess ments
nie ce
dim in
oblig atory
gard ening
ixt x
virgin ia
jam as
sno b
kat niss
jon athan
proceed ed
eu gen
swit zerland
stro kes
electric ity
chor ds
scott ish
restric tions
conce ited
dedu ction
anticip ation
resemble s
psychedelic s
gras ping
diam on
highlight ed
eloqu ently
vegg ies
elliot t
fis her
pine apple
machiavel lian
gall ery
stig ma
enta ils
naz is
feas ible
hoor ay
histri onic
kaleido scope
sandwi ches
orthodo x
9 00
a fore
b ok
c tory
d x
d awk
e b
e vanes
f ades
h ound
j ig
k el
n ines
p ond
v ap
w end
w ag
in ated
in coming
re set
re wards
re ception
re produce
the ism
the ology
en sed
me yers
or well
as is
ar iz
wh ack
wh ale
ha p
el ding
ac a
fe ared
fe yn
do ta
ab lo
out siders
un balanced
un motivated
un leash
ne ys
ir ks
don uts
ca ust
sh hh
ation ally
ter ry
pre va
qu eness
gu ild
ye e
hi ppy
sa pp
sa ges
ere n
la z
ist x
wn ess
ms n
work shop
ts k
dis dain
fi ery
ten tion
got cha
typ ism
kind of
ph any
mind ful
tell er
men sa
cer sei
gener ator
col bert
fu zz
fu rious
ni ch
gl ue
mes si
mor ons
wrong ed
car ni
lu v
set up
tor na
ear nest
month ly
sle eps
uni queness
curren cy
ram pant
cle ctic
paren tal
hal e
appe tite
100 000
bal let
res sed
link ing
direct ness
invol unt
research er
smo ker
mer ge
special ist
analy tic
produ cer
inferior ity
sar a
mess enger
clean er
200 3
peace maker
explo it
flo rence
bio logically
25 8
clar inet
inv itation
33 9
yo lo
eff ing
invest ing
accomp an
tun a
discover ies
pon dered
boo ze
continu ous
ax e
xnt x
suppor ter
gig antic
request ed
bitter sweet
rebel lion
pup pet
lun gs
pray ers
gossi ping
rab ble
geek y
tire some
nihi list
spac ed
repet ition
woo hoo
slam med
illustr ation
distinct ly
sink ing
pix ie
foo tage
arrange ment
pengu ins
constit utes
epi phany
administ r
administ ration
fid get
underest im
distri but
lime rence
quad ra
sni per
obst acles
attain able
radi ation
kink y
tremend ous
schizophren ia
transcend ent
ethnic ity
connot ation
altru istic
cosmo s
defi antly
mischie vous
shud der
inquir y
propos al
cob ain
matthe w
batter ies
suscep tible
schizo typal
punct ual
denti st
belgi um
busines ses
5 64
a ero
e ur
g ins
g ats
h ong
k ry
l lo
p au
s layer
u no
v ably
y on
th s
th ier
in convenient
in explic
re fre
re fined
the o
al mond
se rene
ar der
no ob
ha mbur
li bi
ch on
for gets
de ceive
he ath
co y
co er
co ins
ri gor
ge ons
ent ers
un es
un read
un ner
un intelligent
un productive
we ary
if fy
not ing
op pose
po pe
con clusive
pre sum
ok ie
te t
pro voc
ra pp
la ug
every ones
fun d
comp let
comp lac
cho ke
dis missing
dis honesty
fin es
pret ended
infp ish
real y
sen si
par ade
min nes
talk er
world ly
inter ject
own ers
gener ated
book stores
col n
cra ig
sing ers
cor relates
tri pping
val ence
tra ils
exp end
adv ices
cr ank
ber nie
fr is
favor s
mist aking
har ming
heart broken
cry ptic
temp late
organ iz
leg acy
19 99
19 98
50 6
step dad
cir cus
fix ation
ket chup
ado red
ani mes
impro ves
spot ted
suff ers
explo ded
force ful
fla mes
mic roman
ban ks
fl are
cup cake
tre ss
cree ping
season al
intellectual s
hypo crit
bow ling
symp tom
predic tions
imagin able
dar ia
visual s
vari able
vul gar
asp iring
sigh s
tun nel
lin coln
confess ions
cloud y
pleasant ly
reli ability
gal ac
pit ched
overwhelming ly
cell phone
pul p
survi ving
ec st
construct ing
vivid ly
weir dos
involve ment
existential ist
egg sies
slip per
grace ful
democr atic
cheek y
entit lement
ston er
investig ation
soundtrack s
elect ed
pillow s
decor ate
indu cing
pix el
hormon al
anticip ate
owner ship
metr ic
enig matic
sav age
lyn ch
knit ting
retire ment
ritual s
glut tony
hyster ical
asse mble
schizophren ic
seren ity
whist le
aus sie
accommo dating
jess ica
enh ance
egy pt
symph ony
clust er
irresist ible
utilit arian
scis sor
spen cer
weas ley
eugen ics
diamon ds
ariz ona
gats by
minnes ota
3 14
7 18
b aw
c tiveness
d n
d as
d war
d ining
e cli
e bay
e clectic
f k
h in
j acking
l b
m ck
s wa
u ku
z ac
z ones
in for
in ous
in ary
in corpor
an archo
re took
the ft
al tering
my space
ch é
lo go
pe te
mo tions
de vote
he ctic
co ma
co hen
ad here
int ers
un spoken
we et
ther ape
ir c
po land
can s
ma ge
ma ze
ty pos
sh ines
ter a
pre sti
pre dominantly
ul ing
pro xim
pro methe
hi atus
sa ppy
ist ical
pp les
come back
red irect
her it
comp ute
im peri
dis integration
infp ness
back story
di le
mon a
best ie
sm er
cri m
mus cular
tri pped
enti als
cal med
coun sell
reading s
bor g
cou ver
pat er
favor able
must er
heart felt
hmm mmm
exc ru
whe at
cle ans
prof icient
stupid ly
spo tify
major ly
lack ed
cru ise
organ izations
19 94
wal mart
nar nia
xx x
iv y
bing o
13 8
emb racing
activ ate
comb ining
explo ding
bb q
proper ties
priv ately
cup cakes
nam ing
sn iff
mum ble
profession als
99 4
sli pping
van couver
gar lic
mouth s
93 8
sequ ential
swi r
libr arian
rid ge
sand ers
contradic ts
astro logical
acade my
narcissist s
trum pet
fro st
leon ardo
cop ies
mathem atic
mc donalds
oblig ed
shoo ters
cel lo
advance ment
melo dic
promo ted
thrill er
influen cing
rese mblance
fet ched
pus hover
premis es
subscri bed
excl am
compul sion
celebrity types
kn ives
demonstr ated
posses sive
delight ful
hipp ies
clown s
obst acle
snu ggle
shave d
bers erk
theart ed
mult itude
horo scope
misanthro pic
masoch ist
jas mine
extre mist
caf é
recru it
sabo tage
accus ations
marty r
smother ing
urist ic
ligh thearted
murdere r
fati gue
gim me
eti quette
hemis p
accust omed
sevent een
cubic le
feyn man
refre shed
libi do
presum ably
ecli pse
therape utic
presti ge
6 74
8 33
a ps
a verse
b ours
c zech
f on
g ps
h end
h ans
j ah
k c
k nights
m unch
n pd
o pe
o logist
p raised
t m
t ut
v p
x o
x ist
x nf
in active
in fection
in doors
re reading
re hear
re solutions
st rained
me smer
le ver
be little
ar te
no ct
no ds
ha ired
ha zard
li cal
lo wered
ver ses
ro gue
de ception
de ceptive
fe li
co des
ent ro
un ed
un fairly
un believable
if iable
ma do
ma kers
con ting
tr is
more d
pro stit
pro claimed
sel a
hi ve
sa gan
bo ston
friend zone
pl um
she esh
im balance
im gur
over view
fi ber
man tra
hel per
ah hhhh
shi pping
let on
par take
inter change
hard working
down fall
bad ge
gener ating
mis ses
mis guided
vo cation
show ering
gl aring
br un
tra ps
wa x
wa kes
dr ac
cr an
cu ck
light en
vel vet
bre vi
story line
along side
har p
lea ps
whe w
lar ry
pur ity
qui la
hor rend
tu be
tu cked
io s
qual ifies
rare r
sil ences
black mail
fil thy
ju ven
mas sively
mas cara
hair y
cli ché
kit ties
identi fication
11 1
11 4
ili an
build er
ign ant
twi sts
ado ption
intro spect
none xist
flir ted
200 4
pan sexual
alright y
evid ently
influ ential
ore o
fresh ly
predic ament
indic ators
bare foot
mand arin
mur dered
lin ers
crack ers
cred ible
97 8
dick s
particip ation
scar f
verbal ize
compar able
brit ney
wil low
shel ves
equi pped
crash ed
pac ific
lands capes
venge ance
stalk ed
chair s
blan kets
stab bing
micro soft
thir sty
target ed
bust ed
blur ry
sooooo o
jaw s
redu cing
gur u
foo led
blush ing
mos qui
stacking s
shu cks
empir ic
lel ouch
execu tion
borrow ed
eer ily
swo on
goth ic
glut en
gand hi
defe ated
stret ching
devast ated
perpet ually
connot ations
adjective s
rud eness
kines thetic
squish y
prim itive
technic ian
lann ister
xox o
shepher d
adoles cent
syd ney
gaw d
curric ulum
dawk ins
evanes cence
infor joking
imperi al
crim son
0 3
a mo
b m
d ag
d aw
f ion
f ml
f aded
g ly
m ating
n ps
n ude
r ash
s lic
s fjs
t x
t el
v iny
w allow
in habit
in sincere
in consistency
re i
re ha
re cre
re fine
at test
st ake
me te
se am
se wing
be ers
wh a
no mad
so ak
ha unted
li d
li mbo
lo ki
ut ch
el ses
ro ar
ro de
fe mme
but thole
ab brevi
co d
co le
int ending
ent x
un decided
ne bul
ex or
ex hilar
ma u
con se
con stru
pre serve
qu ery
qu ake
te quila
la x
ag ony
love good
est imate
fun ds
comp ound
spe ars
under dog
im db
over night
over board
ap titude
dis eases
off ends
sit com
ide o
pr ices
point ers
mon te
om nis
agree ableness
bl asp
reme dy
wat ts
gener ates
vers atile
sc rolling
sc rabble
mar kets
row ing
br is
comple tion
fort ress
ative s
sub titles
wa ving
wa aaay
pa jamas
cus s
past ed
ped ophi
pri mal
gg g
mi k
ome gle
har ass
har ris
dist orted
bed time
num bing
sco ld
ins inu
fac ilit
bal ances
quo ise
bur g
fil ters
ju lia
res ses
communic ated
cold ness
sat ell
smile ys
begin ner
identi al
smart ass
four teen
fix es
fix ated
polit eness
produ ces
photo graphic
artic ulated
zz ie
xx fp
dog ma
mad ly
rele asing
mee pers
dress er
enter pr
stat istical
ky le
sj w
arr ay
fl am
fl ust
fl aming
70 6
flu ently
gay s
stor age
metal lica
lyr ical
flaw less
nic eness
chick ens
instru ction
accident s
san ct
exhaust ion
pin ned
moun t
xnt ps
neigh bours
han gover
mac ro
musical s
tw ain
tast ed
bitter ness
sne aking
tac tile
survi vor
hall mark
tan ks
tan trum
compe tency
grab bed
horri fic
lif ted
aqu arian
bod ily
national ity
national ism
comprom ising
pod casts
weigh ing
weigh ed
gam bling
inven tions
sneak ers
profound ly
flight y
relat iv
minimal ist
bie ber
myth ical
dread ful
prag mat
ove rest
legend ary
persu ade
asy lum
theor ist
imm ers
diplo ma
sustain able
oxy moron
posses sed
stun ned
glit ch
sway ed
hai ku
republican s
dess ert
endeav ors
adder all
dolph ins
leth ar
pran ks
scot land
gab ri
hedge hog
hyperbo le
conced e
bacter ia
alig ned
jup iter
inadvert ently
ghi bli
afore mentioned
blasp he
3 65
5 000
a unts
e ly
e ek
f c
g loves
h ank
i j
j it
l p
u el
w es
w ager
w oken
x k
y in
z aki
in coherent
re v
re ll
re tor
re placing
er rand
en xps
st umbling
al ys
is hi
or phan
le ans
es i
ti de
ch imp
ch unks
ro id
ro ber
wi g
wi mp
pe ep
ab using
out put
with drawing
un just
un real
not able
am uses
id le
con ver
con stra
tr ays
time line
od ys
pre school
pre disposed
te as
inf act
ta pping
ta gged
ci ble
ci ating
bo ast
bo ob
bo hem
vi ch
wo e
wo ol
even ly
jo yous
under statement
dis par
dis interested
dis courage
man tic
ish es
fin ances
des cent
aw some
ext inct
par a
bl in
00 100000
ath lete
tri be
cal ms
coun cil
hu mp
hand ing
wa vy
car rot
fr act
fr ick
fr aming
tor onto
god dess
fre t
vol ley
second ed
sto mp
lat or
oc ta
partic le
search es
inten sive
enne a
pop ulated
100 1
tu ition
qual ifications
quo ti
crit ically
fut ur
link in
hang s
cli cks
cli que
cold play
ring ing
19 97
por traits
fan atic
bar ry
motiv ator
bat ch
star ry
country side
summ ers
del usions
trans formed
tho mp
ris o
17 8
sal ut
original ity
emb od
acc using
inti mately
fla vored
aaaa aaa
bio shock
ban ner
pair ings
path ological
squ id
define tely
option al
misty pes
counter part
snow y
subjective ly
rap ist
mode sty
pi les
27 4
dreaming angel
meas urable
loop ing
pink ie
sna pped
san sa
syn the
shot gun
interview ed
hyper sensitive
battle field
magic ian
belong ed
dev out
gene tically
spark ly
awww ww
veget able
bun nies
bottle d
ham let
xst js
sens ational
clash ing
steal th
construct s
height ened
sig ur
bomb s
exagger ate
interrup ting
lip stick
resent ful
psychiat ric
hr m
thir st
thir ties
billion s
sample s
haw king
excl uded
aller gies
relea ses
astron aut
craw ling
stoic ism
intr uding
escap ing
depri vation
neurotic ism
capture s
sni p
pract ise
pract ition
bron te
breast s
festival s
thre es
snack s
figur atively
advoc ating
presu mp
lud ic
proced ure
hypno sis
secl uded
navig ating
infuri ating
subur bs
flutter shy
promiscu ous
hud son
ancest ors
lull aby
mucha paradox
sham poo
hawa ii
cataly st
provoc ative
ecst asy
slipper y
proxim ity
recre ational
0 8
7 38
8 90
9 20
a wh
a post
b ide
c f
d les
d ling
h anna
k ah
k pop
l v
l ousy
m n
n un
n if
n ug
p sh
r ts
s r
s well
an es
re visit
the istic
at tor
st p
to w
it z
it unes
is er
ve il
as simil
ar gent
ar oused
no ah
no sy
ed m
ed ged
lo ans
lo oooo
ver bi
el ity
ic o
co on
go spel
op pressed
ho la
ce ases
tr on
ca es
ul ative
ok es
inf amous
ra de
hi o
hi bits
sa pi
ci gar
bo bby
ag i
vi i
mu ll
love y
um mmm
com posure
fo s
look in
jo ins
jo gging
need le
dis heart
dis cord
fa i
iz able
gr u
des iring
gen ces
should nt
let te
mal col
belie vably
pos ers
down er
stu mped
imp lo
vo re
tri als
tri bal
gl enn
comple mentary
mor ty
hu x
tur ally
tur quoise
far mer
wa ver
cr umble
light bulb
du o
car p
rain s
fr action
ba thing
ef fe
cy c
hear s
sad dest
cat al
war fare
rep lic
absol utes
xd d
ash ed
den mark
pick les
brother hood
ze it
present ly
bal d
serv ant
cold er
special ized
bar ney
suc cum
pen n
actual ity
lad en
sal sa
flir ts
program mers
moder ators
mel ting
mel bourne
catch er
bum mer
gain s
hahahaha h
eeee ee
rac ed
input s
bound s
internal ized
complic ate
nervous ness
rap ists
sequ el
remain ed
chocol ates
nu ance
pon ies
mini ature
wand ered
hon ors
hon ored
sac ral
spark ed
slo b
confir ms
neat ly
ordin arily
lun ar
thy mia
aim lessly
encoura ges
contrast ing
rub bed
drum mer
bomb ard
exe cute
promo ting
distin ctive
succeed ed
beast s
categor ized
portray al
bust ers
slam ming
fet us
dread ed
ari el
chame le
chronic les
reas sure
tour nam
ambigu ity
preach ing
neur ons
rust y
tou rist
shark s
mystic ism
arrang ing
devast ating
quar ters
aven gers
nard i
stag nant
protest ant
appre n
inju ries
chet t
repul sed
proto col
marsh mal
decre ase
supr ised
exceed ingly
disast rous
disput e
wiz ards
volunt arily
revi ving
resili ent
passen ger
shri mp
patriot ism
ethere al
apolo getic
avo ca
bibli cal
wilder ness
punctu ation
counsell or
excru ciating
flust ered
bohem ian
malcol m
1 15
3 30
b able
b unk
d us
d ul
f lights
i ver
i el
i ke
i chi
k af
k han
k elly
l up
m ant
m wa
r ays
s ally
s fs
v ader
x ia
z ar
in as
in box
in door
re a
re post
re cess
re form
re connect
on na
the st
er als
ing rained
en tive
en ced
en compass
st utter
al al
is se
le le
le ak
as d
ar min
es ca
ed ible
li min
ti res
he el
he ap
do ck
do gg
ab a
one y
int ang
un its
un stop
un believably
not ch
ther ing
was her
po kes
per ry
ex asper
ex posing
don key
con j
con un
con tag
tr ough
si vity
ell er
qu inn
pro xy
ra wr
hi jacking
ci ve
fri vol
friend liness
pl ural
ine f
ast on
jo el
jo ey
under water
str and
ort on
ser vers
ph ony
back packing
di um
best est
inter rog
tend ing
school work
cent ers
ange les
ange lic
sc u
hum ming
br ac
mor ris
sub forums
bro c
respon sive
depend ant
fer n
sk ating
ber lin
ba haha
face t
ear liest
kid na
fre ind
character ized
ot ine
sup pressing
arch ives
vis itor
war mer
super ficially
ram en
song writer
net t
mid west
hor rid
appro x
tu ri
respect able
wit nesses
fil tered
inst ig
fli ps
cut esy
19 93
smo kes
cla ire
18 6
sweet ness
contin ent
cul turally
bat tling
trans lator
wall flower
effort lessly
limit less
dan ny
dan ced
flo ck
multi player
liber ating
va an
inv ites
author ities
repe ats
account ant
adm iring
dig it
six es
skin ned
counter parts
smell ing
guitar ist
nu anced
roo ting
celebr ated
meta physics
million aire
xn fjs
member ship
fool ing
tro pe
tro pical
tele pathy
condition ally
scar ce
fro do
stubborn ness
heavi er
sla ughter
mc donald
glo be
daydream er
contain ing
compan ions
stimul us
desc end
satur n
shru gged
existential ism
numer ology
cave man
obnoxious ly
emer ge
termin al
stab bed
predict ability
rhy mes
nihi listic
mush room
mt bi
cooper ative
hhhhhhhh hhhhhhhh
rome o
lex ia
hitch ens
marvel ous
invalid ate
scholar ship
craf ting
prospect s
ht c
mocking bird
hyster ically
mam mal
syl via
alleg ed
cultiv ate
canc elled
synony mous
tranqu il
heli cop
blos som
vigil ant
wid th
hierarch ies
564 339
rapp ort
hypocrit es
exclam ation
thomp son
unstop pable
8 50
a hahahaha
a ired
d h
d and
d angers
d mt
f arts
g ta
j is
k al
k am
l ent
o hio
p si
p tions
u v
u er
w aff
y ama
in ane
in suffer
an tics
re no
re gi
re lla
er ased
en the
en xj
is ations
se an
le gos
be le
be et
ar n
wh ites
es cri
li b
li ds
lo bby
ro cking
pe w
mo by
de mi
de meaning
de fy
he p
he t
he ee
he brew
but ch
ab er
ri bb
ri pping
ge ist
un loved
un happiness
su spend
ho listic
ho minem
po k
po mp
can vas
all s
sh ane
ul li
inf lex
up grade
sa i
who o
come dic
wo mb
wo ody
yes ssss
over lord
mb re
infp blog
ig ans
ace y
real izations
na than
di vul
long term
mat ive
ious ly
par ap
par ody
bl ender
side walk
inter connected
test ament
bu gged
sc rap
les lie
cor ps
cor pse
tri fix
val ry
sha ken
ton gues
gre ener
sur geon
dr miller
cr ab
fer ro
du cks
sex es
car ic
exam ining
past or
mist ook
deal er
ark i
heart breaking
vis its
ken shin
dist anced
dist ressed
clear s
free ing
partic les
brain washed
law yers
non stop
wise ly
inc entive
pho bias
ling ering
hair s
deb ilit
cut ter
connect s
gram s
irr ationally
mer lin
bar rel
ben jam
annoying ly
trans c
dog matic
ki wi
bother some
air bender
anti es
anti ant
anti depressants
consist ed
att uned
period ically
religious ly
bio chemistry
sof tly
valid ating
travel er
dire ctive
master ing
rad ically
tough er
familiar ity
ego centric
gri eving
predic tion
nic otine
introdu ctions
23 4
graph ical
wind ing
sl ash
irrit ation
flat tery
pi k
cro at
45 9
nu cky
tun ing
brilli ance
brilliant ly
hon our
speech less
nick el
behave s
spark ling
counsel ors
74 6
bell ing
78 6
angel ina
assess ing
confir ming
consu mption
bang ing
tax ing
eight een
tight ly
horri fied
pep si
aaa ay
rab bits
coinc id
melo dramatic
sales man
spell s
indul gent
clin ically
ras putin
sket ches
square s
adop ting
mush r
breed ing
swing ing
discrimin ate
nod ding
pix ar
instit ute
bli zz
inqu ire
befriend ed
physi ology
intoler ance
amor ous
maxim us
freud ian
patron izing
kor ra
slee ves
pharm ac
pharm acy
inhibit ed
aph ra
altru ism
fierce ly
accommo date
md ma
euphor ic
scandina vian
intoxic ated
lik able
juli et
embed ded
ridicu le
announ ced
idiosyn cratic
cun ning
magnific ent
congre ss
laug hable
herit age
xnf x
mado ka
fion a
xk cd
futur ama
fai ries
contag ious
broc coli
a hahah
b red
b wa
c lea
d andy
e be
e mber
f ap
f als
g loss
h ick
i ate
m ort
n ell
p el
p ip
p oured
p anties
s q
t js
u til
in the
in son
in decision
an om
en velo
st il
st ics
to mb
me o
and ra
le at
be ep
be au
as th
so s
ha mm
ti ful
ch ir
ch ise
ch ung
lo e
for rest
ic kest
mo ot
de personal
de vol
fe es
fe ast
ab t
out standing
co dependency
ge ology
go ats
su z
su ite
ho mic
ex ts
can nibal
ma i
con an
con so
con verted
si ren
ell en
ok ing
pro d
ra me
ra ged
la ura
who res
bo s
ag itated
sp out
sp her
pl ing
pl ates
ble ak
wo of
fo lio
ast ute
jo an
spe ktor
im an
over reacting
dis close
dis regarding
lit ter
ide st
ph on
fore see
bl ades
talk in
ga ard
inter mediate
down stairs
ste ep
cont exts
pic nic
col li
col oured
sc ramble
tri ppy
wel sh
exp an
sub urban
gi vers
sol ves
wrong s
pu er
ped antic
hear ta
vol ta
har vey
human metrics
met abol
weird ed
ram blings
oc cass
intu itions
eng ages
mone t
fil tering
ju lian
inst ability
mas quer
cli mbed
trouble some
16 60
scre amed
fan at
ank le
bar on
14 5
star gate
mix es
profess ions
del ta
pen sive
stri pes
pleas urable
effort less
emb raced
jun ction
port folio
rational izing
tom my
dum ber
onic a
circ ular
lean ed
80 2
33 8
sn ick
account able
sli ps
suspect ing
equ ino
gri ll
represent ing
tea sed
counter productive
cast les
hat er
promis ing
reject s
label led
maintain ed
dev our
europe ans
integr ated
screen shot
tes la
corpor ation
glo omy
attach ments
screw s
pill ar
miser ably
weir der
burst ing
contempl ated
expand ed
lolo lol
scrat ching
hopeless ness
thrill s
indul ging
indul gence
gam ers
dys lexic
command er
insist s
dust y
theat ers
roller coaster
lash ing
drown ed
pseudo science
gt fo
cooper ation
believer s
innov ation
empire s
grat ification
detect ing
cti ous
sophi e
delight ed
hunch es
physi ological
doorslam med
flav our
vibr ant
glow ing
defe ating
wre cked
braz ilian
pud ding
haru ki
uncontroll ably
appre h
dent al
margin al
forbid den
dolph in
advis or
olymp ics
stup idest
nec roman
perplex ed
glimp se
deed s
unden iable
susp ense
surve ys
michel le
quint essential
hitchhi ker
hamp ster
privileg ed
torna do
organiz ational
pater nal
hemisp here
noct ur
empiric ism
viny l
alys aria
quoti ent
hux ley
kaf ka
conun drum
arki gos
debilit ating
benjam in
metabol ism
2 25
3 24
5 10
7 94
a then
c é
c ly
c had
c inde
c iful
d m
d aring
k h
k ok
l ings
m j
m hm
n h
n our
n fjs
p aw
p agan
r anger
r asp
s cep
s cape
s asu
t issue
u z
u ries
v ouch
y an
y ess
z an
in ject
in experienced
in formal
in xjs
re build
re pressing
to ries
it achi
is fx
ve ins
be gs
ar ctic
so red
ha th
ha ul
ed gar
ti les
ti cks
ch oked
ver onica
ut ing
el ves
wi fi
ic tion
de ist
de grading
ab re
ab ack
ri ot
un avoid
un noticed
un friendly
un answered
un approachable
un warranted
un conditionally
ho vah
id ly
ir s
per verted
ex qu
ex changing
can e
can non
don es
con y
con fined
si er
si ly
si pping
sh iz
pre d
pre requ
pro g
pro w
pro pen
pro posing
ci v
ven ator
sp illed
tal s
ast ral
ep ist
life less
dis cree
dis ingen
ten nes
af fective
ish ly
bet ty
pret ends
gr r
ple thor
ang sty
emo jis
let tu
care giver
men ial
bl ond
oh hhh
play station
ga e
je opard
sor y
cur sing
pic turing
imp arti
ange lo
bu ys
col um
sc am
sc ifi
mar ie
ath iest
tri ump
nor dic
comm ute
depend ed
cr utch
face ts
app ed
pat s
pat ent
dra ke
cat astro
har bor
har rison
heart beat
super b
super stit
brain storm
pick up
hold er
non chal
tu ck
bus venator
bal loon
ideal izing
individual ism
30 6
pay ed
land ing
smo thered
mer ci
special ty
bar b
nar an
bat shit
star ve
odd ball
13 6
bul k
bla ke
emb ody
requ iring
sky walker
flo ors
bb bb
hehe hehe
bud s
70 5
associ ating
sn if
sn ug
terri torial
fascin ate
adm its
tt ps
indic ating
imagin ations
auto biography
nic o
nn n
sl ur
sl um
ns fw
fra mes
background s
pressure s
pink y
sna ps
ran king
aur as
interview ing
elabor ating
techno logical
calcul ations
adap tive
cheese cake
senti ent
particip ants
gym nast
progress ing
scar red
consequ ential
fru ity
sla pped
sla pping
wil ly
bang s
tac tical
crash es
bru h
thr ust
pla gued
homo phobic
brand s
fran ken
aaa ah
psychopath ic
reward ed
pron un
bee ing
pil grim
thrill ing
succeed ing
psychiat ry
instrument als
fif ty
myth s
breed s
decor ating
straw berries
wander lust
ander son
rrrr rrrr
astron om
innov ator
fiance e
bliss ful
demonstr ates
snowfla kes
patri otic
wy n
drif ted
coward ly
sacrific es
transform ation
eleg ance
referen ced
costu mes
modif y
llllllll llllllll
oli ver
ghet to
inhibit ions
defic iency
chop ped
yyyyyyyy yyyyyyyy
rhetor ic
millenni als
accum ulated
scal es
euphor ia
smel ly
smel led
ridd les
relent less
clut tered
competit iveness
rou ge
jumble d
discre pan
srs ly
consol ation
pist ol
subsequ ent
seper ate
intelli gences
autom ated
forens ic
disillusion ed
recl use
mori arty
horrend ous
mete or
errand s
attor ney
caes ar
esca ped
intang ible
pok é
inflex ible
cinde rella
sasu ke
plethor a
lettu ce
6 92
a aron
b lasting
d l
d ante
e ty
e vs
e hhh
f ading
h att
i ator
j al
k l
k le
k il
k om
k uro
n ash
p j
r int
r ye
s ca
t ps
t ine
t rolled
v ices
in verse
in dones
en comp
al llll
to f
it i
me i
me st
or gy
se ats
se gment
ve g
ar sen
ar ians
so oooooooo
ha a
ti ly
ti psy
ti cked
ti zed
my ri
lo cate
lo sses
el bow
ro am
ro aches
wi dow
wi kis
pe el
ac r
ac ne
ac ur
mo ar
de men
do h
but ler
ab ba
ab bey
co la
co sp
co hes
ge ared
int ently
go v
un ked
un developed
un organized
some place
am ic
am ir
ho e
ne ko
ir is
ce tera
ex acer
con dol
pre mi
ul as
ul tural
qu ed
qu ickest
ok a
hi ro
ere r
la ir
who op
ag or
sp rings
il les
find er
im on
over do
dis pos
dis pen
fi e
stand offish
lit a
ach ing
na cho
start led
ak o
defin it
mal ay
play fully
world wide
ru bs
je hovah
sm ilies
conf l
bu ffe
sc or
mar ker
mar gare
joy ful
tri m
tri gun
tri dent
br as
cal c
true ly
social ise
nor se
mil ton
fav s
sy rup
cu tive
bi got
bi ans
ba ses
face tious
add in
sad ist
ot one
emotional ity
dri ed
arch er
vol dem
must ard
health iest
dist ancing
intu iting
pur chased
hor net
game play
appro ved
bal cony
win ners
syste matic
vil lian
fuck ers
sever us
organ ise
por ch
step father
smo kers
11 11
user names
note books
del uded
bul lets
impro v
impro vise
critic ise
fla kes
stat ue
flo ats
socion ic
stren ght
total itarian
sli des
gri ps
ka therine
graph s
determin ism
guit ars
zo e
85 8
roo ster
tar gets
arm strong
border ing
dynam ite
intimid ation
syn c
intri gues
cling ing
tro phy
shif ted
vin cent
vin nie
reli ance
resist ant
scar iest
seme sters
96 2
relie ve
ham ster
pill ars
guid ing
hall way
ev ans
pla th
ox ford
cel tic
pee ta
absurd ity
shor ten
categor izing
arche typal
chain saw
theat r
sket ching
relat ivity
honor able
investig ating
cab inet
adam ant
instit utions
spi el
witness ing
obtain ed
immer se
anecdo tes
xy z
discer ning
supre macy
jeff erson
greed y
ingen uity
advoc ates
perci eve
xxt j
endeav or
bd sm
acer busvenator
whisper ing
aro mantic
illumin ati
hedon istic
tard is
tink er
incess ant
mig raine
reconci le
pton ite
coco a
multit asking
aggrav ating
alli ance
miya zaki
bigo try
princip al
devo tion
phili pp
wend y
accompan ied
chon dri
rigor ous
complet ly
uku lele
hend rix
drac ula
slic ed
ludic rous
enthe os
bele ive
propen sity
superstit ious
naran jo
exacer b
trident us
voldem ort
0 1660
3 78
6 38
7 12
7 16
b ard
c bt
d ice
d ah
e ta
e voke
g w
i ose
j b
j ur
k un
k ane
k ow
l ament
m ite
m add
n ite
p ans
r inse
s gh
s ry
s log
s nor
t mi
v r
v ortex
w its
w affle
x trous
z zing
in fe
re ar
re ver
re live
re write
re vert
at iveness
at iable
er rr
en f
en to
en tic
st ap
al z
al ities
al addin
to wers
to ssed
be ts
as a
as set
ar us
so il
so dium
my er
ch y
lo we
lo la
ro e
wi ped
ic ons
mo o
mo cked
he ed
ld er
co x
co ating
ri us
su ed
am bide
ther mo
end ured
all ing
ca str
sh ank
get tin
od in
pre mature
feel in
qu a
ok i
inf il
pro bs
sa p
la kes
la uri
ag ne
der og
person able
sp ades
pl anted
ine quality
had a
wo ops
here by
even ings
cho o
im pe
over analyzing
dis ability
dis proportion
fa vored
gr rr
cl erk
intp ness
mon otone
bit ten
par ker
par ame
sound cloud
min ing
min ions
min ister
ga iman
inter active
hard y
ru ff
ie m
cur led
pic tured
che ering
imp acted
oo t
bu cke
vo icing
ni chol
ni pples
hum mus
cal mer
au top
sha man
char ges
mor rison
comm end
gre ens
sol ace
adv ances
dr one
lu cas
app ar
reg ions
reg ulations
dra wer
human e
jud y
exc ites
inten s
swe ating
law l
tu g
ins atiable
sty list
band wagon
neg ut
glad iator
bur ton
romantic s
res idence
fut uristic
later al
que er
ref ute
organ ism
oooo oh
19 50
19 92
19 70
trou bling
analy ses
cla p
miss jordan
py ram
project ed
dow ney
def en
def ended
sal v
wall paper
activ ist
color ing
initi ates
chan el
stat uses
liber tar
ban ning
pan el
amp he
mach s
satis factory
bum med
flu x
addic ting
fascin ates
appoint ments
squ at
cover t
oper ations
hide ous
rac er
van ish
94 6
93 6
separ ates
pi lots
fell a
sell s
opti m
pink rasputin
lin er
fal con
boo ty
35 4
brown ies
calcul ator
neuro sis
integr ating
patient ly
impul siveness
pal ad
mac abre
punch es
measure ment
panic king
claw s
prevent ed
tast ing
dump ing
tax i
shar pen
xs fjs
thr one
shoo ts
twist ing
dual s
acknowledge ment
histor ic
sno o
sno bby
egg shells
blan ks
paradox es
pig gy
dys lexia
performan ces
insist ed
print ing
bust er
proceed s
blur t
plu to
pump ed
exhibit ion
impat ience
distingu ishing
yell s
aller gy
director s
dexter ity
devi ate
brick s
theor ize
obje cti
corrup ted
lemon ade
scan ning
ixx x
fried rich
rang es
controver sy
implement ed
maj est
provok ed
promp tly
medio cr
extr act
implic ation
0000 0000
physic ian
narr ator
spor adic
chant ing
von negut
dv ds
figur ative
prophe cy
estim ation
viet nam
slack er
entrepreneur ship
goose bumps
mich igan
doctr ine
bak er
kier sey
certific ate
scrip ture
pacif ist
suffoc ating
sculp ture
execut ed
uran us
reminis cent
fang irl
snee ze
eyel iner
cath artic
savi or
spar ring
dystop ian
porno graphy
tarant ino
nich ya
kry ptonite
conse cutive
satell ite
blasphe my
volley ball
salut ations
practition er
chamele ons
avoca do
hep burn
ember fly
hearta che
disingen uous
tennes see
pronun ciation
encomp asses
myri ad
ambide xtrous
infil tr
derog atory
libertar ians
0 4
2 90
7 30
8 60
9 13
b mi
b ending
f use
f lan
i ors
k ine
k ia
k ira
l si
m ack
m ish
n b
n z
o str
o sci
v indic
x i
y uck
in spec
in nu
in sensitivity
re r
re watching
re watched
on in
en an
en able
st en
st ard
st roll
al es
to ed
to ken
to cin
it is
me thinks
and i
be am
as ians
ar ith
so w
ha sty
li zzie
ti go
lo lita
ver dict
ac re
de leg
fe ign
ab ide
co h
with hold
ri ft
ad block
ad dresses
ent ail
ent rance
un seen
un settling
un attainable
su do
am ple
ne cks
ur gh
po of
po de
ex xj
just ifying
ma ple
ca in
ca therine
ant on
ind is
sh h
od les
pre dat
us al
ul ator
inf ront
up right
up dating
gu mp
pro be
ra vel
ta kers
sel ine
sa urus
who me
der iv
sp art
il li
com ical
she p
wo cky
ree valu
fo ggy
fun erals
comp il
over t
over la
over drive
dif fren
dis interest
dis belief
dis appears
man hatt
hel en
gr unge
off rey
shi elds
ser o
pr ints
sen sed
mind ing
gen itals
di v
di ana
di ablo
led ge
mat uring
mat tress
peri pher
let es
soci opathy
om ing
ak ward
par aphra
after all
men to
little finger
hard ships
ru by
ru bi
great ness
ste amp
mis use
mis placed
cent uries
che ats
mar ines
mar oon
mus ically
br ink
sha hada
form ally
du per
du ct
pa i
pa wn
bi kes
bre wing
simp son
tor to
tor ch
tor rent
night time
fre ckles
shit ting
har a
har assed
war weasel
mom ma
hor rors
fit ted
meet ups
necess ities
fac ility
full metal
psycho sis
phi a
win nie
pet ting
bur ri
event ual
ju g
ju de
drink er
cru z
extra vag
em powering
communic ates
supp le
19 96
por ts
por cel
nf l
hind er
ben edic
bot tling
del ving
manipul ator
pen chant
13 7
sal vation
grand iose
favour s
explo des
inse ct
sj ws
confident ly
paint s
paper work
pure st
flu ous
author itative
method ical
sli ding
hahahaha hahaha
ches hire
vic inity
prin cesses
compliment ary
snow boarding
nut ella
acqu iring
cele st
perfection ists
progre ssed
design ated
sna pping
rat tle
cam ps
appeal ed
sw iss
35 8
pin o
nin jas
lur ked
calcul ation
reli ant
integr al
uti lizing
experiment ation
dor ky
slo pe
rot ting
concent rated
spre e
nit pick
relie ving
xst ps
conservative s
tail or
lor ds
kar l
kar ate
geor gia
catholic s
thy roid
bru shed
eight s
clash es
flash y
brand on
rick y
fran chise
oce ans
lab our
arri ving
mistaken ly
melo dies
minim ize
emer son
energ ised
paradox ical
clin ic
democr ats
sie ur
eu than
president s
adop ter
01 100
ari um
libertarian ism
neglect ing
civi lized
excl ude
tee hee
persu asive
theor izing
manife sto
abandon ing
abandon ment
zoo ey
elimin ation
poly am
skim ming
anticip ating
oxy tocin
swo re
anecdo te
physi que
snu gg
spor ting
cart man
depic ted
jelly fish
spur ts
comprehen sible
chron ically
stret ched
tutor ing
disgu ised
pud dle
haru hi
escal ate
univer ses
caus ation
antagon ist
fluctu ate
hue hue
hallucin ations
sabo ta
confid ant
distaste ful
interven tion
advertise ment
incess antly
jenny wocky
objection s
cric kets
exemp li
infl ated
abrup t
fantast ical
loooo ve
infr action
handic apped
misogyn istic
archa e
chand ler
paralle ls
revis ed
distribut ed
complac ent
crank y
mathematic ian
entro py
constru ed
constra ints
presump tuous
ferro equino
monet ary
appreh ensive
epist emo
margare t
alz heim
amphe tam
mediocr ity
manhatt an
steamp unk
4 10
7 78
9 11
9 90
b ry
c ited
d w
e bb
f oul
g url
g ments
g room
h if
i lot
k ent
k end
l ation
l ure
l ang
m ick
m ason
n go
n ancy
o ak
p imp
t as
u fo
w th
y ada
y uk
z ers
z ig
z ach
th igh
in fect
in authentic
in doctr
an on
an gu
re ce
re born
re bound
re calling
re vise
ou ses
on ing
er up
ing lor
en sit
al ittle
to ying
to aster
it ten
me and
me gan
me ters
is lands
be ards
as mr
as surance
ar oo
wh ee
so viet
ha z
ha aa
ha cking
ch loe
lo cking
ver bo
ver bs
ver tical
ke gaard
pe bble
ic ation
ac cor
de us
he it
fe ff
do vey
but ts
co ats
ri dden
ri ley
go on
un feeling
un professional
un satisfied
un employment
am ar
am bass
ho op
ust ro
ther s
po ked
per cy
per sever
per vas
ex changes
all as
con tra
si o
si th
si ps
si zing
sh r
qu asi
te al
te ous
gu ise
gu shy
gu ards
pro je
pro verbi
ta e
ye ee
ci us
la i
art es
vi le
mu lling
um an
whi pped
est ate
red is
tal ia
fun ding
fun ded
tic king
infj ness
under go
dis satisfied
fa ves
fa ire
man ship
fin ing
str ang
ser ge
des ensit
ans as
gen ie
his panic
di o
di y
fore sight
mon sieur
ak ira
won dr
min ion
clo cks
side tracked
down sides
function ally
book mark
mis information
mis interpret
pic ard
imp l
ster ing
cor dial
cor responds
gl am
sense less
char coal
exp on
ton ic
tur k
sol ver
ek i
wrong ly
cr ated
car ter
car rie
sk a
sk ins
place ment
ba e
night wish
dec ency
cre ations
add a
reg ulation
reg ulate
dra f
ot to
creat ors
dri pping
sto ve
har med
dist or
bed s
dou g
spec ulative
absol ut
mother fucker
oc ion
oc cured
gra vy
rest ra
discus ses
mone mi
ener ys
sil k
hy de
proud ly
cli max
que bec
12 6
fan fiction
hot ter
bar king
cla ustro
11 8
suc ces
zz le
water melon
iv a
sar cast
purpose ful
hug ger
air planes
emb odi
acc eler
useful ness
pis sy
dum mies
sof a
struct ural
viol ation
viol ently
inv in
inv aded
flu sh
dun geon
22 7
sn ide
mum ford
dig ger
moon light
context ual
gri ffin
hero ic
vic tor
behaviour al
gent leness
hhhh hh
wea ve
sl ender
alcohol ism
danger ously
card board
sam uel
toler able
asser ting
asser tions
secret ary
ran ked
brow s
28 8
soli dif
nur ses
poll ution
ai k
sand als
weed s
pian ist
ax es
seven s
liberal ism
idio cy
cop per
bun gee
routine ly
philosoph ically
lam b
host ing
dump s
pul se
convention ally
catholic ism
finger nails
functional ity
fond ness
kin dest
wwww w
neck lace
suspic ions
stab ili
yi ppy
phenomen al
wra pping
dub bed
aloof ness
decl ared
thick er
dece it
minimal ism
east wood
review ing
pump kins
compul sively
persist ence
dish washer
anticip ated
spi kes
download ing
dood les
heter o
peanut s
transfer ring
enders now
lav endersnow
patri archy
volu mes
toss ing
enthusiast s
emoti con
islam ic
modif ied
vehic les
estim ated
craz iest
caus al
millenni al
misogy ny
wwwwwwww wwwwwwww
nud ge
omni potent
011 10
fus sy
disast ers
affir ming
scandina via
resurrect ed
mour n
scatter brained
holo caust
artis an
tz ara
curtain s
shaw shank
sill iness
cau cas
ethan ol
transcendent al
scissor s
swir ling
juven ile
nebul ous
exhilar ating
sanct uary
lethar gic
odys sey
catal og
zeit geist
frivol ous
inef fective
waff les
insuffer able
asth ma
unavoid able
pred ator
demen tia
philipp ines
lauri e
osci ll
inspec tor
whome ver
porcel ain
ferroequino logist
proverbi al
3 22
4 50
5 14
a el
b ion
b ong
b ick
b ago
b bing
c th
c ss
c ds
d reading
d allas
e hm
e gal
i ah
j us
j ani
k r
k ou
n r
n ba
p ne
s lump
t weet
u mo
x en
th nx
in definitely
an tha
re k
re z
re make
re pri
re sign
re solving
re signed
re percus
ing est
st fu
st amp
al ing
to ro
to fu
me ek
me yer
me thodo
se bast
you ll
le vi
ve ment
be gg
no thin
so ver
so lete
so aked
ha re
ha unt
lo ol
for te
for sa
ic le
ic les
ic arus
mo ss
mo ose
de pe
out lets
out weigh
out lined
ri mo
int ake
go gh
un used
un explained
un dying
un worthy
un determined
un cles
un educated
un knowingly
not ep
su ki
su pere
op h
ho ho
ne ural
per vert
ex xx
ex uber
ex hibits
what evs
ma z
ma gi
ma iled
ty ran
ca h
pre serving
qu ack
pro zac
ra is
ra ping
ra pun
ta pped
rom ans
rom ney
there for
sa ul
sa iling
bo g
art ed
person nal
vi king
love able
sp ank
well s
com end
ill usions
ck le
ree se
ree ks
may er
spe ar
spe ci
fi an
fi able
af l
hel met
cl er
cl ones
cl ann
real ms
ach u
personal ized
mon ono
aw ards
aw aken
ext ends
ob i
ob scene
ob solete
lol s
clo ses
inter nets
je e
sm h
sm itten
down time
ste vie
book shelf
conf u
conf ound
word play
sc ree
mar v
mar shall
mus k
row s
br ass
coun selling
form ation
hu sh
hu ahu
gre asy
hand shake
bro dy
far ming
du tiful
car go
car ib
ber y
ber ing
fr at
fr iction
bi en
til t
kid ney
cour teous
cy an
cy borg
arch ing
vol cano
vent s
har old
har ley
sho vel
sho ved
super fluous
dist ric
gra pes
house mate
den ver
moment arily
rest rained
break through
cha mber
group ing
saw yer
ident ities
qual ms
inform ing
pass words
sil s
ze alous
bri um
da e
da enerys
hy ped
suggest ive
medi ator
bur gers
pho ebe
physical ity
mas cot
death ly
cli ques
individual ist
leg is
pay check
19 0
19 80
por cup
focus sed
hot test
dead pool
bar a
bar bec
die go
xx fj
cook s
def lect
def ender
hop ping
sal via
bla ir
anti pode
rational ise
peace fully
ens la
shop per
recogn izable
ky lo
baby lon
pes ky
mel ts
bey once
pan ick
suck y
24 2
doctor ate
33 7
account ability
99 9
sli ces
represent ations
mut ant
van ia
seek ers
nic ole
cast ing
base less
determin istic
fly nn
altern ating
offic ers
separ ating
gold fish
courage ous
flat ter
sam antha
bon er
bright flashes
pol r
regret ted
switch es
ato ms
syn chronic
sched uling
temperament al
astro physics
vac ations
trump s
false ly
trum an
pal mer
74 7
standard ized
fro sty
empath izing
brit t
bun tu
bun dle
puzz ling
stit ch
request ing
establish ment
heaven ly
occup ational
reck ful
gard ens
breath s
desc artes
dete ctor
split ting
honey moon
atmo spher
scrat ched
distin ctions
comfor ted
inven tive
punish ing
spac ing
disrespect ed
snap chat
electronic a
replace ment
insist ing
yor ke
lecture r
pros per
dece ased
gil ly
stro king
subscri ption
shad y
tact less
cooper ate
sweat ers
convenient ly
dedu ce
geon erd
wicked queen
poison ed
compens ating
hic cup
rang ed
dood ling
coin cide
promp t
divid ing
chie f
labor atory
tou che
spit ting
convo s
maxim ize
foun der
greg ory
stan ley
baff ling
excer pts
deliver ing
asse mb
bol t
defic it
embar assing
ota ku
escal ated
dal eks
stam ina
nood le
ais le
utop ian
enforce ment
endor ph
reflex es
proced ures
egy p
improvis ing
gad gets
kier kegaard
adri en
immigr ants
nnnnnnnn nnnnnnnn
flour ish
announce ment
atl antis
imper ative
natal ie
teleport ation
mmorp g
wren ch
prat chett
knu ckles
psychotherap y
involunt ary
dwar f
nonexist ent
ideo logies
flam boy
retor t
disheart ening
dus k
triump h
franken stein
poké mon
wikis ocion
cosp lay
condol ences
theatr ical
impe cc
ostr ac
polyam ory
inglor ious
ambass ador
sarcast ically
embodi ment
egal itarian
rapun zel
monono ke
barbec ue
2 30
2 98
3 50
c ca
c ter
e mi
f led
g ory
h w
i irc
j rr
j ury
k abo
l abs
m of
n k
p ak
p ses
p ads
s having
s nat
s late
s nes
t c
t ally
t wee
u buntu
v lad
w ate
w right
w allowing
w inters
x as
y t
y uri
y agami
z ee
th ren
in ator
in arian
re vision
re visiting
re arrange
en ables
st ad
st ings
to ile
me red
me lee
is hable
se ated
le vit
as c
ar ming
ar nold
no s
ha ze
li ers
li ans
li cks
li zes
ti ff
ch opin
ch illed
lo co
lo af
lo ath
ver tigo
ut er
el vis
ro gen
wi pes
pe ek
ic ulous
ac ulous
mo lly
de but
de lic
he talia
fe b
ab stain
out law
out land
co dependent
ri pe
ge ms
un defined
un willingness
op hone
op pression
am id
ho bo
po lo
per tin
ex pe
ex ude
can x
all uring
ma ko
don na
ty l
ca pp
time d
pre qu
qu in
inf id
inf ant
up stairs
pro dig
rom ent
hi hi
who s
friend zoned
love craft
ment ed
well being
ren dered
com posers
est x
work outs
ep he
need les
ap den
dis content
dis advantage
af aik
man sion
gr ac
cl are
ple ases
sit ta
ide ological
gen ital
log ne
par iah
inter fer
inter webs
inter viewer
reason ed
cur vy
cent red
imp ending
vo ir
ni ko
med al
tri via
exp enses
form ulas
sy na
saying s
ber nard
bre thren
tru er
tor turing
ba seline
ear rings
ear phones
open er
pat ter
cour ting
reg ur
heal ed
colle ctiv
home body
name se
ot es
mi ley
attr actions
rep ent
tot es
wait er
perfect ed
net works
prof its
gra vey
gra phies
appe ase
rest rain
sco o
sco op
cap ac
incl usive
curious ity
ze ppel
win ston
var ieties
ju ices
ju ggle
ju icy
fli pp
fli cks
remind ers
cognitive ly
ulti mat
extra pol
extra ordinarily
ont as
fast ing
check list
unk y
cir cul
fan ci
mer its
special ize
cla us
slow ing
suc cesses
jok ed
14 7
artic ulating
ja de
develop mental
trans cri
partner ship
mad man
drive way
wall ace
sky cloud
program me
ral led
aaaa aa
flo ss
dum best
baby sit
travel led
relax es
pan theist
witch er
tough est
mach in
memor ized
excited ly
terri fic
equ ates
tt p
tt t
yo te
hypo chondri
dar io
jack ass
blood ed
counter phobic
snow ing
fren zy
shadow ed
flat mate
cro s
model ing
mur phy
ow rimo
sna ppy
chi huahu
aur ora
syn thetic
syn tax
75 4
cred entials
battle star
pride ful
ku brick
tren t
dick ens
acade mist
ware house
tele path
refle ctions
cris p
alien ate
experiment ed
36 2
dragon ball
angel a
principle d
ordin ate
transl ations
puff er
devil s
47 9
stack ed
format ting
demo graphic
tan sta
remo ves
playful ness
arri val
manifest ations
smooth ie
contempl ation
fold ers
comprom ised
cave at
sno bbish
termin ator
mir aculous
promo tes
kat y
burden ed
comfor ts
inven tory
thir teen
command ing
dub ious
bis cuits
pd f
collective ly
boun cy
preach er
kk kk
lemon s
shu ff
borrow ing
nan owrimo
insom ni
ira q
gau ging
sedu ction
fred die
revel ations
righteous ness
shoe gaze
spor ty
vom iting
sacrific ed
depic tion
greg ation
mole cules
eleph ants
chron o
stret ches
oat is
oli via
masoch istic
squirrel s
wrist s
embar assed
steven s
viet namese
joint ed
xxt p
whist ling
vitam ins
notori ously
iiiiiiii iiiiiiii
repul sive
mash ed
hallucin ogen
refu ge
abra ham
cara mel
coordin ated
neighbour hood
xsx j
alle vi
volunt ary
quanti fy
consult ant
atl anta
artis ans
gib son
paraly zed
abrup tly
traumat ized
sax ophone
dilig ent
♥♥♥♥ ♥♥♥♥
moan ing
whirl wind
obedi ent
inherit ance
underestim ated
inexplic able
ope th
prostit ution
brun ette
harass ment
tantrum s
gabri el
helicop ter
suspend ed
hick s
depersonal ization
conso les
expan sive
noctur nal
jeopard y
imparti al
gymnast ics
acr ony
nacho s
infe ctious
autop ilot
vindic tive
sudo ku
benedic t
accor dance
pervas ive
sebast ian
depe che
fian cé
clann ad
carib bean
apden oatis
interfer ing
zeppel in
tansta afl
2 92
3 90
4 20
4 66
4 64
6 50
a ure
b ren
e igh
f ty
g af
g ale
i en
j ou
k ard
k um
k ang
m ie
m mos
n ity
o asis
p lo
t ought
t issues
u feff
v ard
x mas
in vari
in fest
re do
re but
re now
re tal
re take
re side
re playing
re birth
re cip
re sorting
at ism
at tire
st d
al arms
is her
or k
or acle
se th
le ase
le gged
ve e
li brium
ti gers
ay as
lo is
lo red
ic an
ac ry
ac cord
de hydr
he mo
fe y
do ve
ab ling
out wards
co ated
co sme
ad ically
go l
go ts
un lucky
un settled
un desirable
un ravel
if p
not ably
op t
am d
id ing
id ont
ma e
con ject
con spic
tr ite
tr inity
si rius
way yy
sh enan
ter ia
how s
pre determined
us d
ul ates
up hold
gu er
gu sh
pro hibit
ra i
sel ena
ye ti
bo gged
mu dd
mu lder
sp ans
pl unge
um er
com mission
she en
day time
will ful
red s
red iculous
her b
her cules
work load
comp ly
under line
under mine
over due
over arching
ap es
dis abilities
ten s
af fe
fa ken
man eu
ish ment
fin ale
hel ena
cl int
real isation
ach illes
pr ada
ang ular
gen ic
log istics
new bies
mon u
mat su
mat tered
par ked
bl ending
inter twin
ste mming
ie e
che ered
che ery
bu shes
bu zzing
vo i
mar ina
mar ley
ni hm
les bians
old man
ath letes
cor responding
tri bes
gl ances
br ash
br ony
sha y
social ized
form ulating
hu b
bro coli
cr ad
sy mb
cu ff
cu cumber
du ed
car bs
fr as
week days
bor o
kid nap
add le
10 8
must ache
vent ured
har assing
vis cer
war ped
super st
sleep less
exc itable
free man
free zer
oc cult
eng ines
house work
av ril
rest room
swe aty
break ups
cha u
dark bar
domin ates
cap tion
temp s
psycho analysis
pet ite
quo ta
romantic ism
christ ina
communic ative
stra p
cut ed
origin ated
sat ir
cir cuit
15 5
mer chant
bar bie
analy zes
wal do
bel ated
py gma
cul min
water fall
fellow s
iv ities
ja ime
evil s
ris king
pas cal
bra ke
bra very
desp ised
earth y
suff iciency
effect ed
business man
dry er
critic izes
flo ps
recogn izes
fill er
tem po
rad es
distr acts
congr u
cover age
mut ed
wild life
iq s
gover ned
complic ations
bag el
improve ments
contri ved
hat ch
hat ter
cro chet
fra med
mur ray
ow es
ko vsky
blog ging
speed s
vulner abilities
34 6
continu um
dir k
contribut es
stream s
avail ability
wol ver
demand ed
tele phone
proof s
tum my
burn out
warning s
cust oms
spark les
liberal ist
subtle ty
hint ing
distur bs
36 9
host ed
feat uring
shel tered
equi librium
camer on
sim ulated
plat on
rebel s
guid eline
survi v
ec static
mono tony
ev sky
naive ty
fran z
venge ful
manifest ed
fold ed
comprom ises
hosp itals
spam ming
inn ately
bee be
len a
len ore
mir acles
spin ach
scrat ches
tick led
gam ma
gigg ly
rum inating
isa bel
douche bags
stead ily
decor ations
simpli fying
strateg ist
redu ction
yu ki
environmental ist
poison ous
terror ist
elimin ating
fluid ity
epi phan
compens ation
administ ered
studio s
transfer red
nan ny
nom nom
submit ted
stir ring
guine a
tent ative
cot tage
resc ued
scholar ships
projection s
spor adically
limb ic
coward ice
pand as
wre cking
tread mill
perci eved
victori an
db z
elit ism
scent ed
fili pino
perpe tr
auton om
oppon ents
caf es
sadd ens
drool ing
vv vv
reinforce ment
anonym ously
3333 3333
lolololo lolololo
intrins ically
scarlet t
secl usion
leth al
dod gy
ridd led
jol ly
atom ic
itch y
competit ions
muffin s
gno me
hav n
execut ing
glimp ses
cric ket
implicit ly
dosto evsky
astound ing
bj ör
mitch ell
lefto ver
kindof blue
conting ency
enterpr ise
relativ ism
overest imate
nif ty
waver ing
effe ctiveness
tournam ent
lup in
pomp ous
divul ge
blizz ard
scramble d
exqu isite
prow ess
snug gling
jal ap
kow ski
parame ters
nichol as
pyram id
stard ust
arith metic
torto ise
01100 101
rece ip
invin cible
repercus sions
notep ad
speci men
distric t
atmospher ic
toile ts
pertin ent
sitta pygma
invari ably
faken ess
björ k
sittapygma ea
1 16
2 20
3 16
4 99
6 96
a ang
b ish
b als
b raid
b aster
c ider
d har
e ck
e ure
f ad
g p
h ing
j w
k ig
m antis
n ish
n js
o ol
o car
o key
p are
r hu
s art
s lay
s perm
t and
u f
w oud
x ed
y am
y adda
z im
z app
th ail
th ug
in between
in action
in sufficient
in attentive
re ed
re fri
re serv
re lied
re store
re connected
re strict
re production
on i
the ast
er ie
en rolled
st ache
al on
al er
al mighty
to re
is ha
and o
ly dia
be a
as certain
no ses
ha k
li mp
ch ro
ch man
ro ssed
wi ggle
pe ck
pe tals
gh an
ac co
mo ore
he als
fe m
fe pa
fe aring
do ppel
one se
co yote
ri ly
ion al
ion ally
ent ities
un wind
un successful
un tidy
un resolved
am al
am end
ne ville
ir ked
per v
ma ine
con junction
si ves
ind escri
sh ou
sh ion
pre conceived
us b
pro portions
there by
hi stories
sa ints
la h
ag ents
mu ms
sp aring
too t
ble m
red head
wo ooo
rel ish
her bal
tal on
work force
yes sss
spe w
im person
over watch
over looking
over loaded
dis course
dis satisfaction
dis approve
af fli
man nered
where in
bet ting
ig er
ple a
str angle
real ists
ue i
ser a
des ol
ph s
ang ed
bab bling
di me
di abo
di arr
om it
ext x
par able
ff ing
ob v
bl adder
oh hhhh
clo ak
inter course
inter ference
inter stellar
hard ship
ste ins
gener osity
cur ves
mis fits
bu u
sc off
fu tility
mar king
mar ching
mus ing
cor nered
tri l
br b
sha ping
exp ound
big gie
sub set
gi ants
hu go
gre gor
hand les
wa if
wa aaaay
depend ence
cr ane
cu tion
sex iest
lic ensed
fr ay
fr ater
set te
ba ile
ba hahaha
cou l
cou se
10 5
ped o
cy clo
cy rus
convers ion
fre ne
colle ctor
gg gh
gg ings
similar minds
explain able
mi mesis
cat fish
deal ings
human ist
human kind
gy psy
vis ibly
lat te
intu itors
exist ance
gra ham
mid way
moment um
argu es
sug ary
bri en
da vis
da unt
syste matically
crit ics
wit t
wit ted
pho be
fil th
ju ggling
draw ers
cli ches
process level
deb ts
sight s
pay ment
origin als
wink le
comput ing
grad ual
hind u
15 3
mer curi
mer ged
sid elines
straight en
hood ies
blue berry
inner most
zz z
ja ja
round s
trans mit
blu shes
cof fin
impro per
earth quake
cin o
compli ant
initi ation
fla ke
agno stics
multi verse
cant onese
lean ings
viol ate
satis fies
nes ia
22 6
ridiculous ness
temper atures
yo shi
role playing
fresh men
hes se
wind y
93 7
rap pers
sl ant
27 9
fra ud
fell as
45 1
bright en
pol is
arm our
95 4
28 2
procrastin ated
ambi verted
boo th
magic a
destro ys
ske leton
wand erer
hon da
legal ized
threat ens
isol ating
uuuu u
settle s
resist ing
impul sively
tiny chat
scri pts
dor ian
camp bell
46 8
46 9
transl ating
kno cks
kar i
tac os
breath taking
lun g
thy self
attribut ing
dare devil
stimul ates
stimul ants
ann ual
lif ts
cheer leader
adjust ments
goof ing
bread th
iiii i
som thing
admin s
depart ments
cauti ously
fairy tale
agon izing
dys thymia
ik r
trigger ing
motor cycles
decl aring
document ed
colo s
mortal ity
decor ation
profit able
marti an
theor ists
pepper mint
champ agne
constit ute
hahahahaha h
pronoun s
zu ko
fasc ism
magn itude
posses ses
implement ing
canad ians
progressive ly
summar ized
obtain ing
upload ing
obe se
pertain s
mud dy
grind ing
liquid light
hul lo
strip per
misanthro pe
socr atic
prophe t
aaaaaaaaaaaaaaaa aaaaaaaaaaaaaaaa
humili ating
summon ed
kra v
mme try
endor se
singular ity
abra xas
olymp ic
tai lored
lau ren
bloom er
andre a
barbar a
attic us
conve ys
blos so
ench anted
gran ny
fantast ically
ese crated
bever age
ascri be
envi roment
pend ulum
hijack ed
conqu ering
imperfection s
mistreat ed
administr ative
unner ving
hin ata
interchange able
reha bil
exor cist
omnis cient
pragmat ism
immers ion
nug gets
succum b
conj ure
kidna pped
ribb on
caric ature
pik achu
coincid ences
shep ard
compil ation
epistemo logy
caucas ian
cth ul
repri mand
porcup ine
synchronic ity
assemb ly
kabo om
kard ashi
recip ient
shenan igans
darkbar low
satir ical
eure ka
rhu barb
thail and
reserv ations
doppel g
daunt less
2 10
3 70
5 30
5 15
6 35
7 50
9 30
a val
b day
b jor
c v
c ion
c ort
c pu
d p
d any
e ther
e ww
g ables
h inde
i ro
i ac
i ps
i ably
j j
j cf
l ones
m tv
n ad
n ye
n ina
n ano
p if
p has
p da
r ho
r ite
r angers
t int
t us
t amp
t chai
u b
v log
w ang
w ak
w ret
y m
z ak
z omg
th ouse
th wyn
in ction
in line
re spir
re fut
re tt
re union
the ists
at ra
er adic
ing o
ing er
st in
st ps
st ilet
me gam
is en
is sa
is xx
or o
se iz
se ize
se mblance
you ve
le opard
be i
be wil
as sets
ar g
ar ag
ar ders
no lan
ha b
ha uer
ha milton
ed en
li ch
ti al
ti des
lo v
lo tion
ver bat
ver ified
ut en
ut tered
for ty
ro aming
wi des
wi res
wi ping
gh oul
mo ons
mo sity
de ple
de clar
de ceiving
fe ist
fe tal
but ting
ri led
ri bs
ri hanna
ge ty
int re
int ing
un cool
un heard
un helpful
some thin
op a
op pressive
ho ts
ho arder
ir regular
po les
po late
po ignant
po cah
per sian
think in
ex changed
all ly
con st
con done
con stell
tr ic
si ggy
pre ad
pre mon
ul f
qu et
te ared
gu in
gu shing
pro li
pro tests
pro bing
pro stitute
act resses
ye ap
hi v
sa k
sa vor
ci g
ive ly
pp pp
mu til
ren ding
good ie
day care
ill s
may a
comp iled
jo g
jo lie
under tale
under lined
im ir
im minent
dis crete
dis credit
man gan
ish ness
pret tier
gr ats
off beat
ple d
shi re
point y
di vert
lie k
intp ish
emo te
care ss
ext inction
par ach
yeah hh
play lists
ga z
je w
cri sto
bad ger
ste fan
ves sel
cont roller
mis lead
mis diagnosed
mis fortune
col ony
fu els
vo iced
mar cus
ild a
ni x
br ute
sha wn
mor onic
sub dued
pu a
pu ella
mil ky
ult ure
adv ancing
cr oft
sy ner
fer ris
pa uses
car rey
nat ured
ber ish
place bo
exam ination
face less
consider ations
cou p
general ise
pat rol
character ize
came l
video game
sto cking
sto cks
har per
har vard
hur dle
hur ray
war p
war ms
war med
sign ify
run e
mit ig
spec ulations
spec ulating
cas sie
gra fic
dam on
hor mone
experien cer
ming le
av a
mental ist
break ers
rol and
cha ses
tu tori
cap t
incl inations
fac to
roman ces
da i
da me
bal e
hy un
black s
mas sa
extra polate
sun days
communic ator
organ izer
por trays
12 9
ele ctions
soul less
born s
scre ens
bar nes
ball room
shed s
cul inary
youtu bers
thor n
thor ne
del ved
og ion
actual y
actual ization
ado lf
ani ma
grand master
air ing
requ iem
port able
fantas ized
lon ers
husband s
explo itation
chat ted
fla ir
flo p
commit tee
bio graphies
ric a
mel lo
frequ encies
witch es
hid dle
responsi bly
rog ers
exer t
temper ment
argue ment
morrow ind
eeee eee
gri zz
hero ine
kick er
94 5
ug al
sch open
affection s
rap per
sequ ences
vari ance
expression less
blind ed
ran ch
enth ralled
syn chron
xn xj
elabor ated
sw am
sw allowed
brown s
cloud ed
neuro logical
wand ers
irrational ity
64 2
nick i
spark y
pit iful
36 8
veget a
record ings
reci eve
revol ving
lam bs
tribut e
nine teen
aim less
clash ed
yyyy yy
tan go
fran tically
murder s
taint ed
luc ifer
volunte ered
fold ing
medium s
rein forces
tick le
tick les
paradox ically
shor test
shor tage
fab i
micro phone
portray ing
jac ob
jac kets
prison er
trash y
blur red
condesc ension
lash es
grin ning
differenti al
prejud iced
chronic le
haw ke
exhibit ing
stem med
boun ces
grain s
echo ing
echo es
consen sual
vio la
redu ces
incident s
transition ing
transition al
conce iv
psychiatrist s
thunder storms
terror ists
buzz ed
dur ation
demonstr ating
pff ft
kay aking
condu cive
lac ed
selective ly
shat tering
pale onto
mim i
sketch y
thumb nail
tent atively
quad ras
depress ant
cen sored
criti ques
awa iting
physic ists
resource ful
protagon ists
assass ins
depic t
quie test
enthusiast ically
flood ing
flood ed
oooooooooooooooo oooooooooooooooo
spite ful
radi ating
baff les
slee ved
homosexual s
quar tet
tender ness
occurren ces
walt z
craz ies
conduct ed
nas a
extre m
humili ation
appla use
dissoci ation
affir mative
sorrow s
crunch y
spel t
mischie f
xsx p
symph onic
conve ying
tranqu ility
kir by
romantici zed
knot s
trous ers
dissa pointed
unden iably
infl ation
bart ender
bever ages
compartmental ize
condem n
diale ct
succinct ly
acute ly
scrut in
lefto vers
algorith ms
crum bs
fidget ing
aero space
pau lo
uno b
galac tica
promethe a
lever age
feli x
rober ts
frick in
embod ies
snip pets
appren tice
morris sey
mammal s
alleged ly
clea vage
athen a
scep tical
discree t
slum ber
indones ia
vinnie bob
palad in
predat ors
reevalu ate
supple ments
euthan asia
amphetam ine
wondr ous
restra int
ael thwyn
methodo logy
forsa ken
supere go
outland ish
infid elity
insomni ac
acry lic
symb io
epiphan ies
ocar ina
sart re
esecrated esecrated
tchai kovsky
bewil dered
arag orn
verbat im
2 40
2 66
5 38
7 10
a j
a ism
b bling
c one
c si
c act
d ank
d aph
e j
f fi
g m
g able
h ut
i ri
j ill
k j
k ha
k la
k aku
k ansas
m if
n ana
n orton
o bo
o que
p light
q uran
r lo
s ven
s worn
t up
t art
t rol
t weak
t zu
u a
u ing
u ke
v ä
v oo
y as
y uu
th i
in car
in struct
in venting
in adequ
in vigor
in comprehensible
an cies
re su
re covered
re treating
re occurring
the tically
at ility
at rix
en su
en dear
st ances
al ab
al fred
to by
it ary
me lat
or ion
le ic
be cas
as l
es xps
no o
no es
no oooooooo
ha unts
li am
li able
ti pping
ti dying
ch as
ch ile
ch lor
ay ay
ut ah
el uc
pe ed
pe aco
ac on
mo ti
mo pe
mo du
de ut
de preci
de fective
do e
do able
but cher
ab om
ab normally
ab stin
co ven
co exist
co logne
with drew
ri f
ri fle
go ire
un do
un anim
un grateful
un appealing
un structured
un comfortably
un fulfilled
un orthodox
we x
we ster
we eps
op ers
am on
am ag
am ber
ho mer
ne mesis
ir an
ur gent
ur gency
per spic
think so
end ur
can is
all an
ma ust
ty ing
ty son
sh allo
tion al
wor shi
inf anti
act u
ra ves
ra ught
ta gging
sa u
la g
la kig
ct ed
bo mber
bo og
self kill
der anged
vi g
mu si
mu ck
love kitty
sp ade
sp ices
com rade
ble d
has nt
red face
red neck
may o
ep ide
happ end
jo t
jo han
post ings
im g
over used
over sensitive
over population
ful fil
dis able
fi led
fa ul
fa ux
fin er
fin ch
gr anger
gr ants
ig ar
shi vers
pr iced
na pping
haha a
di va
start up
understand ings
care y
ext ending
mal ice
talk ers
side kick
down ward
down ton
sor a
sor bet
mis interpretation
mis spelled
conf ine
word y
imp ed
bu kowski
col lo
col umn
mar ian
watch men
cor ro
cor gi
pres so
pres idential
comple ments
laugh in
sub mission
comm ence
sol ute
pu ke
writ ting
cr ono
sy m
ny mp
fer r
du el
pa vement
car ri
sk it
sk ater
lic ence
cus sing
ba il
dec ay
ef fin
general isation
10 4
god ly
character ization
reg ulated
mi che
arch ive
cat ap
har ness
health ily
ken ny
order liness
dist raught
jud aism
xd dd
hal dir
descrip tor
eng rossed
bt mangan
cha k
lect uring
brain y
cry p
100 674
num bered
hold en
intellig ently
bri des
quiet ness
sun flower
gree ks
que z
19 40
eye balls
eye lids
gram mer
gram matically
research ers
decided ly
land lord
step han
fan fic
ank o
bar ring
bar ista
bar oque
ball er
hun ny
hun gover
ket tle
18 00
nar co
contin ents
ital ic
intellect s
bul bs
17 5
air craft
bra ver
jun gs
port ugal
acc uses
box ed
genu in
critic ised
initi ator
door way
door step
dan se
eth ically
fas cist
psych ics
green e
deser ted
gro o
rad ius
tre vor
dun geons
sn ag
ore os
jour neys
content ed
temper s
cafe teria
weight lifting
benef actor
via than
abstr actions
bag gy
fish y
medic ated
abstract ly
vul can
pi qued
27 3
cro oked
fra gr
accident ly
artist ically
troll troll
95 5
san goire
chi valry
nur tured
inte ly
elabor ation
brown ie
superi ors
continu ation
park our
mellow ed
frank lin
tro y
tele kines
shif ty
senti mentality
demon ic
german s
advantage ous
chest nut
mac beth
email ing
fro ze
theore m
fru ition
fru gal
sla ps
narrow ing
cudd led
camp fire
agnostic ism
ret ards
ham mock
occup ations
pup ils
amusing ly
voc ally
mathemat ically
devil ish
err one
pla gi
ami able
sin ister
desc ending
contrast ed
cock tail
sche mes
sche ming
ald ous
adjust ment
aaa and
pool s
brave heart
betray ing
adapt ability
assist ing
54 9
kat ana
junk ies
stain ed
burden s
jim i
yi elding
hr asing
quant itative
prison ers
ik us
pier ced
rese mbling
bour bon
plu gs
prejud ices
oid s
unde re
traum as
boun ced
yard iff
simpli fication
indu ctive
loo ong
dialo gues
absent minded
champ ions
arrange ments
ido lize
disregard ed
scan ner
cine a
sting y
tooth paste
masturb ating
toe back
shat ter
swo op
enor m
selfless ness
obst inate
magne to
smack ed
snu ggles
todd lers
gras ped
monitor s
transform ers
accom mod
gggg gggg
retain ed
vibr ations
spill ing
seman tic
pharm ace
evange lical
carol ine
hover ing
collap sed
dictator ship
firef lies
mg mt
dissect ing
concious ly
disrup t
tttt tttt
eeeeeeeeeeeeeeee eeeeeeeeeeeeeeee
nig ga
torment ed
canc elling
supreme ly
sob bing
defi ant
dissoci ative
certific ation
immigr ation
barbar ic
slut ty
crus ade
suffoc ated
relent lessly
revive d
frown ed
sque ak
tink ering
resili ence
ridicu led
discre tion
gib berish
nause ous
subsequ ently
fron tal
denom ination
percus sion
veter inarian
bureau cracy
atro cious
semin ar
mmorp gs
scrut iny
algorith m
nik ki
anore xic
anore xia
hiber nation
bok u
jig saw
messi ah
coer cion
bm w
argent ina
carp enter
dul cinea
psi lo
ulli van
parap hrasing
fanat ics
necroman cy
arsen al
malay sia
extravag ant
kend rick
angu ish
verbo se
persever ance
bion ic
exuber ant
endorph ins
vlad imir
syna es
regur git
gravey ard
hypochondri ac
allevi ate
ayas ullivan
fras ier
wolver ine
platon ically
baster ds
refri ger
wides pread
pocah ontas
tutori als
hiddle ston
schopen hauer
melat onin
becas ue
eluc id
shallo wness
telekines is
2 70
4 78
6 16
6 27
7 000
a an
a pro
b ou
b rom
b anal
b ambi
c g
c ac
c mon
d sm
d ali
e ternally
f bi
g love
i ary
i ka
i mentary
j ars
j fk
k you
l ant
l ark
m k
m asked
n pr
o the
o lives
o wed
p out
p ter
p um
p low
p ins
p iling
p laid
r ur
r ory
s ic
s ine
s ence
s iness
t ats
u tical
w ank
w wii
y oo
z ation
z ie
th u
in still
in sur
in human
in hal
an akin
re is
re el
re tic
re living
re posting
re assured
re cycling
re tract
at lan
at io
er ik
en han
st awk
al lig
al lies
al lible
al arming
it as
it ating
is ition
or bit
le ction
le ggings
le viathan
ve led
be aver
be gged
of ar
ar cti
no ir
no bel
my jazz
lo b
el phia
for ge
ro ach
pe aked
gh andi
ac ing
ac tyl
de struct
he ir
he ming
do te
do cs
ab user
out casts
co c
ad mission
go p
un s
un know
un kind
if ier
su ave
am ine
am nesia
ne pt
ll s
ur ine
po tion
per cafe
ex ting
ex cep
end uring
con co
about s
ter rors
pre disposition
ell is
ul ly
qu en
te k
te tris
inf allible
ra chman
ta h
ta pes
ye vsky
la belling
art works
ag a
ven om
ven ues
ous al
sp lur
sp arse
ol ine
good y
lot ta
wo t
ast ray
ep ie
why s
tic ultural
im mo
over protective
dis may
dis jointed
fa wn
fa ked
fa hren
mb tis
cl an
off ices
pr ud
ph p
ph ic
gen dered
di pping
di epie
new com
mon ica
emo tive
ext js
after math
doesn x
oh my
inter vals
sm acking
ning sta
ste en
book marked
mis sy
mis spell
cent rist
col in
sc rolled
gn ar
mar ble
mar illion
show case
cor inth
gl anced
gl ued
pres suring
cal or
char med
char itable
ton in
nor ris
sub s
gre ys
adv ising
dr ones
fer re
du ke
sk ellie
fr itz
tru est
tru cks
ba i
plan ners
god father
god dammit
ped al
reg gae
home stuck
story telling
sul k
dra gs
gg ish
gg ie
mi ami
arch ery
cat tle
mist rust
must ang
sto op
war ren
ken ned
rep ti
super vision
super vise
sign atures
run escape
learn ers
lat ent
mother ly
pur ge
qui xo
mid term
moment ary
rest or
common alities
break able
brain washing
cry baby
spo ons
non verbal
appro ves
domin o
curious ly
phi lad
eat ers
bur ner
fil med
hit man
ju x
ched dar
orig ami
em blem
ref usal
cut er
19 60
19 91
fortun es
step mom
cir ca
scre amo
hot line
dead mau
ground ing
bar n
wal es
bel li
apo llo
produ ctions
14 2
14 8
fee ble
iv an
iv ory
ja z
pen ises
ris en
mad am
13 2
wast es
ani um
ki lo
bla zing
air y
impro bable
rational ized
deter ior
90 6
initi als
period ic
inse i
dan a
wing ed
sick ening
eth yle
bio medical
obser vers
table top
complex es
master minds
tre mbling
cree per
memor ial
dee ming
dun e
sn ort
terri fies
addic ts
shir ley
ml p
dig s
gri mm
gri eve
oper ator
symp athise
gradu ates
aud ible
complic ating
eff y
wind blown
habit ual
freed oms
ctr l
web page
sl acking
pi per
cro co
zo id
swi mm
45 5
card inal
lock er
ador ation
toler ating
shame lessly
jer king
bon kers
sna ils
border lands
ery ngo
ko ol
cam per
logist ical
exhaust s
confess ing
65 8
cling iness
broad en
neuro diverse
vac ill
38 6
tele pariah
compare s
gos ling
milit ant
pit t
pit falls
pal ms
fro gs
compar ative
dor o
plain ly
journal ing
hint ed
lam ar
48 2
econom ical
cost a
nit picking
hook ing
tattoo ed
puff s
lor de
mysterious ly
contain er
lun atic
superficial ity
shar per
bru ised
bru ises
hall s
emphas ized
err atic
inser ted
fran co
fran tic
remo val
aqu a
volunte ers
lou dest
arri ves
dict ated
manifest ing
sig mund
stalk ers
len ient
energ ize
gam ble
uri ous
bust ing
bis cuit
rum ors
illustr ates
sheep le
differenti ating
ove rex
exhibit ed
tin iest
gravit ated
restric tive
fare well
obje ctiv
glor ified
vag inas
rul ers
vine gar
mul ticultural
elimin ated
elimin ates
poly amorous
prop ably
diplo mat
schol ars
cine matic
demonstr ation
escap es
empir ically
martin i
fid gety
sophi a
slap stick
ena mored
implement ation
bullet in
lac to
mim icking
wire less
mentor s
magne ts
sloth s
bisexual ity
detective s
gras shopper
sav vy
mont ana
melt down
mole cular
orchest ral
chu bby
aven ue
homes ick
sab bath
elf en
anarch ism
scru ffy
marx ist
enh anced
rend ition
supr ise
strain s
improvis ation
roast ed
intoxic ating
interfe res
pacif ists
interven e
chim ing
rug by
captiv ated
syll ab
syll ables
melted sorbet
iceland ic
hoard ing
mina j
manufact uring
envi ado
gla zed
fud ge
fen cing
conqu ered
affili ation
jum bo
wrink les
administr ator
hambur gers
sensi bility
introspect ing
jit su
boast ing
squid ward
approx imate
pew diepie
croat ian
homic idal
puer to
rasp berry
overla pping
rubi k
burri to
cyan ide
egyp tian
flamboy ant
wate red
fanci ed
renow ned
idont thinkso
chro mo
diarr hea
baile y
colos sus
kaboom z
doppelg anger
lones ome
pif an
respir atory
grafic cha
grizz ly
cact us
alab ama
perspic acious
lakig igar
heming way
exting u
fahren heit
corinth ians
quixo te
philad elphia
ethyle ster
1 12
3 17
4 34
5 20
5 94
5 93
6 98
a ugh
a mos
a hahahah
b p
b lit
b ask
b romance
c ad
c ack
c ately
c nn
d row
d ane
e man
e ie
e vey
f es
f end
f ists
g c
g mail
j n
j ive
j offrey
k ab
k ri
k ite
k ak
k ris
l ama
l anter
m up
m its
m ated
m asking
n im
o to
o shi
o val
o graphy
p int
p ours
q ft
r w
r ó
r co
s list
t su
u an
w x
w ad
w am
w art
w ana
x ana
y h
z illa
z immer
т о
th ump
in wards
in xps
in voke
an nihil
re ction
re pression
re collection
re charging
on on
at eness
at amag
er ies
en act
en xx
st ed
st als
al to
al ber
al ia
to do
to days
to mi
me a
me in
me li
me ld
me ee
is u
or leans
le as
le bow
le cter
as ma
as imo
ar ach
so pp
so aking
so rely
ha st
ha voc
li rul
my personality
ch ery
ch oking
lo oooooooo
lo vin
ver a
el on
el ated
el bows
for gi
for wards
wi st
pe tri
pe tit
ac ha
mo e
mo lest
de fect
de construct
de fies
de gras
he ment
do ers
do sen
int rude
un ions
un done
un creative
un load
un locked
op rah
am mo
am put
ne ve
ur self
po i
po x
po ts
per use
per using
per verse
what sapp
can ned
can yon
all ison
don ation
don ating
tr in
tr icking
ca ves
ca ged
ant ine
ind a
ind uce
od le
od actyl
pre view
qu il
ok o
inf ra
inf requ
up graded
pro position
pro claim
ra g
ra ils
ye y
ci le
ci gs
la isse
bo ats
ss ri
ag ric
ven tion
ven til
vi p
vi vac
mu gs
ment ine
sp h
sp ying
sp rout
our an
pl in
come backs
ill iterate
even though
may nard
look out
ts un
life styles
jo jo
jo ints
under going
im mac
im itate
over done
over came
over heard
over active
over cast
ap rio
dis ser
dis closure
dis advantages
ice cream
ten acious
af ro
af ghan
year ly
man ne
man liness
gr un
gr ins
gr umble
gr ues
str ung
low ly
low ering
ah ha
real tion
ud i
pr inter
pr ude
des chanel
ang a
were wolf
gen ious
di pped
log in
fore cast
soci ability
best ies
mal le
min ist
part ed
clo th
inter face
inter sting
hard ened
ru mp
ru gged
two s
aren ce
cri ption
ste als
cep tor
cur ing
che ater
sc arily
vo wel
vo ters
mar tha
mar bles
mus ings
cra ves
ster ile
sing les
tri ads
cal ender
au bre
char s
char ms
exp ired
big stupid
sub limin
comm uting
gi o
hu me
hu gg
stuff ing
sur g
sur ge
hand written
cr ud
sy mmetry
fel ine
ny an
du ly
du blin
car ve
lic ation
fr ust
fr ances
lu cr
night club
face ted
cond ensed
app li
general ised
past el
hear ty
name less
sup pression
ome ga
cat ty
cat alo
mist ress
human ism
vis a
vis itors
rep licate
dist ances
run away
awesome ly
ram m
fall acious
lat vian
exc elled
lan thro
lar s
cle mentine
gra ff
ash ley
av ant
den o
den nis
ane an
cha ined
cha kra
pop ulations
eyes ight
bus sy
ins ofar
sil hou
hell s
hell sing
sty led
short cuts
hy bri
dic aprio
phi lanthro
crit is
knowled gable
ling o
death note
cru x
hair style
em powered
nature s
future s
blo ated
subject ed
12 7
12 8
natural ist
athe istic
concer to
hot spur
ben nett
hun ters
die ing
die ts
18 2
infer no
bat s
blue berries
star ring
star vation
star gazing
key words
zz led
youtu ber
stick er
water color
bot toms
round about
manipul ates
def intely
actual ize
13 4
stri ped
rock star
acc ross
box ers
critic ising
jump y
liber ties
fl ings
ali as
refer ing
safe st
viol ating
inv it
vision aries
observ ational
intellectual ism
stor my
intention ed
suspect s
john s
equ ating
team work
dig its
squ ash
bull s
unique ly
role play
animal istic
independ ant
jack pot
gun na
gover ning
aud ition
aud acity
introdu ctory
rich er
eff ic
excell ence
pi one
cand ies
45 6
ow fin
sam pling
span king
asser y
cross roads
pol ly
sna pple
arm chair
minor ing
minor ities
ambi valence
colour ful
sand box
belong ings
quot ations
pack aging
64 8
harmon ica
tum ble
vin ci
solid ly
98 6
flirt ation
dit zy
gas oline
melan ie
pra ising
mac book
scri bble
confront ations
coll ins
measure ments
rot ation
blah blah
copy right
clever ly
xst x
indust ries
kno b
mmmm mm
kar a
beach es
ec to
perform ers
disney land
thr ice
access ories
stimul ant
aaaaaaaa a
sin atra
miser ables
murder ous
discipl ines
cock roaches
vocal ize
possess ing
clock wise
hou ston
rein forced
bye vil
emer ged
peter son
bubble boy
energ izes
tick ling
evalu ated
fruit ful
categor ization
toxic ity
architect s
rum inate
illustr ated
illustr ator
roller coasters
station ary
myth busters
gil more
align s
align ments
wee zer
fright en
fright ens
bank er
strateg ically
geo graphic
aust ria
interpre ts
preach y
agend as
hee hee
intr usion
terror ism
tol sto
tooth brush
manual s
fid dle
tack y
tack ling
nove list
trag ically
befriend ing
smash ed
stun ted
adren al
civiliz ations
sketch book
glit ches
tent acles
mall s
boom ers
satan ic
awa its
smack s
cliff s
shin ji
amor al
monitor ing
educ ating
nab bit
dere k
ht p
pract ising
meg alo
monolo gues
slee per
raz are
ingen ious
gum my
negoti ation
brad y
stam ped
stink s
cram ps
fabric ated
rud imentary
perse us
recru iter
institution al
bicy cles
011 100
ffff ffff
demis e
discoura ging
jama ia
tao ism
fueled byevil
tid bit
crus ader
mour ning
inquir ing
revi val
quanti fiable
grit ty
preced ent
syll able
lind a
collabor ate
nause a
passen gers
nomin ate
plush witch
affirm ations
stero types
robb ins
renew ed
obedi ence
gren ade
hiber nate
diagram s
machiavellian ism
craig slist
promethe us
cleans ing
arte mis
cuck oo
mosqui toes
para more
apost ro
marshmal low
encompass ing
transc ends
discrepan cy
agor ap
dispen ser
definit ly
buffe t
entic ing
castr ation
majest ic
innu endo
diffren t
alzheim er
jani tor
rez nor
icarus dreams
panick ed
tiff any
hallucinogen s
kang aroo
infest ed
rebut tal
maneu ver
intertwin ed
viscer al
autonom ous
acco mo
bjor k
hinde red
wret ched
parach ute
mif fed
voo doo
endur ance
chak ras
plagi ar
synaes thesia
pter odactyl
stawk er
arcti ca
nept une
swimm ingly
chromo some
pifan jr
cately n
xana x
lebow ski
asimo v
lirul in
laisse z
grues ome
aubre y
bigstupid grin
2 15
3 20
3 100
3 75
4 18
6 80
7 70
7 62
8 70
b ould
b ant
b ino
c ortex
d ell
d iz
d led
d unk
e ̶
e books
e licit
f lit
g is
g ger
g aller
h l
h ust
j ong
j insei
k as
k art
k athy
k ka
k irk
l ma
m izz
n lp
p its
p ang
p iled
r ouse
s å
s ant
s ms
s lit
s cents
t was
t ark
t ines
u q
v ans
v ak
w d
w ages
w pm
x c
x e
y ip
z ol
z ack
z ep
th ar
th inner
in ers
in cur
in born
in valuable
in verted
in appropriately
in hale
in consequential
an to
an cer
re jo
re thinking
re vers
re aring
re building
re charged
re ich
the ses
at ch
er u
en abled
al way
al ya
al umin
to sh
to yed
to odles
is sion
is ites
se w
ve iled
be ams
wh aaa
es presso
no oooo
no bility
no stri
no tified
ha pha
li us
li lli
li ament
ti mer
lo be
lo de
lo bo
lo gos
ro z
ro set
wi ther
wi ck
pe a
pe ta
pe ars
pe ters
ic ia
ac ly
mo jo
mo ses
mo wing
de vis
de formed
de tox
de odor
he in
he ating
ab c
ab ound
ab undant
with stand
ri am
ad ro
int act
ent r
ent angle
un original
un intended
un satisfying
un sung
op press
am it
am ster
ho arders
ne mo
ll as
po thead
per t
use ly
ty rant
con stric
con tention
ca ved
ter se
ter dam
pre tense
qu ang
te y
te es
inf xs
oun i
oun der
ra ges
son y
son net
hi i
sa h
sa de
sa kes
la e
la ge
bo ts
friend ed
pp ings
mu mbling
sp ins
sp outing
il ty
ren ched
by es
com press
com rades
est rogen
will s
had es
wn y
ck led
her bert
ting ly
comp ile
need iness
need lessly
post al
im possibly
over react
over flowing
over stimulated
dis engage
ten nant
man g
man chester
where by
iz u
ig a
got terdam
ud ge
shi ver
pr off
des thro
back bone
bab ly
bab ble
di vin
should a
fore play
mon go
emo s
par amount
par liament
ff er
mal a
min ue
men ace
inter web
test icles
sm th
mm as
book ed
happen ings
stu art
che wed
imp rison
oo ops
ugh hh
sc rub
vo ter
mar ital
cons in
ni er
ni ke
hum bling
ath am
tri o
val ve
head lights
br aces
dep ra
sha ming
sha ky
char ger
sub culture
form ulated
comm ing
hu ggy
tur d
found ations
hand made
respon s
far ms
mil li
cr umbling
cu b
car b
mag ed
sk ittle
lu de
ire s
exam ined
night er
night clubs
bas il
ef femin
whole some
pat ting
pat ches
hear th
class ically
heal ers
sle a
met amor
gy ms
uni forms
war rants
war mest
grou ped
sho cks
super heroes
room ate
dou bly
20 20
develo pped
develo pers
oc cam
oc pd
lar a
cas ino
paren thood
small talk
small ville
prof usely
hal le
gra pp
gra il
fit z
commun ion
house wife
rest s
cry stals
ins in
top ia
power point
psycho active
da zed
phi ze
phi lli
phi lia
vir uses
vir gins
neg ate
black out
cru c
normal y
deb unked
que ue
sever ity
19 86
19 81
12 4
hind rance
cir cuits
15 00
teen y
mer ging
mer ung
analy sed
pain less
forget table
shed ding
slow ed
bel gian
tired ness
build ers
contin ual
14 4
stick ies
manipul ators
def tones
def enses
pas sages
potenti als
sal on
clean liness
ki ki
emb ark
fur thest
jun ct
compli ance
sky ler
rational ism
rational ization
consist ing
lon ge
ade le
mic key
ric ular
score rs
ban king
ban jo
viol ates
inv asive
hea ther
lay s
soft ness
soft ball
abor tions
mum my
selfish ly
path ways
moon ious
weight ed
gri ev
nah h
mou stache
auto correct
internal izing
counter intuitive
hhhh hhh
contr arian
wis est
wis consin
zo v
numb ness
mur ky
trick ed
rup t
mechan ically
gather s
syn th
tran si
convin ces
sand y
broad way
legal ize
legal ization
cheese burger
former ly
ji u
uuuu uu
nel son
reli ably
han ks
cris py
dit ched
suppor ters
alien ating
forth right
forth coming
screen play
pal ace
pal ah
pal ette
mac aron
congrat z
congrat ulate
dor ms
sea food
reson ance
veget arians
coll ages
coll ision
innocent ly
hook up
ham mered
occup ying
pup pets
alpha be
thr ought
thr ash
fed ora
sugar coat
flash back
flash backs
44 2
sensit ivities
cock tails
aqu aint
satur ated
68 2
vocal ist
ssss s
bond ed
lou ise
linked in
pee ved
mistaken for
hypothe ses
hypothe size
numer ical
lolo lolol
emer ging
destroy er
retard ation
thrill ers
thom son
slip pers
shock er
encounter ing
cit ation
select ing
afford able
sooooo oo
gil bert
conspir acies
differenti ation
investig ative
billion aire
plu gged
doo ms
distingu ished
scorp ion
vio lets
audio books
reput able
beard ed
rrrr rr
supervis ors
pix ies
iam tp
ido ls
thunder storm
tol le
scan ned
buzz feed
roy ale
pff ff
shu ffle
grat ifying
fart ing
depri ve
hunch back
promp ts
divid es
extr acur
jar gon
alcoholic s
converse ly
kim i
metr ical
craf ted
sympath ies
flav ours
wrest le
shocking ly
stan ford
scand al
modif ication
defe ats
loc ally
misanthro py
ineff iciency
bol locks
render ing
stag nation
behold er
asu ita
priorit izing
presu med
antagon ize
humili ate
humili ated
distress ing
curl s
sadd ened
ela ide
wu thering
cass andra
marsh mellow
horiz ons
aspir ation
envision ed
torment ing
detri ment
confid ed
arc light
dod ging
magnet ism
looo ve
perplex ing
vigil ante
romantici ze
murdere rs
dough nuts
perpetu ating
fleet wood
multit ask
susp ension
bind ing
slu ggish
sprink les
nomin ated
leisure ly
dosto yevsky
cater pillar
manufact ure
workaholic s
handic ap
penetr ating
amaze ment
eras er
humid ity
adverse affects
disc world
fag got
accompany ing
brace lets
sapp hire
deceive d
microman age
galac tic
mesmer izing
dag gers
abbrevi ations
sitcom s
facilit ate
cyc led
marshmal lows
strand ed
freind s
beet le
pharmac ist
mort gage
envelo pe
occass ionally
masquer ade
nonchal ant
nico loco
astronom er
sero tonin
paraphra se
proje ctor
01110 100
bick ering
impecc able
flipp ant
machin ery
chihuahu a
telepath ic
eigh th
surviv ors
diabo lical
cthul hu
syner gy
peaco ck
deut sch
infanti le
pharmace utical
rur ouni
atlan tic
jux ta
windblown hair
atamag asuita
alber ta
mea dow
neve rending
lucr ative
ramm stein
hybri ds
tolsto y
hapha zard
deodor ant
amster dam
extracur ricular
2 19
2 18
2 80
3 99
3 85
4 30
4 16
4 60
5 45
6 37
7 22
8 10
8 34
9 17
9 85
b g
b bly
b eng
b und
b lasted
c ay
c reme
c iting
d wi
d art
e the
e van
e mailed
f um
f tly
f aye
g lean
h q
h ir
i ms
i que
j p
j ing
j cal
j acqu
k t
k its
k age
k awa
l n
l r
l ans
l ene
l ala
m h
m ab
n id
n sa
o so
o vo
p ss
p loy
p ounce
q ing
r ue
s lander
t ess
t sub
t xt
u i
u ch
u ation
v acc
v ista
w ud
z um
z ap
´ ¯
ç ais
̶ e̶
th al
th and
in spect
in case
in accuracy
in compatibility
in conspic
an za
re ma
re ap
re tiring
re deem
re servation
re stored
ou i
ou p
ou x
on set
the ological
er in
en p
en forced
en raged
st atham
to ad
to pped
to tem
to toro
it an
it ty
me z
me so
or deal
le ster
le aked
ve ctor
ve hement
be ca
be couse
as ocial
as shat
ar sed
no ot
so mal
so mone
li lith
ti pped
lo gue
for ks
for gave
ro p
ro ose
ro okie
ic ular
mo logy
de human
de fiance
ab by
out ings
out looks
out loud
ad versity
ad elaide
un question
un born
un dead
un ending
un safe
un focused
un lock
un ified
un diagnosed
un covered
un wavering
am ish
ho d
ho ma
ho sts
ho ka
ne ct
ne phe
ne ander
ink y
ce me
ce ased
ce lib
end angered
can ce
con quest
con tend
con cess
tr unk
si mm
ca ster
any ones
way yyy
sh on
sh alt
sh rek
time dia
od dest
ell s
te re
te yes
up wards
up hill
gu d
gu i
pro spective
ra j
ta j
son ata
there x
hi ma
hi gur
sa far
ci ence
la ught
ag encies
ag ape
ps ism
person nel
vi ktor
mu th
sp li
ren tal
by stand
com men
good byes
will is
red dish
under s
under achiever
post modern
im balanced
over use
right fully
ten th
thought less
man e
iz ers
gr ano
cl oning
ig en
ig ning
ever lasting
ser pent
sen pai
des pic
ph ant
ang led
back ward
di mp
di ame
log s
mon s
mon roe
led ger
relation al
mat ilda
probab ilities
let t
tive s
par rots
won ky
min ors
inter state
inter section
hard wired
ru be
je m
list ra
ste ering
entp ish
entp ness
cur sor
cur tis
book shelves
mis matched
che wy
imp art
imp ris
dre ary
sc our
mar gar
ni les
ni uk
sing led
old ies
cor relating
gl en
gl and
gl ancing
head space
br us
tra vis
au burn
mor tified
sub stit
hu ck
tur ner
sur faces
introver ting
wa i
wa de
wa aaaa
cu le
cu shion
light ening
fer o
ger d
ger ard
pa thetically
car pe
car ving
car ved
car los
lic at
rain es
lu ffy
bor ne
bas sist
change able
app end
app art
view ers
general ities
add itions
10 10
past ry
god zilla
ced es
cool ness
character istically
pri mus
hear tily
sup posing
mi lo
mi ka
ama zov
hey a
course work
lea gues
sci ento
rep ay
rep el
rep lica
aa and
mit t
spec s
lan es
boy ish
together s
ding er
prof anity
ked i
hor ns
house mates
house wives
cha st
sco ts
introverted ness
sou led
domin ion
fac tions
fac ilities
dy sp
full ness
tit ans
ze us
hell ish
short cut
bri be
bal m
vir al
black berry
bur gh
bur gun
fil ing
event ful
touch é
ju lie
fli ppin
sun sets
leg ion
19 85
por ridge
comput ational
begin ing
check out
smo other
hind ers
cir cling
scre ening
fan ciful
special ization
bar bies
ball park
11 3
11 10
smart phones
py ro
photo genic
star ved
xx xj
xx fx
def l
trans mission
ris er
mad onna
ani mosity
sal ads
stri ver
stri ps
helpful ness
air ports
emb ro
rock ies
anti qu
inse parable
stat ues
aaaa and
ix fps
25 5
ky uu
sof tie
lone liest
valid ates
arr r
sour ced
pan cake
ker ik
60 2
suck ers
tre on
tre sp
ense mble
bum s
ml k
thro ats
ron nie
gri mes
waste ful
mut ation
basic ly
neutral ity
pun ny
onto logical
vic ar
auto mat
dar ity
weren t
jack ie
gun dam
mark ers
gar ner
nut ri
diagno ses
nervous ly
sch u
habit at
93 5
sl ouch
sl uts
chur chill
flat s
zo sio
swi ftly
chill in
progre sses
challen ger
85 4
nu ll
cud i
blind s
blind ness
brow sed
recor der
soli psism
soli darity
syn thesis
boo sting
crack er
techno logies
sand ra
hyper activity
65 5
polar izing
thri ves
laid back
lur kers
hon ia
typo logies
harsh er
bub bling
intern ships
capital ization
hip po
pra ises
alien ation
symbo lizes
punch line
spring steen
subtle ties
sla ught
glo om
bil lie
mission ary
plat y
rd j
embarrass ingly
kar amazov
lee way
finger tips
37 9
hall ways
soo thes
frame works
cket t
phe us
robo tics
fran çais
jam ming
contrast s
bene fic
absur dist
58 6
histor ian
north west
cel ery
fond ly
rab ies
liz ards
pee king
blank ly
bomb ing
sno bs
absurd ly
mass acre
interrup tion
youth ful
tick lish
rey nold
dys function
command s
hospital ity
gross ly
cheat ers
mari ah
shout ed
grud ging
myst ik
ove reat
clum siness
keen ly
persu aded
strateg ists
indu ction
devi ation
recipro cal
gravit ational
restric tion
foo ted
mul holland
mul timedia
galax ies
diplo macy
reluct ance
fired ell
brutal ity
squir m
lex i
detect ed
kay ness
sta kes
swo llen
lime light
poop ing
demean our
scholar ly
sedu ced
corre ctions
flor al
violet ta
wrest ler
mock ery
kan ji
icon oc
dial og
patron ising
bron ze
region al
helpless ness
eup he
ea ves
bol ts
perci ever
estim ates
craz ier
priest s
conduct ing
rec ite
rec comend
presu ming
executive s
sab er
carol ina
distrust ful
buff alo
blink ing
thie ves
millenni um
analog ous
moth s
disrup tive
mich io
eno te
ginger tonic
strengthen ing
hash ing
syl vania
bap tized
fand oms
cultiv ated
zzzz zzzz
protector s
metro id
ceremon ies
navig ation
din ners
tid bits
synony m
diff use
constitution al
clust ers
looo ong
vanes sa
matthe ws
mig raines
shred s
reminis cing
stif led
promiscu ity
dilig ence
resid ual
plush ies
bigo ts
shan non
correspond ence
misogyn ist
brook lyn
wren ching
10000 1
revis ing
gorilla z
fuzz ies
involunt arily
theo dore
cluster fuck
mck enna
swa pped
dile mmas
scold ed
sapi ens
bombard ed
ike a
rea per
scu ba
brac kets
slaughter house
dand e
colli de
volta ire
snick er
prerequ isite
kom men
confl ating
madd ening
slog an
snoo ze
snugg ly
sabota ging
infect ed
meand ering
serge ant
turk ish
claustro phobic
acceler ated
tyran ny
britt any
pak istan
amid st
prodig y
ephe mer
ultimat um
conject ure
crad le
buu ut
waif u
stilet to
seiz ure
guin ness
proli fic
tup ac
inadequ acy
leic treon
abom ination
carri age
miche al
errone ous
enorm ously
reis iger
belli ge
immac ulate
afghan istan
malle able
graff iti
invit ations
galler ies
gotterdam merung
maged don
effemin ate
metamor pho
longe vity
palah niuk
macaron i
dooms day
nephe ws
higur ashi
safar i
despic able
reynold s
2 60
2 97
3 40
3 45
4 000
5 48
6 60
6 94
6 97
7 93
7 64
8 30
8 26
9 70
a fri
a ways
b uses
b izz
b affle
c ic
c happ
c enti
d t
d ill
d ud
d ared
e hehe
e harmony
e listra
f h
f one
f able
f actually
g gh
g ambit
h g
h url
h rr
h mph
i om
i tos
k ru
k ram
l t
l of
l ue
l ending
l ends
m ne
m ong
n ated
n cis
o zzy
p wn
r hi
r ised
r ital
s g
s as
s not
s lot
s wat
s ling
t reading
t shirts
t ounge
t ldr
v ant
v ish
v atic
w k
w t
x avi
x eno
y app
z c
z any
z ies
ó n
th t
th ic
in ve
in ver
in love
in jection
in convenience
an che
re start
re watch
re productive
re actor
re sorted
re agan
re fining
re solute
on ward
at su
at ari
er agon
en ps
en dow
en abling
st el
st elli
al lie
al icia
to te
to logy
to yo
to pless
me mp
me eeee
me eee
is le
is si
or ch
or nam
and ers
se pt
se gregation
ly k
le ys
le ela
be the
ar ial
es l
so ve
so cal
so bs
ha g
ed s
li za
ti zing
ch io
lo led
ver ifiable
el lip
ke ith
ro aring
wi er
wi ster
wi eld
wi cker
ic onic
ac us
mo mo
de z
de en
de fer
de ities
de vious
de bussy
he red
but s
but ters
ab ad
ab ys
ab ili
ab iding
out liers
co il
ri gh
ri ps
ri val
ri ka
ad y
ad her
int est
go go
go han
go lly
un re
un welcome
un married
un founded
un predictability
we h
we y
not re
am ity
am ass
ho se
ho ot
ho lla
ne v
id ed
id ious
id gaf
ink ill
ll ama
ir ation
po m
po si
po la
po odle
ce li
ce ment
per u
per ish
ex o
ex ile
ex empt
end ale
all ways
all ure
all right
ma k
ma is
ma el
ma her
ma pped
ma pping
don g
ty r
con fines
tr amp
si mba
ant arctica
sh uman
ate e
wor sen
ter ra
how ling
pre valence
pre lude
us able
qu ing
qu ino
mp tu
more s
ok s
ok er
te les
inf ants
inf ancy
gu ms
pro pri
pro create
ra ind
ra pes
ta med
ta ped
hi ght
read able
ci o
bo op
ps alm
friend lier
vi val
sp un
our self
well ing
ren ting
by pass
com ma
day um
lot us
ree e
her man
fo am
fo il
ep ile
comp rised
jo shu
under world
under tone
under achieving
post pon
im possibility
dis mant
fi est
ten ess
year book
fj an
fir sth
cl assed
cl eric
ple ad
str at
wr acking
real ll
shi pp
less en
ang rily
mind lessly
na pole
gen ere
di ane
personal ty
ass ic
mon stro
soci ological
care givers
ext ps
ff x
won do
won ka
min chin
enfp leas
play in
clo ths
ga there
inter acts
reme ber
cri ptions
school er
bad gers
gener ational
cur ses
book ish
mis si
mis construed
imp air
imp ala
col dest
sc ha
sc orn
watch er
personality page
old ie
cor k
au f
dep lo
sha k
sha med
char mer
big grin
sub ver
sub lime
gi ance
sur pass
male vol
zy n
dr aco
cr ises
cu is
cu bes
ny x
fer al
sex iness
pa x
pa inkill
car rier
lu is
tor till
ba ha
cou gar
cre pes
general ising
ian a
past ing
fre es
hear teyes
class ifications
home coming
sad ism
ome try
cat walk
second hand
har lem
heart warming
room ie
sign ifies
ram say
ram page
emp tive
hour glass
lat ch
velo city
pur port
hor de
av ar
rest raining
ane ur
cha plin
brain er
ars is
appro ving
full er
da is
gin ny
neg ation
anim ations
inc ite
fil ming
ju do
ju ri
ideal ization
mas sages
process or
sun k
sun bathing
kit a
blo b
30 5
pay day
19 88
19 82
finish es
stress ors
mood iness
land marks
soul ful
os ama
mer ciful
bar ber
analy tics
ben ny
ben net
slow s
skill z
water falls
twi r
92 2
trans sexual
trans fusion
pen nies
lad ders
voice mail
tho logy
ado res
pas sport
stri de
bla ze
bla zer
fur n
impro mptu
explo sives
force fully
fire fighter
fla unt
dan cy
eth os
commit tal
hol m
baby sitting
ric o
fl inch
paint ball
table ts
pan ther
40 2
bud ding
master pieces
gro an
meth y
cree k
season ed
lay ered
terri fy
stor ing
famili al
surround s
sli ck
opportun istic
ron ald
objective s
bull do
bull crap
reaction ary
predic tive
kick ass
dar ned
jack s
jack man
chick y
gover nor
wood work
club house
graph ically
gent ler
fash ions
acqu isition
chocol at
cro tch
fra gments
invest ments
mur dock
medit ations
medit ative
card igan
ana me
lap tops
bold ness
nu ke
nu bb
toler ated
cross fit
loop y
tar gary
arm ies
rat ors
occur ing
hung arian
ko vich
syn ap
ambi en
cam bridge
sw agger
deli vers
deli lah
colour ing
contradic ted
compat i
ske w
ske le
fest ive
neuro logist
dick head
dick inson
kis ser
proof reading
capital ize
nel ly
condition er
attend ance
radio active
stubborn ly
bill ing
compar atively
dor a
dor itos
brit an
cop ious
bun dy
reci eved
host el
host ess
competitive ly
feat ured
ham sters
sim ulate
swee ter
images hack
lee ch
47 7
spread sheet
thr all
aaaaaaaa aaaa
flash ing
44 4
yyyy y
chuck les
russi ans
hesit ated
murder ing
channel ing
pee ing
grandmother s
offend ers
rein car
meaningless ness
oblivious ness
stumble upon
kat ie
interrup ts
energ izing
stain s
compreh ending
spa z
categor ical
jan go
dang an
fif a
decl ined
decl ining
corn ell
illustr ations
minimal istic
commer ce
straightforward ness
mile age
investig ated
investig ator
pound ing
bank rupt
pump ing
53 00
diction aries
audi ences
az ar
rigid ity
yu gi
restric ting
kk k
nag ato
elder s
mold ed
acknowled ges
lef tist
dur den
rof lmao
demonstr ative
sustain ing
sustain ed
condu ctor
anthropo mor
bash ed
craving s
goddamn it
restless ness
distinguish es
shapes hif
resc uing
boom er
sedu cing
lux urious
buddhi sts
arbitr arily
awa it
rhyth ms
dia be
kee pers
polish ed
eag les
pear ls
rob bed
spill s
spiral ing
unconventional ity
intru der
jet plane
inhibit ion
resur rection
jewel s
defic ient
craz ily
embar ass
jav ascri
seren di
negoti ator
shrink ing
maniac al
brad ley
synes the
whine y
cram ped
worm hole
marx ism
fluctu ating
fluctu ates
inquis ition
decre ased
conceal ing
striking ly
alleg ory
accus ation
lau rel
seal ed
adri an
scrip ted
fountain head
tid iness
outdoor sy
crus ades
debat ers
decipher ing
shud ders
skull s
uc cino
alle giance
rio ts
sque al
sculp ting
captiv ating
towel s
shred ded
spr ite
pton ia
stif le
collabor ation
consol ing
shing eki
umi ya
ancest ry
denom inator
multip ly
eyel ashes
irre fut
quirk iness
cumber batch
krist en
rh ino
moist uri
atro cities
forens ics
meticulous ly
paras ites
karen ina
psychotherap ist
vap id
wag ner
aca use
caust ic
preva ils
carni val
inexplic ably
hambur ger
sensi bilities
swa pping
rehear se
mosqui to
gly phs
nomad leviathan
boob ies
embod ied
lv l
fos sil
penn sylvania
exasper ated
tomb stone
suz umiya
cly me
paw s
hath away
prerequ isites
cohes ive
dispos al
dispos able
jb king
jur assic
qua kes
bucke ye
salv ador
flan nel
spart an
shr oud
redis covered
pne umo
rais ins
personnal ity
legis lation
stad ium
cros sover
mudd led
oldman rivers
superst ition
receip t
tand em
zapp a
indescri bable
blosso ms
eradic ate
hab bit
declar ation
feist y
paleonto logist
symbio tic
daph ne
collo qui
fragr ance
accommod ation
unknow able
splur ge
calor ie
repti lian
doro thy
lacto se
ró s
infra structure
tsun ami
divin ity
skittle s
insin cerity
transi ent
mistakenfor stranger
dwi ght
hoka hey
ceme tery
cance led
grano la
fero cious
burgun dy
abys mal
adher ing
firsth and
enfpleas antly
3 12
3 18
3 94
3 23
4 24
4 75
5 18
5 17
5 99
5 66
5 68
6 14
6 17
6 33
6 23
7 15
7 80
8 66
a methy
b w
b alk
b bs
b ryan
c n
c z
c ally
c pt
d alien
e in
e ah
e mm
e book
e mit
f ma
g our
h anger
h indi
h ira
i u
i y
i love
i js
j el
k ie
k ath
k ire
k fc
l ary
l ative
l inder
m z
m hmm
n m
n us
n acle
o op
o wing
p f
p one
p id
p sist
p ina
p js
r t
s inful
s asha
t n
t out
t ty
t ate
t rom
t tle
t ler
t ng
u gl
v and
v un
w ri
w ulf
y ak
y ards
y asha
п о
in just
in js
in carnation
an try
re ser
re au
re pu
re called
re cei
re cti
re boot
at tends
er b
er ud
en y
en cap
en ko
en forcing
en suring
en voy
st int
st ash
st unt
st ung
st oked
al mon
al phas
to mm
it ic
it ching
me mento
or son
or tho
se als
se ams
le mm
ve x
be ckett
be acause
ar ose
wh op
wh am
wh ales
no v
no mer
no oooooo
so dy
ed d
ed mon
li lly
ti mo
ti ze
my op
ch un
ch illy
lo k
lo qu
lo ons
el in
el astic
ke red
ro i
ro cked
ro bes
ro chester
wi den
wi ring
pe ice
pe gs
pe stering
ac ro
de y
de ff
de ism
de tro
de activated
de activate
de mented
do sage
ally rah
ab ort
ab users
co op
co bal
co cks
co ined
co ded
with holding
ri ff
ri vals
ad ers
ad jac
int ents
go mez
un no
un concerned
un inspired
un planned
un surprisingly
un touched
un invited
un informed
un trustworthy
un titled
un ico
un explainable
un forgi
we i
su fjan
ho led
ho lier
ho ops
ust ra
ther mal
ur u
ur as
po tle
ce os
per ing
per il
per fer
ex ple
ex ited
what cha
all ah
ma ug
con do
con si
con ferences
con fet
con strained
si ber
si bly
si mmer
ant sy
ind ist
sh ite
they x
get ter
pre fix
pre stig
pre occupation
see thing
qu ill
qu ora
mp ing
ok la
ok ov
inf s
inf lam
gu ire
pro cli
pro testing
ta k
son ny
there in
there sa
sel s
ye ast
sa ver
ci pat
la va
bo i
bo wel
bo ister
bo gus
bo mbed
fri gid
ps st
der py
ess entials
ard ent
mu h
ong ous
sp ino
too oo
il is
pl er
com mod
ine bri
will fully
had nt
red un
wo wo
wo oooo
fo y
fo et
may or
may hem
ry u
ry der
ast ed
ms ky
ts undere
cho msky
jo cks
infj enn
spe wing
under cover
under weight
under dogs
under tones
post pone
im ony
over ride
over represented
over simplified
dis k
dis pose
dis ciple
fa erie
gr aces
cl as
ig gy
off ender
str ick
ud a
ud en
shi ro
ser alya
less ness
pr ou
sen iors
back fired
na o
di bs
di agon
start ling
new b
new born
new mango
mon days
question aire
let ons
om inous
om ission
defin atly
men s
bl ends
little dreamer
play book
pos se
ga de
world views
better ing
give away
sm i
sm ur
tend ancy
mis reading
mis place
mis nomer
che es
imp ene
bu li
bu ggy
00 7
gn ant
vo w
joy ce
ni ble
ni pple
hum ongous
cra ved
cra ze
head line
tra itor
au gment
isn x
sha i
ute ly
spon sor
wel ll
wel ding
nice ties
sub text
sub reddit
music bird
comm as
comm its
hu zz
gre ase
sur passed
hand shakes
bro om
wa ay
pu bs
fav oured
cr at
ned er
cu bus
ger ms
pa jama
mag gie
sk ys
lu sh
ba bes
cre amer
general isations
fre est
colle ctions
home schooling
dra per
sup per
mi me
dri vel
cat acly
lea king
health iness
ken ya
sho ving
super human
bed side
run g
song writing
xd dddd
gra phe
appe arence
commun ists
eng ul
ial ity
den sity
cha mo
num bed
sco w
dark side
inform ations
sou theast
roman ian
temp t
sil marillion
ze bra
gon ometry
present able
power shell
bri gg
bal listic
deta iling
liter ate
res cent
res ides
draw back
draw backs
mas se
link zelda
normal ity
hair dresser
sun dae
deb bie
em t
stra pped
cold ly
organ isms
19 20
19 71
50 2
wink ing
trouble shooting
grad er
land o
fy odor
16 4
16 8
15 2
treat ments
bar num
bar rage
sid ing
sid enote
cla ud
cla pping
wal d
hun ts
text ures
sweet ish
bat tered
star ship
key boards
argument ation
zz i
stick ers
water colour
uu ut
ja e
def ying
tho reau
blu ep
wast eland
mess iness
sal vage
sal inger
stri pped
grand e
flow ery
cof fe
air head
[...]
