{"<s>":0,"<pad>":1,"</s>":2,"<unk>":3,"<mask>":4,"!":5,"\"":6,"#":7,"$":8,"%":9,"&":10,"'":11,"(":12,")":13,"*":14,"+":15,",":16,"-":17,".":18,"/":19,"0":20,"1":21,"2":22,"3":23,"4":24,"5":25,"6":26,"7":27,"8":28,"9":29,":":30,";":31,"<":32,"=":33,">":34,"?":35,"@":36,"A":37,"B":38,"C":39,"D":40,"E":41,"F":42,"G":43,"H":44,"I":45,"J":46,"K":47,"L":48,"M":49,"N":50,"O":51,"P":52,"Q":53,"R":54,"S":55,"T":56,"U":57,"V":58,"W":59,"X":60,"Y":61,"Z":62,"[":63,"\\":64,"]":65,"^":66,"_":67,"`":68,"a":69,"b":70,"c":71,"d":72,"e":73,"f":74,"g":75,"h":76,"i":77,"j":78,"k":79,"l":80,"m":81,"n":82,"o":83,"p":84,"q":85,"r":86,"s":87,"t":88,"u":89,"v":90,"w":91,"x":92,"y":93,"z":94,"{":95,"|":96,"}":97,"~":98,"¡":99,"¢":100,"£":101,"¤":102,"¥":103,"¦":104,"§":105,"¨":106,"©":107,"ª":108,"«":109,"¬":110,"®":111,"¯":112,"°":113,"±":114,"²":115,"³":116,"´":117,"µ":118,"¶":119,"·":120,"¸":121,"¹":122,"º":123,"»":124,"¼":125,"½":126,"¾":127,"¿":128,"À":129,"Á":130,"Â":131,"Ã":132,"Ä":133,"Å":134,"Æ":135,"Ç":136,"È":137,"É":138,"Ê":139,"Ë":140,"Ì":141,"Í":142,"Î":143,"Ï":144,"Ð":145,"Ñ":146,"Ò":147,"Ó":148,"Ô":149,"Õ":150,"Ö":151,"×":152,"Ø":153,"Ù":154,"Ú":155,"Û":156,"Ü":157,"Ý":158,"Þ":159,"ß":160,"à":161,"á":162,"â":163,"ã":164,"ä":165,"å":166,"æ":167,"ç":168,"è":169,"é":170,"ê":171,"ë":172,"ì":173,"í":174,"î":175,"ï":176,"ð":177,"ñ":178,"ò":179,"ó":180,"ô":181,"õ":182,"ö":183,"÷":184,"ø":185,"ù":186,"ú":187,"û":188,"ü":189,"ý":190,"þ":191,"ÿ":192,"Ā":193,"ā":194,"Ă":195,"ă":196,"Ą":197,"ą":198,"Ć":199,"ć":200,"Ĉ":201,"ĉ":202,"Ċ":203,"ċ":204,"Č":205,"č":206,"Ď":207,"ď":208,"Đ":209,"đ":210,"Ē":211,"ē":212,"Ĕ":213,"ĕ":214,"Ė":215,"ė":216,"Ę":217,"ę":218,"Ě":219,"ě":220,"Ĝ":221,"ĝ":222,"Ğ":223,"ğ":224,"Ġ":225,"ġ":226,"Ģ":227,"ģ":228,"Ĥ":229,"ĥ":230,"Ħ":231,"ħ":232,"Ĩ":233,"ĩ":234,"Ī":235,"ī":236,"Ĭ":237,"ĭ":238,"Į":239,"į":240,"İ":241,"ı":242,"Ĳ":243,"ĳ":244,"Ĵ":245,"ĵ":246,"Ķ":247,"ķ":248,"ĸ":249,"Ĺ":250,"ĺ":251,"Ļ":252,"ļ":253,"Ľ":254,"ľ":255,"Ŀ":256,"ŀ":257,"Ł":258,"ł":259,"Ń":260,"ń":261,"ō":262,"ŏ":263,"ő":264,"œ":265,"ś":266,"š":267,"ū":268,"ż":269,"ư":270,"ǝ":271,"ɐ":272,"ɔ":273,"ə":274,"ɛ":275,"ɟ":276,"ɥ":277,"ɪ":278,"ɯ":279,"ɹ":280,"ʇ":281,"ʊ":282,"ʌ":283,"ʍ":284,"ʎ":285,"ʒ":286,"ʖ":287,"ʘ":288,"˂":289,"˃":290,"ˆ":291,"ˈ":292,"ˌ":293,"ː":294,"˘":295,"˙":296,"˚":297,"˝":298,"˶":299,"̀":300,"́":301,"̂":302,"̃":303,"̄":304,"̆":305,"̇":306,"̈":307,"̉":308,"̌":309,"̎":310,"̐":311,"̑":312,"̒":313,"̓":314,"̔":315,"̕":316,"̖":317,"̗":318,"̘":319,"̙":320,"̚":321,"̛":322,"̜":323,"̝":324,"̞":325,"̟":326,"̠":327,"̡":328,"̢":329,"̣":330,"̤":331,"̥":332,"̦":333,"̧":334,"̨":335,"̩":336,"̪":337,"̫":338,"̬":339,"̯":340,"̰":341,"̳":342,"̴":343,"̶":344,"̸":345,"̹":346,"̺":347,"̻":348,"̼":349,"̽":350,"̾":351,"́":352,"̓":353,"ͅ":354,"͇":355,"͈":356,"͉":357,"͊":358,"͍":359,"͎":360,"͏":361,"͑":362,"͒":363,"͓":364,"͔":365,"͕":366,"͖":367,"͘":368,"͙":369,"͚":370,"͛":371,"͜":372,"͝":373,"͞":374,"͟":375,"͡":376,"͢":377,"ͣ":378,"ͤ":379,"ͥ":380,"ͦ":381,"ͧ":382,"ͨ":383,"ͩ":384,"ͫ":385,"ͭ":386,"ͮ":387,"ά":388,"έ":389,"ή":390,"ί":391,"α":392,"β":393,"γ":394,"δ":395,"ε":396,"η":397,"θ":398,"ι":399,"κ":400,"λ":401,"μ":402,"ν":403,"ξ":404,"ο":405,"π":406,"ρ":407,"ς":408,"σ":409,"τ":410,"υ":411,"φ":412,"ψ":413,"ω":414,"ό":415,"ύ":416,"ώ":417,"а":418,"б":419,"в":420,"г":421,"д":422,"е":423,"ж":424,"з":425,"и":426,"й":427,"к":428,"л":429,"м":430,"н":431,"о":432,"п":433,"р":434,"с":435,"т":436,"у":437,"ф":438,"х":439,"ц":440,"ч":441,"ш":442,"щ":443,"ъ":444,"ы":445,"ь":446,"э":447,"ю":448,"я":449,"ћ":450,"ќ":451,"҉":452,"א":453,"ב":454,"ג":455,"ד":456,"ה":457,"ו":458,"ז":459,"ח":460,"י":461,"ך":462,"ל":463,"ם":464,"מ":465,"ן":466,"נ":467,"ס":468,"ע":469,"פ":470,"ץ":471,"ר":472,"ש":473,"ת":474,"،":475,"؟":476,"أ":477,"ا":478,"ب":479,"ة":480,"ت":481,"ث":482,"ج":483,"ح":484,"د":485,"ر":486,"ز":487,"س":488,"ش":489,"ظ":490,"ع":491,"غ":492,"ف":493,"ق":494,"ك":495,"ل":496,"م":497,"ن":498,"ه":499,"و":500,"ي":501,"٩":502,"ک":503,"گ":504,"ی":505,"۶":506,"ः":507,"त":508,"म":509,"र":510,"ि":511,"ू":512,"्":513,"ஐ":514,"ಠ":515,"ಡ":516,"ಥ":517,"ರ":518,"ೃ":519,"ฅ":520,"ง":521,"็":522,"๑":523,"ຈ":524,"༼":525,"༽":526,"ლ":527,"ღ":528,"ᆺ":529,"፦":530,"ᴗ":531,"ở":532,"ἓ":533,"ἔ":534,"ἶ":535,"ὅ":536,"ὐ":537,"ὲ":538,"–":539,"—":540,"―":541,"‘":542,"’":543,"‚":544,"“":545,"”":546,"„":547,"†":548,"•":549,"…":550,"′":551,"‽":552,"‿":553,"⁎":554,"₪":555,"€":556,"™":557,"↑":558,"→":559,"↔":560,"⇑":561,"⇩":562,"∀":563,"∇":564,"∈":565,"∑":566,"−":567,"∙":568,"√":569,"∞":570,"≈":571,"≠":572,"≡":573,"≥":574,"≦":575,"≧":576,"⊃":577,"⊙":578,"⋆":579,"⌒":580,"⌣":581,"─":582,"━":583,"┌":584,"┐":585,"┬":586,"┻":587,"╥":588,"╬":589,"╭":590,"╮":591,"╯":592,"■":593,"□":594,"▬":595,"△":596,"▽":597,"◇":598,"◉":599,"●":600,"◔":601,"◕":602,"◠":603,"◡":604,"☂":605,"★":606,"☆":607,"☺":608,"☼":609,"♉":610,"♡":611,"♢":612,"♤":613,"♥":614,"♧":615,"♪":616,"♫":617,"♬":618,"✌":619,"✍":620,"✓":621,"✔":622,"✝":623,"✧":624,"✨":625,"✿":626,"❤":627,"⸮":628,"、":629,"。":630,"あ":631,"い":632,"う":633,"え":634,"お":635,"か":636,"が":637,"き":638,"ぎ":639,"く":640,"こ":641,"さ":642,"ざ":643,"し":644,"じ":645,"す":646,"せ":647,"ぜ":648,"そ":649,"た":650,"ち":651,"っ":652,"つ":653,"づ":654,"て":655,"で":656,"と":657,"な":658,"に":659,"ね":660,"の":661,"は":662,"へ":663,"ま":664,"め":665,"も":666,"ゃ":667,"や":668,"ょ":669,"よ":670,"ら":671,"り":672,"る":673,"ろ":674,"わ":675,"を":676,"ん":677,"゜":678,"ア":679,"イ":680,"ク":681,"サ":682,"ジ":683,"タ":684,"ッ":685,"ツ":686,"ト":687,"ニ":688,"ノ":689,"ミ":690,"メ":691,"モ":692,"ュ":693,"ラ":694,"レ":695,"ヮ":696,"ワ":697,"ン":698,"・":699,"ー":700,"ヽ":701,"ヾ":702,"ㅿ":703,"一":704,"上":705,"不":706,"中":707,"之":708,"习":709,"事":710,"二":711,"人":712,"仙":713,"会":714,"但":715,"你":716,"便":717,"像":718,"光":719,"全":720,"兴":721,"冬":722,"刀":723,"利":724,"到":725,"勇":726,"吉":727,"同":728,"吗":729,"吞":730,"呢":731,"喜":732,"四":733,"因":734,"国":735,"地":736,"夜":737,"夢":738,"大":739,"天":740,"太":741,"头":742,"好":743,"如":744,"学":745,"安":746,"実":747,"容":748,"就":749,"弁":750,"待":751,"很":752,"我":753,"才":754,"把":755,"抜":756,"拿":757,"掌":758,"斎":759,"斬":760,"新":761,"方":762,"日":763,"明":764,"易":765,"是":766,"智":767,"暗":768,"曉":769,"月":770,"望":771,"本":772,"柳":773,"欢":774,"気":775,"汉":776,"漫":777,"為":778,"然":779,"爱":780,"狼":781,"王":782,"白":783,"的":784,"益":785,"眼":786,"砂":787,"祥":788,"私":789,"笑":790,"組":791,"美":792,"聖":793,"花":794,"菀":795,"西":796,"見":797,"語":798,"语":799,"说":800,"迎":801,"返":802,"違":803,"選":804,"都":805,"野":806,"関":807,"陰":808,"陽":809,"雪":810,"願":811,"馬":812,"髒":813,"高":814,"龍":815,"녕":816,"디":817,"랑":818,"뮤":819,"보":820,"비":821,"사":822,"석":823,"세":824,"씨":825,"아":826,"안":827,"오":828,"요":829,"유":830,"재":831,"저":832,"직":833,"하":834,"️":835,"︵":836,"﹏":837,"！":838,"％":839,"＇":840,"（":841,"）":842,"＊":843,"，":844,"－":845,"０":846,"１":847,"：":848,"；":849,"？":850,"＠":851,"｀":852,"ａ":853,"ｂ":854,"ｃ":855,"ｄ":856,"ｅ":857,"ｆ":858,"ｇ":859,"ｈ":860,"ｉ":861,"ｋ":862,"ｌ":863,"ｍ":864,"ｎ":865,"ｏ":866,"ｐ":867,"ｒ":868,"ｓ":869,"ｔ":870,"ｕ":871,"ｖ":872,"ｗ":873,"ｘ":874,"ｙ":875,"～":876,"｡":877,"･":878,"ｧ":879,"ｩ":880,"ｫ":881,"ｬ":882,"ｼ":883,"ﾉ":884,"ﾞ":885,"ﾟ":886,"￣":887,"�":888,"🌹":889,"🍄":890,"🏼":891,"🐍":892,"👈":893,"👋":894,"👌":895,"👍":896,"👏":897,"💎":898,"💓":899,"💖":900,"💛":901,"🔥":902,"🕚":903,"😀":904,"😁":905,"😂":906,"😃":907,"😄":908,"😅":909,"😆":910,"😇":911,"😉":912,"😊":913,"😋":914,"😌":915,"😍":916,"😎":917,"😏":918,"😐":919,"😓":920,"😕":921,"😘":922,"😜":923,"😝":924,"😞":925,"😢":926,"😣":927,"😧":928,"😫":929,"😬":930,"😮":931,"😱":932,"😳":933,"😴":934,"😺":935,"🙋":936,"🤓":937,"🤔":938,"🤗":939,"🦄":940,"th":941,"in":942,"an":943,"re":944,"ou":945,"on":946,"the":947,"at":948,"er":949,"ing":950,"en":951,"st":952,"al":953,"to":954,"it":955,"me":956,"is":957,"or":958,"and":959,"se":960,"ly":961,"you":962,"le":963,"ve":964,"be":965,"as":966,"of":967,"ar":968,"wh":969,"es":970,"no":971,"so":972,"ha":973,"ed":974,"that":975,"li":976,"ti":977,"my":978,"ch":979,"ay":980,"lo":981,"ver":982,"ut":983,"el":984,"ke":985,"for":986,"ro":987,"wi":988,"pe":989,"gh":990,"ic":991,"ac":992,"mo":993,"de":994,"he":995,"fe":996,"are":997,"do":998,"ld":999,"but":1000,"ally":1001,"ab":1002,"out":1003,"one":1004,"co":1005,"with":1006,"ri":1007,"ad":1008,"ion":1009,"have":1010,"ge":1011,"int":1012,"ent":1013,"go":1014,"un":1015,"some":1016,"we":1017,"if":1018,"this":1019,"not":1020,"thing":1021,"su":1022,"op":1023,"like":1024,"am":1025,"ho":1026,"ne":1027,"id":1028,"ust":1029,"ould":1030,"ink":1031,"ll":1032,"ther":1033,"ir":1034,"ur":1035,"was":1036,"po":1037,"ce":1038,"now":1039,"per":1040,"think":1041,"ex":1042,"what":1043,"end":1044,"can":1045,"all":1046,"ght":1047,"just":1048,"ma":1049,"use":1050,"don":1051,"ty":1052,"con":1053,"tr":1054,"your":1055,"very":1056,"about":1057,"si":1058,"ca":1059,"ant":1060,"peop":1061,"people":1062,"any":1063,"way":1064,"ind":1065,"when":1066,"sh":1067,"ate":1068,"ation":1069,"tion":1070,"time":1071,"know":1072,"they":1073,"wor":1074,"ter":1075,"get":1076,"od":1077,"how":1078,"pre":1079,"would":1080,"us":1081,"ell":1082,"ul":1083,"see":1084,"feel":1085,"qu":1086,"mp":1087,"more":1088,"other":1089,"ok":1090,"te":1091,"inf":1092,"up":1093,"gu":1094,"oun":1095,"pro":1096,"act":1097,"really":1098,"ra":1099,"ta":1100,"ough":1101,"son":1102,"rom":1103,"cause":1104,"there":1105,"sel":1106,"ye":1107,"than":1108,"hi":1109,"read":1110,"sa":1111,"ci":1112,"ere":1113,"la":1114,"because":1115,"who":1116,"ct":1117,"from":1118,"bo":1119,"ist":1120,"art":1121,"self":1122,"ss":1123,"ite":1124,"king":1125,"ity":1126,"ag":1127,"fri":1128,"url":1129,"ps":1130,"der":1131,"ound":1132,"ive":1133,"ess":1134,"friend":1135,"ven":1136,"them":1137,"say":1138,"person":1139,"ous":1140,"most":1141,"vi":1142,"want":1143,"ard":1144,"pp":1145,"mu":1146,"love":1147,"ment":1148,"ong":1149,"sp":1150,"every":1151,"our":1152,"well":1153,"too":1154,"il":1155,"pl":1156,"um":1157,"much":1158,"whi":1159,"being":1160,"ren":1161,"by":1162,"ol":1163,"com":1164,"been":1165,"come":1166,"she":1167,"good":1168,"ble":1169,"est":1170,"things":1171,"day":1172,"ine":1173,"will":1174,"ways":1175,"had":1176,"ack":1177,"did":1178,"something":1179,"wn":1180,"lot":1181,"ill":1182,"only":1183,"try":1184,"ck":1185,"has":1186,"then":1187,"though":1188,"red":1189,"also":1190,"wo":1191,"ree":1192,"type":1193,"rel":1194,"her":1195,"does":1196,"ight":1197,"here":1198,"fo":1199,"could":1200,"even":1201,"ting":1202,"tal":1203,"may":1204,"ry":1205,"ast":1206,"ving":1207,"always":1208,"look":1209,"ms":1210,"fp":1211,"fun":1212,"work":1213,"ep":1214,"able":1215,"make":1216,"ts":1217,"find":1218,"someone":1219,"ure":1220,"times":1221,"life":1222,"comp":1223,"cho":1224,"ought":1225,"ers":1226,"happ":1227,"never":1228,"why":1229,"tic":1230,"their":1231,"jo":1232,"yes":1233,"need":1234,"ually":1235,"infj":1236,"thank":1237,"spe":1238,"under":1239,"myself":1240,"post":1241,"ence":1242,"im":1243,"sure":1244,"over":1245,"ful":1246,"sed":1247,"intj":1248,"ap":1249,"dif":1250,"right":1251,"dis":1252,"fi":1253,"ice":1254,"mean":1255,"ten":1256,"af":1257,"year":1258,"fa":1259,"fj":1260,"thought":1261,"mb":1262,"man":1263,"into":1264,"fir":1265,"ish":1266,"intere":1267,"interest":1268,"fin":1269,"where":1270,"bet":1271,"hel":1272,"pret":1273,"ies":1274,"stand":1275,"ction":1276,"iz":1277,"gr":1278,"cl":1279,"infp":1280,"ig":1281,"got":1282,"off":1283,"feren":1284,"which":1285,"reat":1286,"him":1287,"ple":1288,"str":1289,"going":1290,"actually":1291,"typ":1292,"lit":1293,"low":1294,"ever":1295,"sit":1296,"wr":1297,"ace":1298,"first":1299,"kes":1300,"ah":1301,"real":1302,"ue":1303,"ud":1304,"ys":1305,"ort":1306,"friends":1307,"shi":1308,"ser":1309,"pretty":1310,"kind":1311,"ide":1312,"ach":1313,"its":1314,"less":1315,"ain":1316,"ated":1317,"pr":1318,"sen":1319,"des":1320,"ph":1321,"ical":1322,"feeling":1323,"same":1324,"ang":1325,"et":1326,"were":1327,"mind":1328,"differen":1329,"ans":1330,"ose":1331,"back":1332,"na":1333,"gen":1334,"bab":1335,"still":1336,"his":1337,"haha":1338,"point":1339,"di":1340,"tle":1341,"lie":1342,"log":1343,"thread":1344,"ick":1345,"start":1346,"said":1347,"many":1348,"age":1349,"personal":1350,"new":1351,"ass":1352,"should":1353,"understand":1354,"quest":1355,"fore":1356,"intp":1357,"mon":1358,"ating":1359,"led":1360,"long":1361,"bit":1362,"relation":1363,"question":1364,"aw":1365,"lear":1366,"take":1367,"mat":1368,"sometimes":1369,"ious":1370,"peri":1371,"emo":1372,"probab":1373,"let":1374,"soci":1375,"care":1376,"om":1377,"used":1378,"probably":1379,"ily":1380,"best":1381,"maybe":1382,"ext":1383,"tell":1384,"around":1385,"ak":1386,"tive":1387,"par":1388,"ance":1389,"ff":1390,"help":1391,"won":1392,"while":1393,"didn":1394,"ob":1395,"usu":1396,"emotion":1397,"after":1398,"defin":1399,"those":1400,"lol":1401,"relationshi":1402,"sound":1403,"ted":1404,"years":1405,"doesn":1406,"mal":1407,"ual":1408,"min":1409,"belie":1410,"anything":1411,"agree":1412,"ince":1413,"men":1414,"enfp":1415,"part":1416,"bl":1417,"little":1418,"different":1419,"ason":1420,"oh":1421,"talk":1422,"yeah":1423,"play":1424,"clo":1425,"pos":1426,"cer":1427,"few":1428,"ga":1429,"rover":1430,"ask":1431,"side":1432,"world":1433,"better":1434,"inter":1435,"hard":1436,"ru":1437,"rough":1438,"two":1439,"usually":1440,"ses":1441,"give":1442,"since":1443,"je":1444,"experi":1445,"these":1446,"might":1447,"others":1448,"aren":1449,"reme":1450,"wat":1451,"before":1452,"test":1453,"sm":1454,"own":1455,"high":1456,"down":1457,"sor":1458,"ary":1459,"put":1460,"through":1461,"irl":1462,"ning":1463,"great":1464,"seems":1465,"thanks":1466,"types":1467,"cri":1468,"tend":1469,"makes":1470,"thinking":1471,"scho":1472,"reason":1473,"list":1474,"ces":1475,"school":1476,"everyone":1477,"bad":1478,"ically":1479,"proble":1480,"ste":1481,"ie":1482,"gener":1483,"cep":1484,"guess":1485,"entp":1486,"mm":1487,"ves":1488,"both":1489,"cont":1490,"ory":1491,"trying":1492,"quite":1493,"cur":1494,"tain":1495,"girl":1496,"function":1497,"book":1498,"happen":1499,"mis":1500,"made":1501,"vers":1502,"cent":1503,"conf":1504,"last":1505,"ations":1506,"doing":1507,"believe":1508,"pic":1509,"word":1510,"definite":1511,"stu":1512,"interesting":1513,"again":1514,"happy":1515,"che":1516,"wer":1517,"ward":1518,"imp":1519,"seem":1520,"ange":1521,"oo":1522,"dre":1523,"bu":1524,"definitely":1525,"everything":1526,"00":1527,"having":1528,"col":1529,"ugh":1530,"vie":1531,"ise":1532,"sc":1533,"often":1534,"gn":1535,"fu":1536,"vo":1537,"mar":1538,"ild":1539,"cons":1540,"show":1541,"eas":1542,"joy":1543,"ni":1544,"hum":1545,"relationship":1546,"les":1547,"mus":1548,"cra":1549,"watch":1550,"personality":1551,"ster":1552,"sing":1553,"old":1554,"row":1555,"med":1556,"ath":1557,"ness":1558,"possi":1559,"ner":1560,"cor":1561,"guys":1562,"anyone":1563,"tri":1564,"gl":1565,"val":1566,"enti":1567,"keep":1568,"head":1569,"forum":1570,"br":1571,"tra":1572,"pres":1573,"ither":1574,"comple":1575,"enjoy":1576,"another":1577,"cess":1578,"fort":1579,"laugh":1580,"cal":1581,"mes":1582,"au":1583,"dep":1584,"isn":1585,"else":1586,"getting":1587,"sha":1588,"sense":1589,"fic":1590,"char":1591,"descri":1592,"enough":1593,"ody":1594,"hate":1595,"ute":1596,"idea":1597,"spon":1598,"least":1599,"talking":1600,"hone":1601,"true":1602,"wel":1603,"such":1604,"nice":1605,"exp":1606,"close":1607,"live":1608,"exact":1609,"ions":1610,"big":1611,"coun":1612,"istj":1613,"ative":1614,"ton":1615,"social":1616,"mbti":1617,"nor":1618,"mber":1619,"press":1620,"mor":1621,"sub":1622,"ctive":1623,"music":1624,"form":1625,"comm":1626,"honest":1627,"once":1628,"gi":1629,"ics":1630,"body":1631,"ize":1632,"hu":1633,"fam":1634,"tur":1635,"gre":1636,"found":1637,"stuff":1638,"sounds":1639,"sive":1640,"wonder":1641,"nothing":1642,"sol":1643,"sur":1644,"gs":1645,"ase":1646,"hand":1647,"bro":1648,"problem":1649,"either":1650,"sorry":1651,"cially":1652,"lig":1653,"certain":1654,"enfj":1655,"introver":1656,"entj":1657,"respon":1658,"reading":1659,"using":1660,"without":1661,"tions":1662,"ek":1663,"fect":1664,"far":1665,"wrong":1666,"wa":1667,"male":1668,"situ":1669,"ween":1670,"yourself":1671,"zy":1672,"guy":1673,"welcome":1674,"fact":1675,"pu":1676,"espe":1677,"mil":1678,"especially":1679,"comes":1680,"ately":1681,"writ":1682,"ready":1683,"ult":1684,"depend":1685,"experience":1686,"serious":1687,"between":1688,"adv":1689,"fav":1690,"hope":1691,"dr":1692,"cr":1693,"sy":1694,"complete":1695,"dream":1696,"ned":1697,"cu":1698,"fel":1699,"light":1700,"howe":1701,"child":1702,"however":1703,"ular":1704,"ny":1705,"ments":1706,"fer":1707,"ger":1708,"du":1709,"sex":1710,"gue":1711,"pa":1712,"car":1713,"rather":1714,"feelings":1715,"vel":1716,"cept":1717,"mag":1718,"looking":1719,"ider":1720,"nat":1721,"ird":1722,"stop":1723,"each":1724,"remember":1725,"sk":1726,"saying":1727,"away":1728,"ber":1729,"lic":1730,"isfj":1731,"lain":1732,"istp":1733,"rain":1734,"done":1735,"listen":1736,"fr":1737,"exactly":1738,"almost":1739,"bi":1740,"job":1741,"wouldn":1742,"answer":1743,"week":1744,"cus":1745,"place":1746,"bre":1747,"ism":1748,"ago":1749,"lu":1750,"simp":1751,"tru":1752,"ved":1753,"call":1754,"set":1755,"tor":1756,"ba":1757,"ire":1758,"exam":1759,"ition":1760,"night":1761,"stud":1762,"face":1763,"dec":1764,"ying":1765,"ear":1766,"bor":1767,"til":1768,"ject":1769,"ities":1770,"wish":1771,"kid":1772,"bas":1773,"consider":1774,"strong":1775,"itive":1776,"line":1777,"isfp":1778,"vid":1779,"pect":1780,"tly":1781,"already":1782,"yet":1783,"cou":1784,"ones":1785,"cond":1786,"ef":1787,"plan":1788,"relate":1789,"change":1790,"wanted":1791,"open":1792,"app":1793,"vide":1794,"view":1795,"haven":1796,"cre":1797,"making":1798,"general":1799,"ian":1800,"whole":1801,"add":1802,"als":1803,"10":1804,"family":1805,"past":1806,"vious":1807,"month":1808,"god":1809,"ility":1810,"days":1811,"ced":1812,"laughing":1813,"gest":1814,"cool":1815,"until":1816,"ped":1817,"pat":1818,"acter":1819,"functions":1820,"cour":1821,"alone":1822,"told":1823,"cy":1824,"convers":1825,"fre":1826,"interested":1827,"words":1828,"character":1829,"came":1830,"stru":1831,"rect":1832,"pri":1833,"hear":1834,"example":1835,"class":1836,"alk":1837,"reg":1838,"completely":1839,"heal":1840,"esfj":1841,"started":1842,"colle":1843,"sort":1844,"favor":1845,"home":1846,"possible":1847,"story":1848,"sul":1849,"oud":1850,"although":1851,"today":1852,"name":1853,"dra":1854,"opin":1855,"intel":1856,"shit":1857,"issu":1858,"seen":1859,"sle":1860,"simil":1861,"sad":1862,"ot":1863,"gg":1864,"situation":1865,"youn":1866,"ft":1867,"similar":1868,"fol":1869,"imag":1870,"sup":1871,"ates":1872,"recent":1873,"video":1874,"creat":1875,"explain":1876,"wasn":1877,"mi":1878,"psy":1879,"matter":1880,"emotional":1881,"ome":1882,"dri":1883,"arch":1884,"cat":1885,"mist":1886,"ized":1887,"ama":1888,"vol":1889,"ture":1890,"phys":1891,"hey":1892,"second":1893,"infps":1894,"felt":1895,"mine":1896,"etc":1897,"must":1898,"along":1899,"vent":1900,"sto":1901,"logy":1902,"crazy":1903,"har":1904,"course":1905,"import":1906,"thoughts":1907,"ings":1908,"deal":1909,"human":1910,"met":1911,"ark":1912,"lea":1913,"health":1914,"hur":1915,"gy":1916,"weird":1917,"heart":1918,"vis":1919,"attr":1920,"awes":1921,"sci":1922,"stre":1923,"funny":1924,"uni":1925,"action":1926,"war":1927,"went":1928,"mostly":1929,"ken":1930,"grou":1931,"rep":1932,"order":1933,"based":1934,"figu":1935,"sho":1936,"likely":1937,"pose":1938,"aa":1939,"super":1940,"room":1941,"curren":1942,"dist":1943,"become":1944,"bed":1945,"sign":1946,"estp":1947,"took":1948,"run":1949,"emotions":1950,"awesome":1951,"personally":1952,"tot":1953,"fps":1954,"coming":1955,"spect":1956,"dou":1957,"main":1958,"please":1959,"selves":1960,"20":1961,"ee":1962,"totally":1963,"learn":1964,"jud":1965,"important":1966,"sent":1967,"ram":1968,"comfort":1969,"emp":1970,"conne":1971,"sleep":1972,"fall":1973,"xt":1974,"extrover":1975,"hour":1976,"intjs":1977,"expect":1978,"lat":1979,"mit":1980,"means":1981,"mom":1982,"spec":1983,"absol":1984,"clear":1985,"sitive":1986,"working":1987,"prefer":1988,"preci":1989,"extreme":1990,"okay":1991,"mother":1992,"ile":1993,"velo":1994,"bly":1995,"follow":1996,"iness":1997,"cogn":1998,"ouse":1999,"tiv":2000,"hmm":2001,"absolute":2002,"exc":2003,"whe":2004,"writing":2005,"questions":2006,"advice":2007,"free":2008,"song":2009,"deep":2010,"develo":2011,"favorite":2012,"wait":2013,"lan":2014,"perfect":2015,"oc":2016,"dont":2017,"intu":2018,"infjs":2019,"lar":2020,"couple":2021,"recently":2022,"cas":2023,"estj":2024,"xd":2025,"cle":2026,"toge":2027,"turn":2028,"sion":2029,"boy":2030,"together":2031,"ding":2032,"whatever":2033,"picture":2034,"esfp":2035,"paren":2036,"women":2037,"hh":2038,"exist":2039,"curi":2040,"fair":2041,"wow":2042,"appreci":2043,"partic":2044,"small":2045,"diffic":2046,"aring":2047,"pur":2048,"anno":2049,"stay":2050,"net":2051,"zing":2052,"anyway":2053,"prof":2054,"assu":2055,"taking":2056,"ific":2057,"state":2058,"easy":2059,"case":2060,"qui":2061,"hal":2062,"ked":2063,"obvious":2064,"gra":2065,"tongue":2066,"dam":2067,"fine":2068,"particular":2069,"mention":2070,"months":2071,"mid":2072,"search":2073,"topic":2074,"generally":2075,"hor":2076,"sist":2077,"lead":2078,"write":2079,"appe":2080,"fit":2081,"ash":2082,"descrip":2083,"female":2084,"seriously":2085,"whether":2086,"hello":2087,"commun":2088,"eng":2089,"gets":2090,"honestly":2091,"teach":2092,"experien":2093,"fully":2094,"depends":2095,"house":2096,"next":2097,"natur":2098,"resul":2099,"spend":2100,"ming":2101,"ia":2102,"av":2103,"intps":2104,"bt":2105,"inten":2106,"wards":2107,"mental":2108,"dad":2109,"ial":2110,"enne":2111,"den":2112,"unless":2113,"moment":2114,"game":2115,"rest":2116,"relationships":2117,"common":2118,"conversation":2119,"ors":2120,"inste":2121,"argu":2122,"swe":2123,"logical":2124,"break":2125,"share":2126,"rol":2127,"tried":2128,"ised":2129,"ane":2130,"pression":2131,"cha":2132,"group":2133,"college":2134,"haps":2135,"cked":2136,"lect":2137,"upid":2138,"aking":2139,"brain":2140,"perhaps":2141,"opinion":2142,"pop":2143,"ars":2144,"agram":2145,"stant":2146,"level":2147,"speak":2148,"uring":2149,"ideas":2150,"called":2151,"chang":2152,"heard":2153,"cry":2154,"movie":2155,"rand":2156,"gan":2157,"anal":2158,"meet":2159,"ational":2160,"tern":2161,"saw":2162,"stupid":2163,"discus":2164,"absolutely":2165,"sug":2166,"100":2167,"move":2168,"says":2169,"trust":2170,"num":2171,"sco":2172,"law":2173,"pick":2174,"jor":2175,"hold":2176,"instead":2177,"left":2178,"looks":2179,"figure":2180,"spo":2181,"ident":2182,"relig":2183,"non":2184,"phone":2185,"appro":2186,"tu":2187,"necess":2188,"mone":2189,"feels":2190,"ustr":2191,"goes":2192,"intellig":2193,"comfortable":2194,"eyes":2195,"healthy":2196,"enneagram":2197,"books":2198,"bus":2199,"io":2200,"ins":2201,"ross":2202,"qual":2203,"difficult":2204,"posed":2205,"parents":2206,"notic":2207,"ended":2208,"random":2209,"roll":2210,"void":2211,"basically":2212,"dark":2213,"introverted":2214,"posts":2215,"rare":2216,"rist":2217,"inform":2218,"auti":2219,"problems":2220,"active":2221,"major":2222,"sou":2223,"asking":2224,"dear":2225,"domin":2226,"cap":2227,"money":2228,"incl":2229,"half":2230,"kinda":2231,"top":2232,"ener":2233,"entire":2234,"fac":2235,"beha":2236,"ier":2237,"watching":2238,"tice":2239,"ability":2240,"behavi":2241,"roman":2242,"couldn":2243,"late":2244,"lies":2245,"brother":2246,"regard":2247,"dy":2248,"happens":2249,"temp":2250,"curious":2251,"known":2252,"pass":2253,"asked":2254,"full":2255,"meaning":2256,"sil":2257,"simply":2258,"tit":2259,"ze":2260,"understanding":2261,"hell":2262,"games":2263,"sty":2264,"ient":2265,"short":2266,"gon":2267,"extremely":2268,"easily":2269,"present":2270,"hurt":2271,"information":2272,"worth":2273,"power":2274,"dom":2275,"themselves":2276,"realize":2277,"atten":2278,"ouch":2279,"psycho":2280,"bri":2281,"spir":2282,"da":2283,"three":2284,"bal":2285,"avoid":2286,"respect":2287,"beauti":2288,"grow":2289,"hy":2290,"dic":2291,"lack":2292,"phi":2293,"win":2294,"cking":2295,"cious":2296,"seeing":2297,"wise":2298,"hours":2299,"works":2300,"suggest":2301,"allow":2302,"knew":2303,"ship":2304,"living":2305,"gin":2306,"ited":2307,"anx":2308,"playing":2309,"valu":2310,"langu":2311,"var":2312,"pet":2313,"towards":2314,"band":2315,"anger":2316,"date":2317,"attention":2318,"eat":2319,"sister":2320,"quo":2321,"quick":2322,"truth":2323,"cks":2324,"amazing":2325,"walk":2326,"theory":2327,"posted":2328,"decis":2329,"nt":2330,"vir":2331,"constant":2332,"neg":2333,"needs":2334,"glad":2335,"dating":2336,"surpr":2337,"happened":2338,"cial":2339,"anim":2340,"kill":2341,"beautiful":2342,"stere":2343,"acted":2344,"syste":2345,"noticed":2346,"inc":2347,"liked":2348,"deta":2349,"loved":2350,"black":2351,"lost":2352,"crit":2353,"enfps":2354,"meant":2355,"rible":2356,"correct":2357,"medi":2358,"ried":2359,"given":2360,"bur":2361,"wit":2362,"except":2363,"indi":2364,"fear":2365,"pho":2366,"control":2367,"fil":2368,"hit":2369,"romantic":2370,"event":2371,"food":2372,"touch":2373,"unch":2374,"currently":2375,"ju":2376,"appreciate":2377,"internet":2378,"decid":2379,"stereo":2380,"physical":2381,"abo":2382,"liter":2383,"girls":2384,"proud":2385,"during":2386,"bs":2387,"due":2388,"res":2389,"ip":2390,"ideal":2391,"inst":2392,"drink":2393,"online":2394,"knowled":2395,"frustr":2396,"entps":2397,"prac":2398,"stic":2399,"fut":2400,"draw":2401,"ling":2402,"christ":2403,"pressed":2404,"leave":2405,"vil":2406,"fli":2407,"mas":2408,"death":2409,"outside":2410,"iety":2411,"lying":2412,"quiet":2413,"ages":2414,"science":2415,"link":2416,"cru":2417,"individ":2418,"normal":2419,"ging":2420,"hair":2421,"imagine":2422,"remind":2423,"hang":2424,"lots":2425,"accur":2426,"fight":2427,"ories":2428,"wants":2429,"ances":2430,"serv":2431,"cognitive":2432,"cli":2433,"difference":2434,"ulti":2435,"learning":2436,"extra":2437,"process":2438,"fuck":2439,"count":2440,"against":2441,"spective":2442,"engl":2443,"issues":2444,"woman":2445,"express":2446,"dle":2447,"sun":2448,"bring":2449,"deb":2450,"amer":2451,"ched":2452,"orig":2453,"cannot":2454,"kids":2455,"em":2456,"gree":2457,"issue":2458,"takes":2459,"describe":2460,"later":2461,"nature":2462,"communic":2463,"sight":2464,"ination":2465,"ering":2466,"angry":2467,"giving":2468,"socie":2469,"individual":2470,"future":2471,"kit":2472,"que":2473,"sever":2474,"taken":2475,"ior":2476,"shy":2477,"ref":2478,"stra":2479,"supp":2480,"tical":2481,"conscious":2482,"ont":2483,"fast":2484,"near":2485,"wondering":2486,"ks":2487,"blo":2488,"30":2489,"knowledge":2490,"mate":2491,"cold":2492,"istic":2493,"organ":2494,"reasons":2495,"cut":2496,"math":2497,"ring":2498,"oooo":2499,"ils":2500,"leg":2501,"aware":2502,"pay":2503,"single":2504,"19":2505,"ude":2506,"above":2507,"origin":2508,"response":2509,"eye":2510,"father":2511,"50":2512,"subject":2513,"simple":2514,"actions":2515,"learned":2516,"younger":2517,"confused":2518,"izing":2519,"ines":2520,"wink":2521,"young":2522,"perc":2523,"direct":2524,"damn":2525,"value":2526,"awk":2527,"cing":2528,"finish":2529,"listening":2530,"sx":2531,"sat":2532,"reality":2533,"energy":2534,"por":2535,"accept":2536,"related":2537,"worry":2538,"stress":2539,"several":2540,"older":2541,"connect":2542,"invol":2543,"inside":2544,"12":2545,"ds":2546,"logic":2547,"trou":2548,"fortun":2549,"ency":2550,"smile":2551,"comput":2552,"wers":2553,"ping":2554,"language":2555,"ele":2556,"suppose":2557,"dest":2558,"sensitive":2559,"gram":2560,"natural":2561,"dominant":2562,"research":2563,"raid":2564,"awkward":2565,"decided":2566,"cute":2567,"mood":2568,"negative":2569,"english":2570,"space":2571,"trouble":2572,"grad":2573,"arily":2574,"huge":2575,"dro":2576,"fant":2577,"land":2578,"luck":2579,"soul":2580,"vies":2581,"telling":2582,"begin":2583,"fy":2584,"nf":2585,"check":2586,"bored":2587,"focus":2588,"society":2589,"movies":2590,"notice":2591,"gonna":2592,"step":2593,"boyfriend":2594,"posit":2595,"certainly":2596,"truly":2597,"born":2598,"phy":2599,"intuitive":2600,"irr":2601,"strange":2602,"doubt":2603,"tests":2604,"typing":2605,"smo":2606,"style":2607,"pie":2608,"quote":2609,"likes":2610,"dreams":2611,"16":2612,"description":2613,"choose":2614,"supposed":2615,"athe":2616,"afraid":2617,"unk":2618,"mentioned":2619,"philo":2620,"hind":2621,"across":2622,"cir":2623,"os":2624,"15":2625,"system":2626,"scre":2627,"perspective":2628,"identi":2629,"constantly":2630,"ww":2631,"soon":2632,"tech":2633,"number":2634,"anxiety":2635,"philoso":2636,"situations":2637,"knowing":2638,"fan":2639,"teen":2640,"hahaha":2641,"ank":2642,"points":2643,"lately":2644,"concer":2645,"hot":2646,"mer":2647,"treat":2648,"boring":2649,"obviously":2650,"ined":2651,"term":2652,"dead":2653,"special":2654,"messa":2655,"pub":2656,"experiences":2657,"pt":2658,"anymore":2659,"gotten":2660,"asses":2661,"finally":2662,"ground":2663,"apparen":2664,"early":2665,"comment":2666,"finding":2667,"bar":2668,"ball":2669,"ler":2670,"oppos":2671,"amoun":2672,"ceive":2673,"analy":2674,"specific":2675,"pain":2676,"forget":2677,"sid":2678,"whenever":2679,"motiv":2680,"straight":2681,"ently":2682,"arti":2683,"shed":2684,"ught":2685,"speaking":2686,"accurate":2687,"usion":2688,"ben":2689,"ond":2690,"ender":2691,"edit":2692,"weeks":2693,"cla":2694,"characters":2695,"jective":2696,"wal":2697,"middle":2698,"11":2699,"hun":2700,"smart":2701,"slow":2702,"connection":2703,"ya":2704,"positive":2705,"party":2706,"stood":2707,"somewhere":2708,"verse":2709,"starting":2710,"text":2711,"realized":2712,"four":2713,"reply":2714,"fix":2715,"bel":2716,"die":2717,"results":2718,"admit":2719,"polit":2720,"gave":2721,"suc":2722,"miss":2723,"knows":2724,"tired":2725,"behavior":2726,"children":2727,"hood":2728,"ket":2729,"approach":2730,"apo":2731,"ible":2732,"user":2733,"slight":2734,"annoying":2735,"init":2736,"computer":2737,"bility":2738,"vs":2739,"conside":2740,"considered":2741,"ied":2742,"ising":2743,"opposite":2744,"ili":2745,"acting":2746,"helps":2747,"build":2748,"typical":2749,"tapat":2750,"behind":2751,"jok":2752,"tapatalk":2753,"gif":2754,"introvert":2755,"within":2756,"18":2757,"anna":2758,"ending":2759,"nar":2760,"wear":2761,"ution":2762,"produ":2763,"forums":2764,"sweet":2765,"py":2766,"contin":2767,"photo":2768,"necessarily":2769,"cul":2770,"literally":2771,"note":2772,"easier":2773,"scare":2774,"infer":2775,"plac":2776,"appear":2777,"14":2778,"bat":2779,"blue":2780,"scen":2781,"morning":2782,"americ":2783,"inner":2784,"somehow":2785,"star":2786,"key":2787,"argument":2788,"artic":2789,"project":2790,"insight":2791,"terms":2792,"includ":2793,"ference":2794,"contact":2795,"values":2796,"zz":2797,"ures":2798,"youtu":2799,"ctor":2800,"stick":2801,"fee":2802,"clu":2803,"xx":2804,"iss":2805,"extroverted":2806,"site":2807,"public":2808,"emotionally":2809,"tenti":2810,"ign":2811,"thats":2812,"rote":2813,"somewhat":2814,"white":2815,"unfortun":2816,"disco":2817,"ssed":2818,"weak":2819,"skill":2820,"particularly":2821,"watched":2822,"occas":2823,"avat":2824,"cook":2825,"otherwise":2826,"humor":2827,"water":2828,"mix":2829,"incred":2830,"wrote":2831,"ared":2832,"possibly":2833,"study":2834,"thor":2835,"pped":2836,"fucking":2837,"sess":2838,"gone":2839,"fellow":2840,"iv":2841,"ital":2842,"twi":2843,"uu":2844,"depression":2845,"understood":2846,"profess":2847,"youtube":2848,"country":2849,"belief":2850,"worked":2851,"worst":2852,"92":2853,"answers":2854,"inferior":2855,"ja":2856,"trad":2857,"dow":2858,"attracted":2859,"develop":2860,"amount":2861,"looked":2862,"parti":2863,"bot":2864,"posting":2865,"apparently":2866,"intelligence":2867,"chance":2868,"fection":2869,"shows":2870,"respond":2871,"ipul":2872,"rarely":2873,"summ":2874,"tv":2875,"del":2876,"round":2877,"married":2878,"sts":2879,"fairly":2880,"og":2881,"manipul":2882,"nal":2883,"def":2884,"trans":2885,"religion":2886,"dog":2887,"threads":2888,"athy":2889,"creative":2890,"traits":2891,"evil":2892,"pen":2893,"songs":2894,"actual":2895,"needed":2896,"partner":2897,"ii":2898,"ants":2899,"sensor":2900,"degree":2901,"ters":2902,"inde":2903,"sar":2904,"large":2905,"lad":2906,"dislike":2907,"desire":2908,"foc":2909,"choice":2910,"sexual":2911,"sides":2912,"odd":2913,"voice":2914,"gives":2915,"uses":2916,"lict":2917,"acy":2918,"ards":2919,"bing":2920,"ats":2921,"tho":2922,"ado":2923,"ris":2924,"pas":2925,"purpose":2926,"avatar":2927,"disagree":2928,"mad":2929,"13":2930,"thinks":2931,"concl":2932,"developed":2933,"intuition":2934,"potenti":2935,"blu":2936,"highly":2937,"utes":2938,"envir":2939,"hug":2940,"lives":2941,"intro":2942,"bir":2943,"intellect":2944,"judge":2945,"environ":2946,"iled":2947,"hop":2948,"deci":2949,"soc":2950,"none":2951,"wast":2952,"passion":2953,"front":2954,"ani":2955,"yed":2956,"mess":2957,"depressed":2958,"bul":2959,"17":2960,"sal":2961,"stri":2962,"current":2963,"clearly":2964,"series":2965,"conflict":2966,"itself":2967,"drive":2968,"mature":2969,"grand":2970,"career":2971,"version":2972,"clean":2973,"spent":2974,"conversations":2975,"attemp":2976,"ki":2977,"throw":2978,"assume":2979,"flow":2980,"written":2981,"unfortunately":2982,"bother":2983,"bla":2984,"fail":2985,"igno":2986,"pleas":2987,"helpful":2988,"result":2989,"changed":2990,"cof":2991,"flir":2992,"crush":2993,"air":2994,"univers":2995,"original":2996,"willing":2997,"create":2998,"loud":2999,"lion":3000,"spirit":3001,"student":3002,"birth":3003,"wall":3004,"effort":3005,"emb":3006,"requ":3007,"terrible":3008,"norm":3009,"fur":3010,"rock":3011,"seemed":3012,"intelligent":3013,"anti":3014,"affect":3015,"typed":3016,"impro":3017,"wanna":3018,"history":3019,"ably":3020,"train":3021,"conv":3022,"activ":3023,"lose":3024,"aut":3025,"match":3026,"buy":3027,"dru":3028,"strugg":3029,"spot":3030,"wanting":3031,"joke":3032,"bra":3033,"unhealthy":3034,"upon":3035,"reach":3036,"worse":3037,"aspect":3038,"fiction":3039,"gender":3040,"jun":3041,"lazy":3042,"desp":3043,"idence":3044,"cult":3045,"earth":3046,"port":3047,"lied":3048,"unsure":3049,"200":3050,"ith":3051,"suff":3052,"psychology":3053,"ilities":3054,"views":3055,"intense":3056,"teacher":3057,"five":3058,"ception":3059,"girlfriend":3060,"rele":3061,"cin":3062,"mee":3063,"compli":3064,"coffee":3065,"hus":3066,"friendship":3067,"position":3068,"interests":3069,"sky":3070,"effect":3071,"plus":3072,"favour":3073,"decide":3074,"rational":3075,"stuck":3076,"occasion":3077,"load":3078,"acc":3079,"support":3080,"forward":3081,"minutes":3082,"color":3083,"quickly":3084,"inti":3085,"rely":3086,"edu":3087,"dress":3088,"business":3089,"lish":3090,"program":3091,"comb":3092,"fantas":3093,"deter":3094,"useful":3095,"ral":3096,"chall":3097,"box":3098,"mista":3099,"consist":3100,"opinions":3101,"aver":3102,"played":3103,"secre":3104,"yester":3105,"peace":3106,"moral":3107,"enter":3108,"dude":3109,"90":3110,"yesterday":3111,"yep":3112,"shouldn":3113,"longer":3114,"putting":3115,"specif":3116,"att":3117,"descriptions":3118,"success":3119,"indeed":3120,"dry":3121,"genu":3122,"warm":3123,"critic":3124,"teh":3125,"naturally":3126,"initi":3127,"recomm":3128,"cording":3129,"lon":3130,"upset":3131,"husband":3132,"cise":3133,"period":3134,"surprised":3135,"guil":3136,"ator":3137,"ale":3138,"limit":3139,"moved":3140,"turned":3141,"ens":3142,"chan":3143,"explo":3144,"force":3145,"ord":3146,"nobody":3147,"facebook":3148,"attractive":3149,"apart":3150,"fire":3151,"eld":3152,"moving":3153,"message":3154,"chat":3155,"considering":3156,"quality":3157,"wed":3158,"dden":3159,"orts":3160,"ists":3161,"helped":3162,"religious":3163,"fla":3164,"door":3165,"jump":3166,"ade":3167,"walking":3168,"genuine":3169,"wonderful":3170,"agno":3171,"rules":3172,"extraver":3173,"inse":3174,"somebody":3175,"cate":3176,"dan":3177,"stat":3178,"identify":3179,"ibly":3180,"wing":3181,"concept":3182,"sharing":3183,"ulous":3184,"rage":3185,"aaaa":3186,"push":3187,"page":3188,"flo":3189,"sick":3190,"ima":3191,"debate":3192,"pot":3193,"kitteh":3194,"tom":3195,"ges":3196,"hands":3197,"ix":3198,"apolog":3199,"eth":3200,"multi":3201,"silly":3202,"stories":3203,"beat":3204,"company":3205,"dated":3206,"thes":3207,"commit":3208,"pis":3209,"poor":3210,"shop":3211,"places":3212,"city":3213,"involved":3214,"bb":3215,"scienti":3216,"bio":3217,"title":3218,"hehe":3219,"liber":3220,"core":3221,"ends":3222,"males":3223,"following":3224,"recogn":3225,"described":3226,"yy":3227,"compet":3228,"aged":3229,"running":3230,"fas":3231,"uro":3232,"sudden":3233,"hol":3234,"fied":3235,"25":3236,"proper":3237,"psych":3238,"incredibly":3239,"average":3240,"studying":3241,"ature":3242,"dum":3243,"fill":3244,"mic":3245,"pattern":3246,"ky":3247,"sof":3248,"onic":3249,"circ":3250,"bunch":3251,"baby":3252,"normally":3253,"lone":3254,"sj":3255,"immedi":3256,"struct":3257,"socion":3258,"handle":3259,"typically":3260,"moder":3261,"confident":3262,"hugs":3263,"green":3264,"slightly":3265,"valid":3266,"animals":3267,"ric":3268,"inct":3269,"obser":3270,"eating":3271,"ences":3272,"disorder":3273,"require":3274,"rela":3275,"among":3276,"decision":3277,"ged":3278,"according":3279,"travel":3280,"dire":3281,"score":3282,"summer":3283,"sitting":3284,"entjs":3285,"discussion":3286,"arr":3287,"poe":3288,"childhood":3289,"calm":3290,"cation":3291,"ban":3292,"christian":3293,"va":3294,"eventually":3295,"forgot":3296,"cant":3297,"unt":3298,"join":3299,"pes":3300,"scared":3301,"potential":3302,"meeting":3303,"fl":3304,"pictures":3305,"responses":3306,"environment":3307,"talked":3308,"statement":3309,"sour":3310,"introverts":3311,"paint":3312,"waiting":3313,"mel":3314,"catch":3315,"prote":3316,"shocked":3317,"philosophy":3318,"ony":3319,"priv":3320,"ices":3321,"cei":3322,"mainly":3323,"femin":3324,"discuss":3325,"confidence":3326,"table":3327,"bey":3328,"details":3329,"relax":3330,"pping":3331,"skills":3332,"socionics":3333,"lean":3334,"ney":3335,"alot":3336,"pan":3337,"ali":3338,"alright":3339,"complex":3340,"paper":3341,"growing":3342,"lier":3343,"loy":3344,"40":3345,"wife":3346,"frustrating":3347,"ivity":3348,"omg":3349,"entirely":3350,"ization":3351,"rolling":3352,"necessary":3353,"board":3354,"80":3355,"cies":3356,"enfjs":3357,"feed":3358,"crying":3359,"university":3360,"despite":3361,"recommend":3362,"cup":3363,"caring":3364,"became":3365,"tem":3366,"parts":3367,"extrovert":3368,"drunk":3369,"nope":3370,"ify":3371,"agre":3372,"minded":3373,"bud":3374,"ker":3375,"master":3376,"previous":3377,"horrible":3378,"refer":3379,"figured":3380,"pure":3381,"shut":3382,"definition":3383,"crap":3384,"60":3385,"stren":3386,"ignor":3387,"dat":3388,"amp":3389,"suck":3390,"deser":3391,"frequ":3392,"double":3393,"boss":3394,"aggre":3395,"gro":3396,"rad":3397,"busy":3398,"hole":3399,"everybody":3400,"image":3401,"safe":3402,"fits":3403,"tre":3404,"perfectly":3405,"meth":3406,"witch":3407,"tough":3408,"ridic":3409,"mach":3410,"vibe":3411,"experienced":3412,"hid":3413,"tested":3414,"hm":3415,"cats":3416,"claim":3417,"favourite":3418,"acking":3419,"classes":3420,"obses":3421,"beginning":3422,"24":3423,"accep":3424,"depending":3425,"viol":3426,"signific":3427,"judging":3428,"cree":3429,"vered":3430,"ense":3431,"70":3432,"lines":3433,"istps":3434,"anime":3435,"goog":3436,"communication":3437,"memor":3438,"clar":3439,"iphone":3440,"inv":3441,"specifically":3442,"lonely":3443,"doctor":3444,"regular":3445,"excited":3446,"area":3447,"pull":3448,"friendly":3449,"himself":3450,"loves":3451,"popular":3452,"streng":3453,"responsi":3454,"universe":3455,"satis":3456,"grade":3457,"blushed":3458,"nes":3459,"associ":3460,"biggest":3461,"33":3462,"ignore":3463,"track":3464,"closest":3465,"relev":3466,"btw":3467,"bum":3468,"evid":3469,"forever":3470,"dealing":3471,"majority":3472,"flu":3473,"uncomfortable":3474,"relative":3475,"cure":3476,"humans":3477,"piece":3478,"road":3479,"hea":3480,"pha":3481,"ensive":3482,"dee":3483,"reminds":3484,"author":3485,"engine":3486,"goal":3487,"happiness":3488,"vision":3489,"ina":3490,"perceive":3491,"hilar":3492,"ager":3493,"field":3494,"finished":3495,"season":3496,"arian":3497,"influ":3498,"matic":3499,"dun":3500,"dance":3501,"sucks":3502,"lived":3503,"neither":3504,"observ":3505,"freak":3506,"lay":3507,"aries":3508,"ssive":3509,"ourselves":3510,"pursu":3511,"gay":3512,"ulation":3513,"anyways":3514,"decisions":3515,"intellectual":3516,"22":3517,"higher":3518,"soft":3519,"nam":3520,"sn":3521,"mem":3522,"terri":3523,"profile":3524,"addic":3525,"hn":3526,"abor":3527,"mum":3528,"sports":3529,"further":3530,"save":3531,"selfish":3532,"impossible":3533,"socially":3534,"ore":3535,"stor":3536,"usual":3537,"earlier":3538,"repe":3539,"pair":3540,"profession":3541,"comments":3542,"achie":3543,"ridiculous":3544,"gain":3545,"account":3546,"iting":3547,"rog":3548,"exer":3549,"fascin":3550,"jour":3551,"nearly":3552,"attack":3553,"memory":3554,"ons":3555,"distr":3556,"insul":3557,"famili":3558,"culture":3559,"metal":3560,"lli":3561,"interpret":3562,"99":3563,"firm":3564,"beyond":3565,"becoming":3566,"procra":3567,"article":3568,"content":3569,"procrast":3570,"eps":3571,"taste":3572,"videos":3573,"various":3574,"method":3575,"explan":3576,"kept":3577,"therap":3578,"preference":3579,"total":3580,"surround":3581,"hilarious":3582,"iny":3583,"path":3584,"shir":3585,"significant":3586,"relevant":3587,"intention":3588,"temper":3589,"congr":3590,"strength":3591,"familiar":3592,"ml":3593,"tries":3594,"enty":3595,"helping":3596,"argue":3597,"sli":3598,"whel":3599,"adm":3600,"lyr":3601,"strongly":3602,"physically":3603,"stressed":3604,"expected":3605,"film":3606,"suspect":3607,"yours":3608,"therefore":3609,"john":3610,"appoint":3611,"grew":3612,"circum":3613,"focused":3614,"struggle":3615,"equ":3616,"tt":3617,"town":3618,"multiple":3619,"cis":3620,"morrow":3621,"team":3622,"continue":3623,"flaw":3624,"ius":3625,"ites":3626,"enjoyed":3627,"empathy":3628,"dig":3629,"squ":3630,"hmmm":3631,"ror":3632,"factor":3633,"asks":3634,"thro":3635,"brought":3636,"instinct":3637,"atta":3638,"plenty":3639,"manage":3640,"neut":3641,"driving":3642,"yo":3643,"drawn":3644,"opport":3645,"hahahaha":3646,"igh":3647,"differences":3648,"stopped":3649,"eeee":3650,"opportun":3651,"loving":3652,"moon":3653,"ternal":3654,"define":3655,"cafe":3656,"overwhel":3657,"sensing":3658,"american":3659,"cover":3660,"ron":3661,"tells":3662,"context":3663,"ggs":3664,"third":3665,"weight":3666,"yea":3667,"news":3668,"option":3669,"trait":3670,"including":3671,"ego":3672,"plans":3673,"dumb":3674,"agreed":3675,"vous":3676,"jokes":3677,"gri":3678,"tomorrow":3679,"objective":3680,"bull":3681,"unique":3682,"represent":3683,"moments":3684,"waste":3685,"store":3686,"mut":3687,"tea":3688,"rule":3689,"google":3690,"entertain":3691,"jobs":3692,"basic":3693,"besides":3694,"fake":3695,"circumst":3696,"bilities":3697,"role":3698,"oper":3699,"keeping":3700,"alco":3701,"orient":3702,"marri":3703,"regardless":3704,"hypo":3705,"sme":3706,"tex":3707,"bow":3708,"istics":3709,"fantasy":3710,"fing":3711,"nah":3712,"reaction":3713,"epis":3714,"offer":3715,"fresh":3716,"animal":3717,"organized":3718,"ches":3719,"symp":3720,"annoyed":3721,"ceiving":3722,"hide":3723,"independ":3724,"tendency":3725,"drugs":3726,"rac":3727,"input":3728,"istjs":3729,"twice":3730,"neutral":3731,"predic":3732,"lyrics":3733,"ail":3734,"deeply":3735,"changes":3736,"atic":3737,"fault":3738,"wild":3739,"ries":3740,"six":3741,"regarding":3742,"guilty":3743,"planning":3744,"created":3745,"mou":3746,"benef":3747,"attit":3748,"dered":3749,"groups":3750,"clothes":3751,"gradu":3752,"happening":3753,"rr":3754,"users":3755,"turns":3756,"capable":3757,"practical":3758,"pun":3759,"indic":3760,"acts":3761,"imagin":3762,"lady":3763,"evidence":3764,"onto":3765,"via":3766,"ka":3767,"rant":3768,"beliefs":3769,"conclusion":3770,"spiritual":3771,"van":3772,"seek":3773,"leader":3774,"iq":3775,"forced":3776,"ops":3777,"hero":3778,"skin":3779,"misty":3780,"ased":3781,"vic":3782,"faith":3783,"auto":3784,"facts":3785,"vest":3786,"mater":3787,"direction":3788,"kick":3789,"dar":3790,"ison":3791,"weren":3792,"mr":3793,"everyday":3794,"wake":3795,"jack":3796,"abstr":3797,"astic":3798,"tically":3799,"hopefully":3800,"anced":3801,"depth":3802,"categ":3803,"bare":3804,"ties":3805,"whom":3806,"broke":3807,"crow":3808,"eh":3809,"gun":3810,"regre":3811,"mark":3812,"daily":3813,"drawing":3814,"bound":3815,"beaut":3816,"private":3817,"gar":3818,"ience":3819,"nic":3820,"blood":3821,"beauty":3822,"hes":3823,"chick":3824,"xp":3825,"birthday":3826,"jung":3827,"gover":3828,"mary":3829,"alous":3830,"changing":3831,"analys":3832,"thered":3833,"prin":3834,"balance":3835,"aggressive":3836,"marriage":3837,"aming":3838,"internal":3839,"possibility":3840,"counter":3841,"raised":3842,"physics":3843,"assuming":3844,"compliment":3845,"extraverted":3846,"21":3847,"gotta":3848,"extent":3849,"distance":3850,"suddenly":3851,"aud":3852,"wood":3853,"kinds":3854,"94":3855,"personalities":3856,"snow":3857,"club":3858,"lets":3859,"mail":3860,"overall":3861,"strate":3862,"missed":3863,"missing":3864,"nut":3865,"diagno":3866,"smell":3867,"arrog":3868,"icient":3869,"complic":3870,"nervous":3871,"introdu":3872,"23":3873,"ley":3874,"gues":3875,"calling":3876,"practice":3877,"webs":3878,"tered":3879,"immediately":3880,"graph":3881,"bag":3882,"fle":3883,"tml":3884,"behaviour":3885,"impression":3886,"data":3887,"minute":3888,"ug":3889,"thus":3890,"isfps":3891,"rich":3892,"arguments":3893,"ls":3894,"becomes":3895,"evol":3896,"pm":3897,"mbers":3898,"advent":3899,"setting":3900,"sch":3901,"myster":3902,"dogs":3903,"angers":3904,"subjective":3905,"stereotype":3906,"ded":3907,"eff":3908,"gent":3909,"ario":3910,"prove":3911,"apply":3912,"hhhh":3913,"cast":3914,"affection":3915,"scary":3916,"idk":3917,"cip":3918,"disappoint":3919,"fren":3920,"fash":3921,"interaction":3922,"base":3923,"fish":3924,"wind":3925,"bear":3926,"habit":3927,"hoping":3928,"attempt":3929,"improve":3930,"mouth":3931,"race":3932,"contr":3933,"lovely":3934,"excell":3935,"93":3936,"ered":3937,"freed":3938,"jap":3939,"rout":3940,"ships":3941,"jealous":3942,"goals":3943,"000":3944,"gut":3945,"instru":3946,"conven":3947,"zed":3948,"album":3949,"caught":3950,"names":3951,"contri":3952,"medic":3953,"hasn":3954,"visual":3955,"determin":3956,"rap":3957,"bitch":3958,"ooo":3959,"broken":3960,"political":3961,"fly":3962,"yup":3963,"tory":3964,"dunno":3965,"hat":3966,"theories":3967,"ctr":3968,"keeps":3969,"web":3970,"wis":3971,"chemist":3972,"fashion":3973,"66":3974,"mand":3975,"sequ":3976,"tends":3977,"scenario":3978,"ians":3979,"nn":3980,"wea":3981,"complain":3982,"examples":3983,"stereotypes":3984,"acqu":3985,"awful":3986,"rude":3987,"occasionally":3988,"altern":3989,"sl":3990,"arts":3991,"anywhere":3992,"offic":3993,"osity":3994,"anybody":3995,"showing":3996,"connected":3997,"ahead":3998,"separ":3999,"ns":4000,"send":4001,"circumstances":4002,"yay":4003,"ingly":4004,"guit":4005,"extroverts":4006,"existence":4007,"directly":4008,"website":4009,"dd":4010,"gold":4011,"iling":4012,"compared":4013,"phra":4014,"shadow":4015,"chur":4016,"differently":4017,"sleeping":4018,"vari":4019,"lucky":4020,"loyal":4021,"ired":4022,"freedom":4023,"section":4024,"sake":4025,"concerned":4026,"stree":4027,"irrit":4028,"abstract":4029,"cele":4030,"courage":4031,"techn":4032,"tmlt":4033,"vul":4034,"remain":4035,"solve":4036,"harder":4037,"obsessed":4038,"flat":4039,"hated":4040,"expression":4041,"hanging":4042,"mode":4043,"mates":4044,"mistake":4045,"excellent":4046,"solution":4047,"pi":4048,"chocol":4049,"27":4050,"cro":4051,"zo":4052,"wearing":4053,"possibilities":4054,"introversion":4055,"dreaming":4056,"pedia":4057,"fra":4058,"accident":4059,"education":4060,"decent":4061,"foot":4062,"object":4063,"huh":4064,"community":4065,"sus":4066,"artist":4067,"novel":4068,"ament":4069,"weekend":4070,"bits":4071,"invest":4072,"alcohol":4073,"stal":4074,"asp":4075,"served":4076,"analysis":4077,"danger":4078,"aint":4079,"pages":4080,"numb":4081,"ises":4082,"model":4083,"esfjs":4084,"mur":4085,"zer":4086,"passive":4087,"za":4088,"aside":4089,"perfection":4090,"trick":4091,"minds":4092,"curiosity":4093,"usi":4094,"ously":4095,"gging":4096,"christmas":4097,"cand":4098,"swi":4099,"sigh":4100,"starts":4101,"attitude":4102,"fell":4103,"meas":4104,"members":4105,"rup":4106,"libr":4107,"confusing":4108,"topics":4109,"45":4110,"ow":4111,"chill":4112,"itional":4113,"26":4114,"background":4115,"french":4116,"excuse":4117,"explanation":4118,"guitar":4119,"progre":4120,"overly":4121,"office":4122,"medit":4123,"ential":4124,"breaking":4125,"judg":4126,"spending":4127,"challen":4128,"card":4129,"sam":4130,"accomp":4131,"design":4132,"frustrated":4133,"span":4134,"embarr":4135,"ana":4136,"sell":4137,"lap":4138,"basis":4139,"imo":4140,"lock":4141,"reasoning":4142,"ners":4143,"briggs":4144,"events":4145,"drop":4146,"motivation":4147,"slowly":4148,"achieve":4149,"letting":4150,"replies":4151,"complicated":4152,"jes":4153,"hearing":4154,"drinking":4155,"receive":4156,"rush":4157,"leaving":4158,"react":4159,"stare":4160,"suic":4161,"opath":4162,"strangers":4163,"ador":4164,"closer":4165,"tonight":4166,"isfjs":4167,"window":4168,"85":4169,"bird":4170,"bold":4171,"source":4172,"mechan":4173,"gling":4174,"drama":4175,"fying":4176,"nu":4177,"toler":4178,"itions":4179,"asser":4180,"mentally":4181,"falling":4182,"parties":4183,"cross":4184,"opti":4185,"aux":4186,"communicate":4187,"inno":4188,"shame":4189,"challenge":4190,"letters":4191,"critical":4192,"building":4193,"combination":4194,"hardly":4195,"till":4196,"external":4197,"talent":4198,"avy":4199,"alive":4200,"manner":4201,"expectations":4202,"myers":4203,"sentence":4204,"discovered":4205,"sensors":4206,"iest":4207,"jer":4208,"fective":4209,"scored":4210,"development":4211,"secret":4212,"awhile":4213,"bon":4214,"els":4215,"useless":4216,"pressure":4217,"pressive":4218,"insane":4219,"bullshit":4220,"tun":4221,"troll":4222,"eness":4223,"offended":4224,"letter":4225,"trip":4226,"material":4227,"bright":4228,"js":4229,"loop":4230,"pol":4231,"estps":4232,"assump":4233,"limited":4234,"chocolate":4235,"drain":4236,"lord":4237,"pink":4238,"worried":4239,"ficial":4240,"roo":4241,"inful":4242,"regret":4243,"cud":4244,"lin":4245,"sna":4246,"heavy":4247,"quit":4248,"info":4249,"tics":4250,"exercise":4251,"govern":4252,"inspir":4253,"anxious":4254,"tar":4255,"insp":4256,"toward":4257,"wered":4258,"qualities":4259,"realistic":4260,"fat":4261,"stric":4262,"blind":4263,"imagination":4264,"allowed":4265,"fascinating":4266,"celebr":4267,"ran":4268,"honesty":4269,"discover":4270,"arm":4271,"ays":4272,"thinker":4273,"everywhere":4274,"gather":4275,"border":4276,"minor":4277,"barely":4278,"electr":4279,"brow":4280,"rat":4281,"brilli":4282,"instance":4283,"promis":4284,"mentary":4285,"sexy":4286,"dynam":4287,"illed":4288,"carry":4289,"teachers":4290,"poetry":4291,"frequently":4292,"chemistry":4293,"matters":4294,"passionate":4295,"intimid":4296,"genuinely":4297,"ery":4298,"stated":4299,"meta":4300,"romance":4301,"95":4302,"switch":4303,"smoke":4304,"accomplish":4305,"utter":4306,"died":4307,"appropri":4308,"username":4309,"vit":4310,"casual":4311,"sarcas":4312,"ano":4313,"scientific":4314,"admire":4315,"vy":4316,"ato":4317,"asing":4318,"rid":4319,"shall":4320,"primary":4321,"picked":4322,"28":4323,"feeler":4324,"chose":4325,"spee":4326,"occur":4327,"flirting":4328,"fal":4329,"nts":4330,"san":4331,"recor":4332,"enth":4333,"throughout":4334,"individuals":4335,"procrastin":4336,"sarcasm":4337,"trity":4338,"obsess":4339,"painful":4340,"criticism":4341,"cous":4342,"below":4343,"losing":4344,"exists":4345,"holding":4346,"click":4347,"hung":4348,"apologize":4349,"ko":4350,"chi":4351,"hurts":4352,"soli":4353,"females":4354,"jection":4355,"million":4356,"aur":4357,"blog":4358,"kidding":4359,"pon":4360,"vor":4361,"estee":4362,"referring":4363,"syn":4364,"econ":4365,"xn":4366,"reject":4367,"member":4368,"wiki":4369,"tran":4370,"herself":4371,"media":4372,"scene":4373,"west":4374,"ambi":4375,"deeper":4376,"professional":4377,"encies":4378,"label":4379,"veness":4380,"church":4381,"dau":4382,"zone":4383,"dancing":4384,"bought":4385,"pretend":4386,"bump":4387,"writer":4388,"shot":4389,"aspects":4390,"blow":4391,"cam":4392,"maint":4393,"chee":4394,"vote":4395,"visit":4396,"appeal":4397,"patterns":4398,"holy":4399,"taught":4400,"interview":4401,"attraction":4402,"butter":4403,"cape":4404,"mani":4405,"cares":4406,"interact":4407,"detail":4408,"convin":4409,"liking":4410,"ceed":4411,"perception":4412,"boo":4413,"standards":4414,"memories":4415,"maintain":4416,"nur":4417,"reflect":4418,"instant":4419,"inte":4420,"esteem":4421,"bothered":4422,"gift":4423,"brilliant":4424,"bby":4425,"elabor":4426,"poll":4427,"street":4428,"bling":4429,"daught":4430,"mirr":4431,"heren":4432,"castic":4433,"immature":4434,"logist":4435,"sarcastic":4436,"prep":4437,"ulate":4438,"provid":4439,"crack":4440,"classic":4441,"feminine":4442,"sw":4443,"heh":4444,"intri":4445,"valent":4446,"filled":4447,"atheist":4448,"ai":4449,"ode":4450,"states":4451,"deli":4452,"elling":4453,"recognize":4454,"uh":4455,"colour":4456,"35":4457,"analyze":4458,"activity":4459,"challeng":4460,"pissed":4461,"acquaint":4462,"reserved":4463,"techno":4464,"75":4465,"sched":4466,"cred":4467,"sand":4468,"ening":4469,"stim":4470,"leep":4471,"speed":4472,"clue":4473,"explaining":4474,"meh":4475,"haust":4476,"adult":4477,"advant":4478,"asleep":4479,"hyper":4480,"surprising":4481,"engineering":4482,"vulner":4483,"34":4484,"vert":4485,"exhaust":4486,"modern":4487,"explained":4488,"politics":4489,"battle":4490,"brown":4491,"pin":4492,"weed":4493,"superi":4494,"blunt":4495,"plays":4496,"humanity":4497,"vague":4498,"jesus":4499,"fool":4500,"stranger":4501,"confess":4502,"convinced":4503,"euro":4504,"curity":4505,"magic":4506,"65":4507,"friendships":4508,"mini":4509,"include":4510,"blame":4511,"xic":4512,"tradic":4513,"pian":4514,"polar":4515,"contradic":4516,"tray":4517,"compat":4518,"genius":4519,"turning":4520,"america":4521,"equal":4522,"fig":4523,"cling":4524,"cloud":4525,"fantastic":4526,"mistakes":4527,"belong":4528,"destro":4529,"opportunity":4530,"oriented":4531,"tat":4532,"enjoying":4533,"effective":4534,"creepy":4535,"nfs":4536,"continu":4537,"thri":4538,"provide":4539,"ferences":4540,"pride":4541,"risk":4542,"gor":4543,"mao":4544,"dir":4545,"ske":4546,"outgoing":4547,"realise":4548,"misunderstood":4549,"gged":4550,"creating":4551,"insecure":4552,"ology":4553,"park":4554,"levels":4555,"weather":4556,"ku":4557,"stage":4558,"button":4559,"laid":4560,"mascul":4561,"mellow":4562,"nin":4563,"broad":4564,"prior":4565,"protect":4566,"tren":4567,"fest":4568,"asshole":4569,"contribut":4570,"failed":4571,"dram":4572,"appropriate":4573,"lur":4574,"rate":4575,"calcul":4576,"appreciated":4577,"pleasant":4578,"activities":4579,"alternative":4580,"gust":4581,"arguing":4582,"shirt":4583,"independent":4584,"enthusi":4585,"schedu":4586,"superior":4587,"contemp":4588,"service":4589,"consciously":4590,"neuro":4591,"vill":4592,"joking":4593,"properly":4594,"dinner":4595,"hen":4596,"wand":4597,"calls":4598,"stream":4599,"swear":4600,"population":4601,"athetic":4602,"alo":4603,"hon":4604,"typo":4605,"cases":4606,"ppy":4607,"compass":4608,"scale":4609,"library":4610,"careful":4611,"frank":4612,"speech":4613,"ax":4614,"ified":4615,"heads":4616,"sadly":4617,"creativity":4618,"languages":4619,"irrational":4620,"tritype":4621,"deserve":4622,"episode":4623,"local":4624,"temperament":4625,"wide":4626,"astro":4627,"harsh":4628,"legal":4629,"arrogant":4630,"moun":4631,"mbo":4632,"tro":4633,"return":4634,"quir":4635,"97":4636,"code":4637,"aging":4638,"guessing":4639,"graphy":4640,"teaching":4641,"dick":4642,"forgive":4643,"wash":4644,"quot":4645,"final":4646,"shared":4647,"avail":4648,"government":4649,"hd":4650,"lmao":4651,"vac":4652,"adap":4653,"colors":4654,"voted":4655,"harm":4656,"doub":4657,"fighting":4658,"diagnosed":4659,"daughter":4660,"38":4661,"kiss":4662,"vey":4663,"trump":4664,"collect":4665,"leaning":4666,"threat":4667,"tears":4668,"engage":4669,"killing":4670,"feedback":4671,"aster":4672,"answered":4673,"narcis":4674,"wol":4675,"winter":4676,"loss":4677,"dev":4678,"shell":4679,"didnt":4680,"badly":4681,"bub":4682,"glass":4683,"planet":4684,"empty":4685,"explore":4686,"pack":4687,"pher":4688,"tree":4689,"stable":4690,"suit":4691,"options":4692,"cake":4693,"64":4694,"kis":4695,"acade":4696,"incre":4697,"bigger":4698,"bert":4699,"surprise":4700,"paying":4701,"pieces":4702,"otic":4703,"holi":4704,"sites":4705,"annoy":4706,"systems":4707,"numbers":4708,"ease":4709,"areas":4710,"size":4711,"managed":4712,"ware":4713,"reference":4714,"sees":4715,"demand":4716,"hobb":4717,"perceiving":4718,"pointless":4719,"intern":4720,"silence":4721,"adorable":4722,"cheese":4723,"piano":4724,"dying":4725,"prone":4726,"harry":4727,"originally":4728,"lete":4729,"tele":4730,"standing":4731,"lesson":4732,"harmon":4733,"staying":4734,"appears":4735,"refle":4736,"talks":4737,"expressing":4738,"studies":4739,"doors":4740,"shif":4741,"atest":4742,"stereotypical":4743,"accepted":4744,"mutual":4745,"ured":4746,"xnt":4747,"feelers":4748,"proof":4749,"senti":4750,"driven":4751,"shoes":4752,"yel":4753,"isol":4754,"leading":4755,"gifts":4756,"compare":4757,"greatest":4758,"mixed":4759,"particip":4760,"influence":4761,"false":4762,"rus":4763,"reve":4764,"update":4765,"logically":4766,"stub":4767,"signs":4768,"subjects":4769,"neigh":4770,"charge":4771,"pressing":4772,"faces":4773,"oooooooo":4774,"successful":4775,"tum":4776,"formed":4777,"feet":4778,"sum":4779,"max":4780,"quiz":4781,"hadn":4782,"sac":4783,"tone":4784,"vin":4785,"powerful":4786,"burn":4787,"circle":4788,"narcissist":4789,"sorts":4790,"tb":4791,"former":4792,"favorites":4793,"fictional":4794,"solid":4795,"ji":4796,"mately":4797,"capital":4798,"stressful":4799,"elaborate":4800,"stone":4801,"demon":4802,"justice":4803,"cried":4804,"german":4805,"roommate":4806,"gos":4807,"milit":4808,"gym":4809,"uuuu":4810,"mirror":4811,"hobbies":4812,"nel":4813,"nick":4814,"pants":4815,"behave":4816,"peoples":4817,"causes":4818,"leted":4819,"98":4820,"nd":4821,"reli":4822,"meat":4823,"ulations":4824,"brings":4825,"settle":4826,"vive":4827,"pers":4828,"seeking":4829,"singing":4830,"correctly":4831,"pleasure":4832,"flirt":4833,"hip":4834,"parano":4835,"marry":4836,"europe":4837,"rs":4838,"psychological":4839,"phrase":4840,"intrigu":4841,"doms":4842,"ride":4843,"guard":4844,"integr":4845,"han":4846,"tf":4847,"hah":4848,"ada":4849,"boys":4850,"gene":4851,"cris":4852,"warning":4853,"anese":4854,"cust":4855,"ront":4856,"ining":4857,"ened":4858,"aww":4859,"correlation":4860,"discussing":4861,"benefit":4862,"dit":4863,"ggling":4864,"patient":4865,"seconds":4866,"suppor":4867,"progress":4868,"gas":4869,"melan":4870,"leyes":4871,"ilt":4872,"interactions":4873,"entially":4874,"appearance":4875,"suffer":4876,"pra":4877,"uti":4878,"opposed":4879,"drives":4880,"resist":4881,"crimin":4882,"productive":4883,"available":4884,"tool":4885,"picking":4886,"crete":4887,"mistic":4888,"followed":4889,"spoken":4890,"wisdom":4891,"spark":4892,"wondered":4893,"condition":4894,"searching":4895,"rolleyes":4896,"regards":4897,"orange":4898,"worker":4899,"naire":4900,"scar":4901,"describes":4902,"alien":4903,"attached":4904,"gentle":4905,"range":4906,"sses":4907,"exper":4908,"anted":4909,"closed":4910,"symbo":4911,"artistic":4912,"students":4913,"painting":4914,"gal":4915,"sters":4916,"ulty":4917,"questionnaire":4918,"awww":4919,"answering":4920,"leads":4921,"grown":4922,"advantage":4923,"quotes":4924,"attend":4925,"concep":4926,"precise":4927,"desk":4928,"ength":4929,"expecting":4930,"brief":4931,"therapy":4932,"japanese":4933,"wikipedia":4934,"idi":4935,"trum":4936,"counts":4937,"sively":4938,"identity":4939,"polite":4940,"uck":4941,"chest":4942,"forth":4943,"docu":4944,"caused":4945,"spont":4946,"counsel":4947,"clai":4948,"dates":4949,"pit":4950,"sey":4951,"thinkers":4952,"desper":4953,"classical":4954,"analyzing":4955,"consequ":4956,"impul":4957,"stronger":4958,"screen":4959,"dangerous":4960,"pal":4961,"puts":4962,"bringing":4963,"mac":4964,"workers":4965,"describing":4966,"leaves":4967,"verbal":4968,"corner":4969,"opening":4970,"signature":4971,"meaningful":4972,"radio":4973,"gig":4974,"escape":4975,"ams":4976,"relatively":4977,"congrat":4978,"equally":4979,"74":4980,"ake":4981,"uk":4982,"standard":4983,"lower":4984,"folks":4985,"email":4986,"seven":4987,"bell":4988,"adhd":4989,"experiment":4990,"grey":4991,"freaking":4992,"grades":4993,"military":4994,"punch":4995,"bore":4996,"spring":4997,"choices":4998,"center":4999,"bottom":5000,"fro":5001,"tiny":5002,"iron":5003,"parent":5004,"suicide":5005,"stubborn":5006,"bill":5007,"scri":5008,"und":5009,"joined":5010,"ultimately":5011,"liberal":5012,"zen":5013,"compar":5014,"tendencies":5015,"built":5016,"product":5017,"potter":5018,"mistyped":5019,"mountain":5020,"pc":5021,"cooking":5022,"compliments":5023,"dge":5024,"unable":5025,"concrete":5026,"confront":5027,"glasses":5028,"quired":5029,"responsible":5030,"spontane":5031,"shape":5032,"famous":5033,"characteristics":5034,"requires":5035,"dor":5036,"gho":5037,"reminded":5038,"passed":5039,"suffering":5040,"determine":5041,"status":5042,"cousin":5043,"ffe":5044,"tes":5045,"xj":5046,"recall":5047,"exception":5048,"essentially":5049,"defined":5050,"accepting":5051,"78":5052,"plain":5053,"sis":5054,"worthy":5055,"bath":5056,"subtle":5057,"heavi":5058,"journal":5059,"efficient":5060,"tbh":5061,"tang":5062,"theme":5063,"ene":5064,"assign":5065,"hint":5066,"tie":5067,"doll":5068,"usions":5069,"bible":5070,"cream":5071,"distur":5072,"structure":5073,"authority":5074,"observation":5075,"melancho":5076,"idiot":5077,"plot":5078,"leon":5079,"sher":5080,"biased":5081,"patience":5082,"variety":5083,"resour":5084,"ugly":5085,"36":5086,"bf":5087,"sea":5088,"actor":5089,"idio":5090,"musical":5091,"dragon":5092,"associated":5093,"flaws":5094,"slo":5095,"task":5096,"reson":5097,"reasonable":5098,"empath":5099,"disappointed":5100,"spanish":5101,"thous":5102,"beer":5103,"notes":5104,"brit":5105,"cuz":5106,"balanced":5107,"messy":5108,"theore":5109,"veget":5110,"cop":5111,"ciple":5112,"sport":5113,"lessly":5114,"matically":5115,"traditional":5116,"thousand":5117,"bun":5118,"delete":5119,"lights":5120,"studied":5121,"distant":5122,"smoking":5123,"connections":5124,"insightful":5125,"nesses":5126,"zero":5127,"seme":5128,"tim":5129,"umble":5130,"angel":5131,"attract":5132,"regularly":5133,"phase":5134,"repeat":5135,"metaph":5136,"record":5137,"fru":5138,"poem":5139,"consistent":5140,"sir":5141,"shallow":5142,"paid":5143,"struggling":5144,"estjs":5145,"initially":5146,"masculine":5147,"assess":5148,"gosh":5149,"fulfill":5150,"held":5151,"puzz":5152,"motivated":5153,"manipulative":5154,"factors":5155,"routine":5156,"sla":5157,"thetic":5158,"ford":5159,"coll":5160,"whose":5161,"charming":5162,"separate":5163,"hence":5164,"iles":5165,"pse":5166,"reci":5167,"oring":5168,"wars":5169,"borderline":5170,"mare":5171,"ino":5172,"revol":5173,"nowhere":5174,"desig":5175,"greater":5176,"explains":5177,"philosoph":5178,"narrow":5179,"congrats":5180,"lam":5181,"forms":5182,"drug":5183,"crowd":5184,"48":5185,"heck":5186,"abs":5187,"ents":5188,"whats":5189,"parag":5190,"doesnt":5191,"responding":5192,"homework":5193,"david":5194,"porn":5195,"messages":5196,"projects":5197,"training":5198,"hidden":5199,"pursue":5200,"measure":5201,"assed":5202,"address":5203,"conserv":5204,"terti":5205,"hill":5206,"listed":5207,"authen":5208,"econom":5209,"custom":5210,"55":5211,"nie":5212,"wtf":5213,"expl":5214,"confir":5215,"cesses":5216,"tons":5217,"cudd":5218,"tertiary":5219,"stit":5220,"areness":5221,"principle":5222,"figuring":5223,"host":5224,"raph":5225,"surely":5226,"milk":5227,"shopping":5228,"camp":5229,"ration":5230,"ater":5231,"staring":5232,"poli":5233,"bob":5234,"craft":5235,"added":5236,"exciting":5237,"length":5238,"mathem":5239,"awareness":5240,"wont":5241,"corpor":5242,"hhh":5243,"treated":5244,"adore":5245,"observe":5246,"chicken":5247,"villain":5248,"ress":5249,"rot":5250,"absor":5251,"films":5252,"teenager":5253,"mc":5254,"arter":5255,"ups":5256,"spic":5257,"blah":5258,"effects":5259,"budd":5260,"bothers":5261,"glo":5262,"sincerely":5263,"ski":5264,"hurting":5265,"machine":5266,"hiding":5267,"perceived":5268,"zomb":5269,"eve":5270,"coura":5271,"professor":5272,"convince":5273,"competitive":5274,"overwhelming":5275,"request":5276,"ablish":5277,"trig":5278,"horror":5279,"authentic":5280,"seve":5281,"abilities":5282,"showed":5283,"cars":5284,"boundaries":5285,"technology":5286,"compassion":5287,"bil":5288,"wil":5289,"feat":5290,"poke":5291,"concent":5292,"establish":5293,"silent":5294,"panic":5295,"kets":5296,"shel":5297,"ults":5298,"genre":5299,"humour":5300,"legit":5301,"gic":5302,"trolling":5303,"nightmare":5304,"developing":5305,"suggestions":5306,"biology":5307,"spre":5308,"cost":5309,"copy":5310,"powers":5311,"raven":5312,"intuitives":5313,"photos":5314,"strategy":5315,"96":5316,"illness":5317,"survive":5318,"randomly":5319,"claw":5320,"mous":5321,"nit":5322,"stars":5323,"merely":5324,"holes":5325,"consu":5326,"prevent":5327,"marily":5328,"bias":5329,"sadness":5330,"south":5331,"agnostic":5332,"paragraph":5333,"dim":5334,"sity":5335,"tw":5336,"ret":5337,"preferences":5338,"infin":5339,"surface":5340,"difficulty":5341,"initial":5342,"morality":5343,"innocent":5344,"sole":5345,"percent":5346,"player":5347,"buying":5348,"nia":5349,"actively":5350,"clarify":5351,"reveal":5352,"equi":5353,"hook":5354,"epic":5355,"tribut":5356,"inclined":5357,"responsibility":5358,"overwhelmed":5359,"intended":5360,"tast":5361,"pointed":5362,"clever":5363,"attach":5364,"schedule":5365,"fx":5366,"bitter":5367,"mission":5368,"screw":5369,"heavily":5370,"esfps":5371,"edge":5372,"neat":5373,"nights":5374,"bottle":5375,"relie":5376,"ham":5377,"daydream":5378,"matur":5379,"block":5380,"artists":5381,"insult":5382,"cell":5383,"drea":5384,"assumed":5385,"heaven":5386,"strengths":5387,"adventure":5388,"ninja":5389,"tumbl":5390,"semester":5391,"camer":5392,"omy":5393,"sim":5394,"plat":5395,"consciousness":5396,"surrounded":5397,"concepts":5398,"46":5399,"loose":5400,"presence":5401,"experiencing":5402,"ordin":5403,"typology":5404,"rebel":5405,"chances":5406,"robot":5407,"oblig":5408,"chem":5409,"laughed":5410,"structive":5411,"intentions":5412,"literature":5413,"transl":5414,"category":5415,"tattoo":5416,"eli":5417,"xst":5418,"poster":5419,"occup":5420,"ification":5421,"commitment":5422,"technically":5423,"meditation":5424,"ibility":5425,"pill":5426,"reck":5427,"icor":5428,"indust":5429,"goodness":5430,"countries":5431,"growth":5432,"kno":5433,"pup":5434,"rings":5435,"amusing":5436,"voc":5437,"emplo":5438,"included":5439,"vulnerable":5440,"expert":5441,"conservative":5442,"29":5443,"lunch":5444,"tips":5445,"compre":5446,"mmmm":5447,"shower":5448,"apple":5449,"sly":5450,"tall":5451,"cancer":5452,"dump":5453,"statements":5454,"links":5455,"discussions":5456,"congratulations":5457,"gers":5458,"rd":5459,"abuse":5460,"ury":5461,"differ":5462,"sens":5463,"smiling":5464,"purple":5465,"idealistic":5466,"practically":5467,"grammar":5468,"therapist":5469,"embarrass":5470,"dynamic":5471,"uce":5472,"ambit":5473,"tail":5474,"puff":5475,"debating":5476,"incredible":5477,"philosophical":5478,"maturity":5479,"bang":5480,"ey":5481,"lor":5482,"controlling":5483,"facial":5484,"refuse":5485,"elementary":5486,"gard":5487,"pul":5488,"swed":5489,"usive":5490,"lest":5491,"cycle":5492,"walls":5493,"kar":5494,"nine":5495,"sne":5496,"beings":5497,"phones":5498,"gian":5499,"swee":5500,"guilt":5501,"intentionally":5502,"tumblr":5503,"tac":5504,"finan":5505,"granted":5506,"offense":5507,"confusion":5508,"breath":5509,"romantically":5510,"periods":5511,"mysterious":5512,"dramatic":5513,"ixt":5514,"rejection":5515,"geor":5516,"guid":5517,"stern":5518,"crash":5519,"concern":5520,"satisfied":5521,"convention":5522,"determined":5523,"bin":5524,"osing":5525,"beach":5526,"arms":5527,"contain":5528,"catho":5529,"tax":5530,"realizing":5531,"images":5532,"frustration":5533,"received":5534,"sherlock":5535,"piz":5536,"alpha":5537,"ideals":5538,"sociopath":5539,"morals":5540,"applies":5541,"cyn":5542,"shitty":5543,"visible":5544,"queen":5545,"manipulation":5546,"banned":5547,"ignorant":5548,"distracted":5549,"automatically":5550,"evolution":5551,"mathemat":5552,"catholic":5553,"lun":5554,"thy":5555,"thin":5556,"reactions":5557,"fears":5558,"applic":5559,"superficial":5560,"extroversion":5561,"massive":5562,"floor":5563,"oops":5564,"tori":5565,"devil":5566,"shar":5567,"questioning":5568,"obli":5569,"listened":5570,"chaos":5571,"allows":5572,"weakness":5573,"bru":5574,"itor":5575,"xs":5576,"attribut":5577,"grate":5578,"survi":5579,"focusing":5580,"addicted":5581,"inspired":5582,"neighbor":5583,"aim":5584,"dare":5585,"ec":5586,"zes":5587,"lee":5588,"compan":5589,"jeans":5590,"ignoring":5591,"graduate":5592,"eight":5593,"asper":5594,"versus":5595,"perform":5596,"ahh":5597,"cruel":5598,"includes":5599,"trees":5600,"texting":5601,"finger":5602,"37":5603,"47":5604,"lim":5605,"urge":5606,"whereas":5607,"hahah":5608,"rainbow":5609,"report":5610,"virgin":5611,"thorough":5612,"failure":5613,"firmation":5614,"official":5615,"disney":5616,"ctions":5617,"pray":5618,"checked":5619,"spread":5620,"hall":5621,"thr":5622,"stack":5623,"soo":5624,"ching":5625,"access":5626,"motive":5627,"fundam":5628,"babies":5629,"testing":5630,"greatly":5631,"articles":5632,"entertaining":5633,"fundament":5634,"austr":5635,"fed":5636,"elled":5637,"unknown":5638,"exclu":5639,"fucked":5640,"apartment":5641,"skep":5642,"harmony":5643,"pizza":5644,"gf":5645,"inheren":5646,"required":5647,"began":5648,"solit":5649,"format":5650,"lists":5651,"sugar":5652,"hitler":5653,"journey":5654,"paranoid":5655,"piss":5656,"demo":5657,"nowad":5658,"aka":5659,"nerd":5660,"preferred":5661,"walked":5662,"frame":5663,"astrology":5664,"antly":5665,"partners":5666,"scores":5667,"witty":5668,"conclusions":5669,"pushing":5670,"boat":5671,"fox":5672,"clash":5673,"mono":5674,"pics":5675,"stimul":5676,"nowadays":5677,"mask":5678,"native":5679,"encourage":5680,"tight":5681,"cher":5682,"unusual":5683,"offensive":5684,"serve":5685,"medical":5686,"emphas":5687,"virt":5688,"dirty":5689,"ev":5690,"hates":5691,"atory":5692,"ables":5693,"realised":5694,"aken":5695,"steal":5696,"aaaaaaaa":5697,"immediate":5698,"cynical":5699,"bite":5700,"nostal":5701,"llll":5702,"friday":5703,"evening":5704,"believing":5705,"walks":5706,"programming":5707,"killed":5708,"rated":5709,"named":5710,"giant":5711,"plane":5712,"suggested":5713,"austral":5714,"oned":5715,"keys":5716,"pets":5717,"naive":5718,"believed":5719,"impact":5720,"miles":5721,"chaotic":5722,"avoiding":5723,"flash":5724,"graphic":5725,"44":5726,"cated":5727,"err":5728,"bered":5729,"construct":5730,"woke":5731,"bia":5732,"acceptable":5733,"yyyy":5734,"macy":5735,"pla":5736,"ami":5737,"processes":5738,"generation":5739,"brothers":5740,"bands":5741,"ultimate":5742,"buddy":5743,"cket":5744,"sin":5745,"tan":5746,"stance":5747,"sets":5748,"rose":5749,"sometime":5750,"vivid":5751,"imate":5752,"thoughtful":5753,"ished":5754,"steps":5755,"market":5756,"restaur":5757,"manipulate":5758,"relaxed":5759,"police":5760,"dut":5761,"ray":5762,"enlight":5763,"homo":5764,"ounce":5765,"ppl":5766,"disgust":5767,"udes":5768,"blings":5769,"inser":5770,"inese":5771,"miser":5772,"brand":5773,"breakfast":5774,"suggestion":5775,"faster":5776,"initiate":5777,"jerk":5778,"contribute":5779,"ghost":5780,"32":5781,"cards":5782,"ades":5783,"agger":5784,"talkative":5785,"interviews":5786,"functional":5787,"solving":5788,"shoo":5789,"sjs":5790,"acquaintances":5791,"vast":5792,"shine":5793,"messed":5794,"judgement":5795,"auxili":5796,"ponder":5797,"credit":5798,"confirmed":5799,"phe":5800,"chess":5801,"chuck":5802,"expressed":5803,"hibit":5804,"aff":5805,"intimidating":5806,"compatible":5807,"yellow":5808,"russi":5809,"nose":5810,"chinese":5811,"lover":5812,"robo":5813,"seemingly":5814,"secondary":5815,"twist":5816,"hesit":5817,"obsession":5818,"bic":5819,"compe":5820,"grab":5821,"desc":5822,"solved":5823,"primarily":5824,"spectrum":5825,"greeting":5826,"teens":5827,"technical":5828,"tune":5829,"auxiliary":5830,"rick":5831,"wine":5832,"ann":5833,"encoura":5834,"dete":5835,"depressing":5836,"divor":5837,"ffy":5838,"ceptions":5839,"horri":5840,"violence":5841,"accidentally":5842,"rise":5843,"irrelevant":5844,"fran":5845,"annoys":5846,"strikes":5847,"murder":5848,"promise":5849,"utions":5850,"isms":5851,"habits":5852,"location":5853,"worries":5854,"relating":5855,"senior":5856,"cookies":5857,"gossi":5858,"jam":5859,"security":5860,"smoo":5861,"channel":5862,"assumption":5863,"wolf":5864,"ravenclaw":5865,"ctiv":5866,"vice":5867,"sensit":5868,"afterwards":5869,"bipolar":5870,"purely":5871,"mystery":5872,"contrast":5873,"ially":5874,"mild":5875,"vary":5876,"unte":5877,"conform":5878,"cipl":5879,"sphere":5880,"discipl":5881,"understands":5882,"cents":5883,"replied":5884,"bene":5885,"fixed":5886,"responded":5887,"pac":5888,"cock":5889,"clothing":5890,"interacting":5891,"socializing":5892,"lands":5893,"cleaning":5894,"associate":5895,"management":5896,"rooms":5897,"hungry":5898,"sacri":5899,"dual":5900,"flying":5901,"ooh":5902,"anda":5903,"lif":5904,"unlike":5905,"kindness":5906,"pointing":5907,"hearted":5908,"lacking":5909,"sche":5910,"remo":5911,"covered":5912,"taint":5913,"manager":5914,"highest":5915,"hardest":5916,"competent":5917,"observations":5918,"crisis":5919,"grateful":5920,"aqu":5921,"ald":5922,"sooo":5923,"acknowledge":5924,"height":5925,"absur":5926,"guide":5927,"split":5928,"impress":5929,"sounded":5930,"rub":5931,"cheer":5932,"latter":5933,"satur":5934,"worrying":5935,"ladies":5936,"jumping":5937,"interpretation":5938,"inspiration":5939,"clingy":5940,"58":5941,"gee":5942,"histor":5943,"highschool":5944,"luc":5945,"volunte":5946,"laws":5947,"defense":5948,"objects":5949,"68":5950,"ox":5951,"hobby":5952,"choosing":5953,"checking":5954,"vocal":5955,"ignored":5956,"dedic":5957,"oce":5958,"aband":5959,"adjust":5960,"marks":5961,"handed":5962,"applied":5963,"reached":5964,"optimistic":5965,"bod":5966,"ws":5967,"andro":5968,"whil":5969,"goof":5970,"teeth":5971,"proven":5972,"species":5973,"opened":5974,"balls":5975,"observing":5976,"slyther":5977,"whilst":5978,"sold":5979,"pep":5980,"weir":5981,"canada":5982,"ssss":5983,"north":5984,"tural":5985,"aaa":5986,"nuts":5987,"cel":5988,"fond":5989,"lab":5990,"national":5991,"ption":5992,"verb":5993,"venge":5994,"mindset":5995,"shake":5996,"expensive":5997,"noticing":5998,"longest":5999,"fingers":6000,"assertive":6001,"reliable":6002,"bond":6003,"mbered":6004,"persona":6005,"stands":6006,"grasp":6007,"shoot":6008,"practic":6009,"consistently":6010,"pisses":6011,"ignorance":6012,"shirts":6013,"chemical":6014,"rab":6015,"receiving":6016,"noise":6017,"phen":6018,"playful":6019,"remembered":6020,"isnt":6021,"pessi":6022,"ogy":6023,"xual":6024,"replying":6025,"throwing":6026,"benefits":6027,"infinite":6028,"george":6029,"lou":6030,"arri":6031,"liz":6032,"coinc":6033,"drum":6034,"falls":6035,"dict":6036,"linked":6037,"kitty":6038,"directed":6039,"methods":6040,"resources":6041,"metaphor":6042,"nox":6043,"outs":6044,"tear":6045,"relates":6046,"ffle":6047,"mmm":6048,"appreciation":6049,"fitting":6050,"involve":6051,"episod":6052,"leadership":6053,"dred":6054,"jk":6055,"nast":6056,"acity":6057,"finds":6058,"hearts":6059,"horse":6060,"nonsense":6061,"touching":6062,"committed":6063,"grocer":6064,"terribly":6065,"procrastination":6066,"manifest":6067,"narcissistic":6068,"rew":6069,"envy":6070,"pee":6071,"deleted":6072,"western":6073,"ironic":6074,"pool":6075,"whoever":6076,"cared":6077,"mistaken":6078,"sentences":6079,"weaknesses":6080,"secretly":6081,"laptop":6082,"bread":6083,"eliness":6084,"formal":6085,"degre":6086,"rape":6087,"foreign":6088,"cheap":6089,"advance":6090,"magical":6091,"picky":6092,"drinks":6093,"iiii":6094,"comparison":6095,"iders":6096,"sig":6097,"shru":6098,"comedy":6099,"izes":6100,"employ":6101,"existential":6102,"styles":6103,"decisive":6104,"placed":6105,"psychopath":6106,"storm":6107,"hypothe":6108,"assumptions":6109,"exploring":6110,"camera":6111,"slytherin":6112,"overcome":6113,"blank":6114,"burst":6115,"grandmother":6116,"tastes":6117,"smooth":6118,"degrees":6119,"stalk":6120,"som":6121,"liar":6122,"butt":6123,"possess":6124,"driver":6125,"mentality":6126,"movement":6127,"valuable":6128,"involves":6129,"skype":6130,"intimate":6131,"peaceful":6132,"loneliness":6133,"apologies":6134,"ethical":6135,"texts":6136,"instantly":6137,"provided":6138,"contempl":6139,"spontaneous":6140,"77":6141,"dies":6142,"mill":6143,"reward":6144,"error":6145,"melo":6146,"seat":6147,"lem":6148,"unhappy":6149,"endless":6150,"offend":6151,"planned":6152,"imaginary":6153,"siblings":6154,"daydreaming":6155,"fold":6156,"comprom":6157,"nail":6158,"awake":6159,"medium":6160,"sexuality":6161,"sales":6162,"strike":6163,"hosp":6164,"raise":6165,"saving":6166,"bomb":6167,"clock":6168,"dependent":6169,"numer":6170,"hundred":6171,"brave":6172,"thesis":6173,"football":6174,"surprisingly":6175,"precisely":6176,"hou":6177,"tasks":6178,"whis":6179,"elds":6180,"roles":6181,"pod":6182,"exten":6183,"cave":6184,"worlds":6185,"licit":6186,"insights":6187,"insert":6188,"noxious":6189,"rein":6190,"makeup":6191,"dicho":6192,"partly":6193,"expand":6194,"breaks":6195,"sensory":6196,"potentially":6197,"episodes":6198,"bye":6199,"sno":6200,"vamp":6201,"anony":6202,"admin":6203,"spell":6204,"rights":6205,"schools":6206,"chap":6207,"sensitivity":6208,"absurd":6209,"tied":6210,"forgotten":6211,"spam":6212,"angle":6213,"obnoxious":6214,"dressed":6215,"souls":6216,"perspectives":6217,"traveling":6218,"schiz":6219,"boredom":6220,"42":6221,"kin":6222,"muse":6223,"betray":6224,"lolo":6225,"depart":6226,"adults":6227,"cient":6228,"paral":6229,"smith":6230,"crime":6231,"bike":6232,"addition":6233,"stomach":6234,"embarrassed":6235,"adapt":6236,"egg":6237,"inn":6238,"outward":6239,"exe":6240,"pron":6241,"minim":6242,"sincere":6243,"smarter":6244,"shown":6245,"cali":6246,"chair":6247,"debates":6248,"maths":6249,"embrace":6250,"unicor":6251,"believes":6252,"psychologist":6253,"emer":6254,"wwww":6255,"statistics":6256,"destroy":6257,"shift":6258,"twin":6259,"bee":6260,"termin":6261,"smaller":6262,"chase":6263,"teenage":6264,"admitted":6265,"batman":6266,"intimacy":6267,"delicious":6268,"reflection":6269,"len":6270,"lly":6271,"mass":6272,"rp":6273,"assist":6274,"peter":6275,"ours":6276,"expressions":6277,"alike":6278,"previously":6279,"predictable":6280,"geek":6281,"theres":6282,"spider":6283,"senses":6284,"confuse":6285,"creation":6286,"importance":6287,"darkness":6288,"meaningless":6289,"portion":6290,"supposedly":6291,"occasions":6292,"sources":6293,"bubble":6294,"retard":6295,"54":6296,"aes":6297,"mir":6298,"wings":6299,"semi":6300,"beg":6301,"army":6302,"noon":6303,"expressive":6304,"honey":6305,"ocd":6306,"detailed":6307,"bullied":6308,"violent":6309,"thrown":6310,"japan":6311,"loyalty":6312,"gare":6313,"mart":6314,"thur":6315,"encoun":6316,"root":6317,"exagger":6318,"spin":6319,"umm":6320,"mming":6321,"brains":6322,"detached":6323,"trend":6324,"atmo":6325,"ators":6326,"tire":6327,"ints":6328,"someday":6329,"counting":6330,"identified":6331,"fancy":6332,"scientist":6333,"opportunities":6334,"candy":6335,"rejected":6336,"lucid":6337,"stating":6338,"neck":6339,"comic":6340,"ache":6341,"naked":6342,"certaint":6343,"sorta":6344,"cheating":6345,"carto":6346,"micha":6347,"severe":6348,"oblivious":6349,"67":6350,"iat":6351,"anthro":6352,"asha":6353,"soooo":6354,"poses":6355,"dreamer":6356,"remembering":6357,"latest":6358,"holiday":6359,"theoretical":6360,"attachment":6361,"vampire":6362,"62":6363,"bach":6364,"stumble":6365,"island":6366,"tip":6367,"scrat":6368,"hopeless":6369,"spoke":6370,"tempor":6371,"princess":6372,"prepared":6373,"claims":6374,"gaming":6375,"pil":6376,"abusive":6377,"weigh":6378,"irony":6379,"promo":6380,"diet":6381,"monster":6382,"closely":6383,"childish":6384,"sexually":6385,"considerate":6386,"distin":6387,"stayed":6388,"idealist":6389,"cultural":6390,"certainty":6391,"athing":6392,"nation":6393,"zel":6394,"asm":6395,"tific":6396,"creatures":6397,"runs":6398,"intensity":6399,"apparent":6400,"surroundings":6401,"victim":6402,"judgmental":6403,"kat":6404,"perman":6405,"interrup":6406,"badass":6407,"enjoyable":6408,"handwriting":6409,"fallen":6410,"energ":6411,"finishing":6412,"flowers":6413,"affects":6414,"moderate":6415,"pokemon":6416,"bid":6417,"pity":6418,"tch":6419,"youth":6420,"cauti":6421,"saved":6422,"persons":6423,"illogical":6424,"inevit":6425,"centric":6426,"adding":6427,"touched":6428,"communicating":6429,"photography":6430,"affected":6431,"challenging":6432,"brush":6433,"lement":6434,"tick":6435,"map":6436,"solutions":6437,"deny":6438,"gifted":6439,"oddly":6440,"loaded":6441,"draining":6442,"thrill":6443,"vacation":6444,"lessons":6445,"consequences":6446,"michael":6447,"bast":6448,"gid":6449,"theless":6450,"lip":6451,"versa":6452,"unnecessary":6453,"sums":6454,"iring":6455,"cade":6456,"spelling":6457,"pushed":6458,"flower":6459,"repeated":6460,"jane":6461,"las":6462,"meal":6463,"bes":6464,"withdraw":6465,"indul":6466,"everytime":6467,"empathetic":6468,"succeed":6469,"adox":6470,"inspire":6471,"ctivity":6472,"ocean":6473,"notion":6474,"suspic":6475,"usa":6476,"essay":6477,"blan":6478,"publ":6479,"attempting":6480,"vibes":6481,"influen":6482,"cope":6483,"causing":6484,"affirmation":6485,"relations":6486,"paradox":6487,"venting":6488,"larger":6489,"defend":6490,"potato":6491,"observed":6492,"software":6493,"vegetarian":6494,"bc":6495,"junk":6496,"inge":6497,"stab":6498,"stain":6499,"sele":6500,"default":6501,"whoa":6502,"struck":6503,"burden":6504,"deciding":6505,"fights":6506,"xxxx":6507,"james":6508,"salt":6509,"struggled":6510,"birds":6511,"appealing":6512,"gate":6513,"thom":6514,"chart":6515,"anytime":6516,"izations":6517,"waking":6518,"skip":6519,"capacity":6520,"accurately":6521,"crushes":6522,"predict":6523,"tolerate":6524,"intriguing":6525,"conventional":6526,"evalu":6527,"iency":6528,"beast":6529,"mobi":6530,"ante":6531,"shor":6532,"needing":6533,"omen":6534,"ethics":6535,"slip":6536,"prepare":6537,"frankly":6538,"compreh":6539,"kore":6540,"ension":6541,"outcome":6542,"justify":6543,"comfor":6544,"charis":6545,"affectionate":6546,"quirky":6547,"financial":6548,"gam":6549,"ump":6550,"rey":6551,"resent":6552,"chen":6553,"unlikely":6554,"gray":6555,"grace":6556,"gia":6557,"excite":6558,"fairy":6559,"engaged":6560,"holds":6561,"passing":6562,"kitten":6563,"researching":6564,"jazz":6565,"joining":6566,"eeeeeeee":6567,"windows":6568,"bathroom":6569,"corporate":6570,"miserable":6571,"aid":6572,"fab":6573,"rhy":6574,"uri":6575,"thum":6576,"inven":6577,"orp":6578,"intent":6579,"weal":6580,"subconscious":6581,"techni":6582,"relaxing":6583,"procrastinate":6584,"supportive":6585,"melancholy":6586,"fruit":6587,"84":6588,"bass":6589,"gir":6590,"peers":6591,"reads":6592,"spa":6593,"oldest":6594,"posing":6595,"dropped":6596,"complaining":6597,"gossip":6598,"shes":6599,"impressed":6600,"clin":6601,"humble":6602,"bran":6603,"shock":6604,"scenes":6605,"wasting":6606,"universal":6607,"competition":6608,"micro":6609,"graduated":6610,"scenarios":6611,"cough":6612,"pig":6613,"ancient":6614,"happier":6615,"uded":6616,"huffle":6617,"sisters":6618,"discussed":6619,"climb":6620,"organization":6621,"combined":6622,"psychiat":6623,"flex":6624,"utterly":6625,"toms":6626,"socks":6627,"agon":6628,"definitions":6629,"curse":6630,"behaviors":6631,"winning":6632,"encyclo":6633,"loads":6634,"wedding":6635,"imagining":6636,"categor":6637,"australia":6638,"greetings":6639,"gry":6640,"insensitive":6641,"encounter":6642,"ads":6643,"ahhh":6644,"price":6645,"similarities":6646,"archite":6647,"burning":6648,"arrogance":6649,"hits":6650,"jim":6651,"yi":6652,"beth":6653,"asian":6654,"opposit":6655,"lame":6656,"comparing":6657,"shoulder":6658,"forest":6659,"headed":6660,"gery":6661,"collection":6662,"gigg":6663,"sneak":6664,"restaurant":6665,"hufflepuff":6666,"getic":6667,"pregn":6668,"ister":6669,"fields":6670,"hardcore":6671,"mism":6672,"bug":6673,"nihi":6674,"consideration":6675,"collea":6676,"profound":6677,"stupidity":6678,"amounts":6679,"analytical":6680,"release":6681,"punish":6682,"medication":6683,"strict":6684,"pulled":6685,"phenomen":6686,"grocery":6687,"atmosphere":6688,"flight":6689,"punk":6690,"thern":6691,"tering":6692,"happily":6693,"imply":6694,"singer":6695,"wave":6696,"wishes":6697,"portray":6698,"acceptance":6699,"connecting":6700,"garden":6701,"nasty":6702,"bac":6703,"dys":6704,"hr":6705,"vable":6706,"wra":6707,"thir":6708,"arche":6709,"joys":6710,"trapped":6711,"advanced":6712,"quoted":6713,"occasional":6714,"loner":6715,"disorders":6716,"introduced":6717,"target":6718,"opposites":6719,"cles":6720,"ras":6721,"wound":6722,"sible":6723,"spac":6724,"rent":6725,"disrespect":6726,"emoji":6727,"command":6728,"luckily":6729,"positions":6730,"jungian":6731,"biological":6732,"snap":6733,"ridiculously":6734,"survival":6735,"democr":6736,"hospital":6737,"gross":6738,"jan":6739,"jac":6740,"mund":6741,"yer":6742,"legs":6743,"forman":6744,"dos":6745,"caffe":6746,"display":6747,"pretending":6748,"izar":6749,"amongst":6750,"contrary":6751,"irritated":6752,"electronic":6753,"lurking":6754,"academic":6755,"cautious":6756,"jon":6757,"replace":6758,"repet":6759,"unexpected":6760,"quant":6761,"prison":6762,"afternoon":6763,"ceptive":6764,"ears":6765,"extravert":6766,"addiction":6767,"doubts":6768,"embarrassing":6769,"mobile":6770,"gryf":6771,"88":6772,"ik":6773,"vity":6774,"zzy":6775,"aty":6776,"eric":6777,"performan":6778,"iler":6779,"illusion":6780,"chosen":6781,"genes":6782,"consci":6783,"nicely":6784,"applying":6785,"mainstream":6786,"faced":6787,"idealism":6788,"computers":6789,"tradition":6790,"failing":6791,"obsessive":6792,"cit":6793,"hating":6794,"mble":6795,"nap":6796,"pier":6797,"zon":6798,"insist":6799,"inability":6800,"toxic":6801,"robert":6802,"sie":6803,"lifestyle":6804,"print":6805,"genres":6806,"careers":6807,"bugs":6808,"brut":6809,"scream":6810,"ughter":6811,"pursuing":6812,"flawed":6813,"guesses":6814,"bolded":6815,"holidays":6816,"bust":6817,"fb":6818,"invisible":6819,"moves":6820,"holic":6821,"proceed":6822,"firstly":6823,"missive":6824,"centered":6825,"cheek":6826,"easiest":6827,"paul":6828,"england":6829,"matches":6830,"attacks":6831,"xnfp":6832,"industry":6833,"architect":6834,"dust":6835,"faction":6836,"flies":6837,"lust":6838,"select":6839,"esy":6840,"ques":6841,"sounding":6842,"trave":6843,"waves":6844,"dub":6845,"desires":6846,"chatting":6847,"instrument":6848,"exhausted":6849,"nis":6850,"idal":6851,"trash":6852,"woo":6853,"dealt":6854,"touchy":6855,"wasted":6856,"poems":6857,"procrastinating":6858,"internally":6859,"zombie":6860,"motives":6861,"verbally":6862,"gryffind":6863,"eu":6864,"alex":6865,"lia":6866,"forcing":6867,"deliber":6868,"guar":6869,"hier":6870,"needy":6871,"manga":6872,"lasted":6873,"dull":6874,"insulting":6875,"aloof":6876,"trigger":6877,"encyclopedia":6878,"dang":6879,"fif":6880,"inity":6881,"motor":6882,"cos":6883,"items":6884,"killer":6885,"controlled":6886,"grandma":6887,"golden":6888,"exhausting":6889,"bis":6890,"rum":6891,"rese":6892,"revenge":6893,"forgetting":6894,"weap":6895,"tag":6896,"cigare":6897,"woah":6898,"posters":6899,"afford":6900,"misunderstanding":6901,"cheated":6902,"germany":6903,"sunday":6904,"protective":6905,"frequent":6906,"pulling":6907,"officially":6908,"assessment":6909,"ases":6910,"fers":6911,"uma":6912,"yor":6913,"zi":6914,"ingu":6915,"soever":6916,"decl":6917,"dol":6918,"indif":6919,"istically":6920,"socialize":6921,"writers":6922,"lecture":6923,"slam":6924,"owl":6925,"idiots":6926,"british":6927,"global":6928,"sharp":6929,"saturday":6930,"fs":6931,"jen":6932,"incorrect":6933,"willi":6934,"fered":6935,"river":6936,"bless":6937,"grass":6938,"carefully":6939,"crave":6940,"hugging":6941,"speaks":6942,"flip":6943,"invited":6944,"instinctual":6945,"clouds":6946,"discipline":6947,"ashamed":6948,"excitement":6949,"gryffindor":6950,"500":6951,"ilies":6952,"ziness":6953,"refresh":6954,"chr":6955,"pest":6956,"goo":6957,"united":6958,"sucked":6959,"percei":6960,"exchange":6961,"confirm":6962,"pros":6963,"cheat":6964,"corn":6965,"creates":6966,"screwed":6967,"partially":6968,"ixfp":6969,"terrified":6970,"interpreted":6971,"remote":6972,"31":6973,"39":6974,"fans":6975,"oil":6976,"swit":6977,"atu":6978,"keir":6979,"heat":6980,"fet":6981,"ifying":6982,"tools":6983,"learnt":6984,"chain":6985,"clubs":6986,"cookie":6987,"largely":6988,"intellectually":6989,"swimming":6990,"talented":6991,"participate":6992,"document":6993,"desperate":6994,"fundamental":6995,"russian":6996,"tling":6997,"remark":6998,"whatsoever":6999,"raw":7000,"rence":7001,"fjs":7002,"irect":7003,"captain":7004,"insecurity":7005,"enthusiasm":7006,"intrigued":7007,"principles":7008,"aunt":7009,"thick":7010,"remove":7011,"theat":7012,"ende":7013,"isa":7014,"locked":7015,"advert":7016,"entit":7017,"tery":7018,"sage":7019,"defining":7020,"implying":7021,"mari":7022,"president":7023,"stores":7024,"presented":7025,"hitting":7026,"defensive":7027,"fascinated":7028,"sympathy":7029,"hatred":7030,"impulsive":7031,"inherently":7032,"pir":7033,"pus":7034,"sket":7035,"sending":7036,"vegan":7037,"rip":7038,"intend":7039,"ung":7040,"blur":7041,"openly":7042,"douche":7043,"analogy":7044,"italian":7045,"invite":7046,"square":7047,"symptoms":7048,"perfectionist":7049,"disturbing":7050,"department":7051,"caffeine":7052,"cow":7053,"ril":7054,"ulated":7055,"cil":7056,"illustr":7057,"ruin":7058,"exams":7059,"visiting":7060,"bedroom":7061,"roller":7062,"suggesting":7063,"allowing":7064,"flix":7065,"element":7066,"sufficient":7067,"designed":7068,"52":7069,"rice":7070,"station":7071,"sooooo":7072,"dece":7073,"hoo":7074,"relat":7075,"dip":7076,"commonly":7077,"gods":7078,"damage":7079,"moods":7080,"secrets":7081,"instincts":7082,"features":7083,"limits":7084,"thoroughly":7085,"duty":7086,"minimal":7087,"bie":7088,"east":7089,"iveness":7090,"itarian":7091,"lian":7092,"tiveness":7093,"lovers":7094,"lling":7095,"afric":7096,"nails":7097,"breathe":7098,"netflix":7099,"philosopher":7100,"introduce":7101,"nnnn":7102,"eternal":7103,"gap":7104,"rising":7105,"invent":7106,"forces":7107,"sheep":7108,"oooh":7109,"commer":7110,"wouldnt":7111,"basket":7112,"sticking":7113,"elements":7114,"scares":7115,"libert":7116,"psychic":7117,"richard":7118,"discovering":7119,"washing":7120,"counselor":7121,"absorbed":7122,"goofy":7123,"knight":7124,"pd":7125,"plast":7126,"myth":7127,"iciency":7128,"hem":7129,"condesc":7130,"odi":7131,"extended":7132,"smiles":7133,"shakes":7134,"purposes":7135,"clicked":7136,"extraversion":7137,"processing":7138,"kitchen":7139,"straightforward":7140,"adop":7141,"bully":7142,"digital":7143,"novels":7144,"selling":7145,"gorge":7146,"honor":7147,"mathematics":7148,"skeptical":7149,"01":7150,"gil":7151,"lash":7152,"align":7153,"uncle":7154,"conspir":7155,"essential":7156,"spiders":7157,"grin":7158,"differenti":7159,"advise":7160,"courses":7161,"cutting":7162,"2000":7163,"satisfying":7164,"seasons":7165,"pairing":7166,"throat":7167,"yoga":7168,"medicine":7169,"tolerance":7170,"influenced":7171,"dread":7172,"tab":7173,"removed":7174,"ston":7175,"ari":7176,"mod":7177,"shout":7178,"premis":7179,"ula":7180,"illa":7181,"charm":7182,"drag":7183,"chame":7184,"literal":7185,"drown":7186,"produce":7187,"guessed":7188,"lips":7189,"maker":7190,"grud":7191,"realization":7192,"scat":7193,"nife":7194,"mile":7195,"archy":7196,"strangely":7197,"grounded":7198,"narc":7199,"attempts":7200,"satisfaction":7201,"engineer":7202,"entertainment":7203,"woods":7204,"improvement":7205,"investig":7206,"gathering":7207,"prag":7208,"empathize":7209,"billion":7210,"solely":7211,"ordinary":7212,"bodies":7213,"houses":7214,"56":7215,"cab":7216,"dwell":7217,"juni":7218,"iter":7219,"colo":7220,"unfair":7221,"unrelated":7222,"suits":7223,"ural":7224,"mush":7225,"combo":7226,"mortal":7227,"pathetic":7228,"stock":7229,"twilight":7230,"poorly":7231,"confession":7232,"fulfilling":7233,"equivalent":7234,"relief":7235,"ame":7236,"bour":7237,"ancy":7238,"myst":7239,"plu":7240,"plant":7241,"stron":7242,"nerdy":7243,"slept":7244,"politic":7245,"privacy":7246,"skinny":7247,"inspiring":7248,"82":7249,"einste":7250,"pound":7251,"review":7252,"stro":7253,"withdrawn":7254,"wee":7255,"fright":7256,"underlying":7257,"disease":7258,"organize":7259,"autism":7260,"bossy":7261,"darn":7262,"xntp":7263,"numerous":7264,"keirsey":7265,"libertarian":7266,"bank":7267,"kers":7268,"wich":7269,"exces":7270,"prejud":7271,"rave":7272,"stead":7273,"subtype":7274,"breed":7275,"neglect":7276,"despise":7277,"trek":7278,"heroes":7279,"revolution":7280,"solitude":7281,"junior":7282,"jaw":7283,"dex":7284,"riding":7285,"soundtrack":7286,"crappy":7287,"pump":7288,"wishing":7289,"collective":7290,"sciences":7291,"energetic":7292,"motivations":7293,"intensely":7294,"audience":7295,"sample":7296,"electric":7297,"bubbly":7298,"television":7299,"sentimental":7300,"pseu":7301,"dimension":7302,"califor":7303,"retarded":7304,"performance":7305,"chronic":7306,"ilet":7307,"ove":7308,"reas":7309,"haw":7310,"lil":7311,"doo":7312,"masters":7313,"hiking":7314,"civi":7315,"vial":7316,"arent":7317,"drew":7318,"subscri":7319,"youngest":7320,"bridge":7321,"suggests":7322,"sunshine":7323,"criticize":7324,"dynamics":7325,"transit":7326,"puzzle":7327,"robots":7328,"gorgeous":7329,"pace":7330,"excl":7331,"exhibit":7332,"trap":7333,"indie":7334,"steam":7335,"curities":7336,"impat":7337,"implies":7338,"marke":7339,"musician":7340,"follows":7341,"existed":7342,"trusting":7343,"religions":7344,"hopes":7345,"insecurities":7346,"circles":7347,"mistype":7348,"settings":7349,"symbol":7350,"oid":7351,"anne":7352,"coworkers":7353,"unde":7354,"thankful":7355,"serial":7356,"supernatural":7357,"distingu":7358,"judged":7359,"silver":7360,"blown":7361,"reaching":7362,"admir":7363,"represents":7364,"mechanism":7365,"syndro":7366,"isolated":7367,"distinction":7368,"cities":7369,"elect":7370,"fate":7371,"yell":7372,"aded":7373,"labe":7374,"compul":7375,"monkey":7376,"mmer":7377,"berry":7378,"imagined":7379,"mia":7380,"engaging":7381,"bloody":7382,"legend":7383,"ironically":7384,"pillow":7385,"einstein":7386,"syndrome":7387,"ora":7388,"offered":7389,"hable":7390,"tee":7391,"lifetime":7392,"disappear":7393,"blon":7394,"stem":7395,"vocate":7396,"trade":7397,"traum":7398,"caly":7399,"closet":7400,"subforum":7401,"cultures":7402,"boxes":7403,"christianity":7404,"objectively":7405,"jealousy":7406,"celebrity":7407,"criminal":7408,"dreamed":7409,"anonymous":7410,"53":7411,"57":7412,"boun":7413,"shad":7414,"yard":7415,"eral":7416,"enjoys":7417,"unconscious":7418,"sume":7419,"aller":7420,"laughter":7421,"misunderstand":7422,"scorp":7423,"surance":7424,"stops":7425,"conditions":7426,"distinct":7427,"1000":7428,"figures":7429,"diction":7430,"accuracy":7431,"treating":7432,"articulate":7433,"discovery":7434,"strive":7435,"adequ":7436,"clarity":7437,"indicate":7438,"enemy":7439,"exclusive":7440,"emphasis":7441,"63":7442,"era":7443,"traf":7444,"essence":7445,"tale":7446,"preferably":7447,"brid":7448,"varies":7449,"bullying":7450,"accused":7451,"validation":7452,"narciss":7453,"pour":7454,"threw":7455,"mere":7456,"secure":7457,"edited":7458,"decor":7459,"advocate":7460,"functioning":7461,"folk":7462,"latin":7463,"leaders":7464,"darker":7465,"directions":7466,"judgment":7467,"ditto":7468,"economics":7469,"mundane":7470,"strongest":7471,"pseudo":7472,"dab":7473,"grain":7474,"knife":7475,"mt":7476,"atm":7477,"coo":7478,"maga":7479,"clum":7480,"lasting":7481,"torn":7482,"openness":7483,"struction":7484,"scope":7485,"facing":7486,"greek":7487,"straw":7488,"stephen":7489,"concert":7490,"violin":7491,"gained":7492,"irritating":7493,"suicidal":7494,"compatibility":7495,"narcissism":7496,"aha":7497,"echo":7498,"zard":7499,"beating":7500,"keen":7501,"destructive":7502,"voices":7503,"simpli":7504,"eee":7505,"concerns":7506,"bothering":7507,"challenges":7508,"enthusiastic":7509,"wander":7510,"compromise":7511,"traffic":7512,"bizar":7513,"niss":7514,"informed":7515,"isation":7516,"coast":7517,"intx":7518,"unaware":7519,"unstable":7520,"persu":7521,"consen":7522,"infatu":7523,"vio":7524,"survey":7525,"existing":7526,"screaming":7527,"treatment":7528,"conflicts":7529,"educated":7530,"claiming":7531,"independence":7532,"spirituality":7533,"audi":7534,"audio":7535,"strateg":7536,"smells":7537,"candid":7538,"platonic":7539,"bone":7540,"swing":7541,"reput":7542,"tomy":7543,"tile":7544,"acle":7545,"constructive":7546,"antis":7547,"indu":7548,"immen":7549,"listic":7550,"bution":7551,"tony":7552,"families":7553,"turing":7554,"visited":7555,"shyness":7556,"sooner":7557,"colours":7558,"effectively":7559,"encountered":7560,"comforting":7561,"fice":7562,"gt":7563,"tour":7564,"twent":7565,"ander":7566,"beli":7567,"chor":7568,"elly":7569,"geo":7570,"iden":7571,"exual":7572,"infx":7573,"central":7574,"titles":7575,"petty":7576,"tricky":7577,"cuddle":7578,"thousands":7579,"az":7580,"cs":7581,"rit":7582,"relea":7583,"stur":7584,"beard":7585,"une":7586,"monday":7587,"aked":7588,"nerves":7589,"profiles":7590,"criter":7591,"quietly":7592,"convinc":7593,"director":7594,"aliens":7595,"deserves":7596,"repeating":7597,"increase":7598,"dreamy":7599,"employed":7600,"lifting":7601,"bachel":7602,"plastic":7603,"conspiracy":7604,"twenty":7605,"bout":7606,"git":7607,"kn":7608,"sink":7609,"sword":7610,"tact":7611,"youre":7612,"chasing":7613,"cooper":7614,"convey":7615,"sia":7616,"usage":7617,"civil":7618,"redu":7619,"skilled":7620,"profit":7621,"sweat":7622,"awkwardness":7623,"soccer":7624,"rrrr":7625,"documentary":7626,"claimed":7627,"mountains":7628,"sacrifice":7629,"historical":7630,"repetitive":7631,"91":7632,"ahaha":7633,"jay":7634,"kne":7635,"tin":7636,"solo":7637,"accent":7638,"ading":7639,"uncommon":7640,"discrimin":7641,"earn":7642,"viewed":7643,"signed":7644,"ulties":7645,"hhhhhhhh":7646,"medications":7647,"browsing":7648,"settled":7649,"european":7650,"divorce":7651,"girly":7652,"california":7653,"43":7654,"sps":7655,"ert":7656,"albe":7657,"itude":7658,"lift":7659,"rigid":7660,"impressive":7661,"fulness":7662,"dishes":7663,"assholes":7664,"seriousness":7665,"scott":7666,"hunter":7667,"unfortunate":7668,"fluffy":7669,"orientation":7670,"guns":7671,"capitalism":7672,"shooting":7673,"tay":7674,"yu":7675,"esp":7676,"nod":7677,"liqu":7678,"kest":7679,"astron":7680,"compla":7681,"completed":7682,"spection":7683,"prince":7684,"century":7685,"meds":7686,"trivial":7687,"breathing":7688,"supervis":7689,"feely":7690,"trained":7691,"customer":7692,"eccentric":7693,"dexter":7694,"bizarre":7695,"immense":7696,"aust":7697,"cend":7698,"gur":7699,"leo":7700,"asy":7701,"rome":7702,"rocks":7703,"devi":7704,"decade":7705,"coworker":7706,"hob":7707,"teasing":7708,"ishing":7709,"cheesy":7710,"marti":7711,"trauma":7712,"paste":7713,"league":7714,"foods":7715,"convenient":7716,"blonde":7717,"albeit":7718,"86":7719,"ez":7720,"ological":7721,"pts":7722,"rut":7723,"yum":7724,"atleast":7725,"meme":7726,"icking":7727,"donald":7728,"cakes":7729,"agers":7730,"derail":7731,"nevermind":7732,"definately":7733,"brick":7734,"carl":7735,"gyn":7736,"2010":7737,"breakup":7738,"avoidant":7739,"incident":7740,"approaching":7741,"consistency":7742,"desperately":7743,"recipro":7744,"tattoos":7745,"marketing":7746,"pix":7747,"income":7748,"theor":7749,"chel":7750,"chris":7751,"china":7752,"urous":7753,"spare":7754,"thankfully":7755,"meanings":7756,"string":7757,"interpersonal":7758,"craw":7759,"asexual":7760,"couch":7761,"gravit":7762,"speaker":7763,"tues":7764,"tured":7765,"clip":7766,"concerning":7767,"apocaly":7768,"scientists":7769,"castle":7770,"route":7771,"websites":7772,"intimidated":7773,"wandering":7774,"nostalgia":7775,"condescending":7776,"transition":7777,"amy":7778,"easter":7779,"uary":7780,"restric":7781,"recharge":7782,"alter":7783,"motion":7784,"moody":7785,"conce":7786,"reader":7787,"boards":7788,"network":7789,"kills":7790,"bursts":7791,"nonetheless":7792,"papers":7793,"ttes":7794,"categories":7795,"butterfly":7796,"calculus":7797,"encouraging":7798,"coincidence":7799,"begins":7800,"convincing":7801,"cum":7802,"dedu":7803,"yr":7804,"zodi":7805,"incompetent":7806,"alas":7807,"worn":7808,"tease":7809,"phan":7810,"sociable":7811,"charlie":7812,"france":7813,"soup":7814,"dominance":7815,"structured":7816,"relatives":7817,"freshman":7818,"introduction":7819,"adventurous":7820,"mechanical":7821,"strictly":7822,"demanding":7823,"counseling":7824,"established":7825,"volunteer":7826,"pepper":7827,"stumbled":7828,"scratch":7829,"wealth":7830,"zodiac":7831,"mend":7832,"ux":7833,"stair":7834,"urt":7835,"umn":7836,"blat":7837,"interpre":7838,"cringe":7839,"creator":7840,"cash":7841,"fourth":7842,"sticks":7843,"ambigu":7844,"priority":7845,"confrontation":7846,"concentrate":7847,"outwardly":7848,"refreshing":7849,"eggs":7850,"fare":7851,"incapable":7852,"toilet":7853,"notific":7854,"loo":7855,"outer":7856,"rix":7857,"persist":7858,"mails":7859,"indirect":7860,"odds":7861,"prov":7862,"apathy":7863,"apathetic":7864,"pleased":7865,"navi":7866,"dialo":7867,"obje":7868,"teddy":7869,"glor":7870,"explicit":7871,"handful":7872,"hallo":7873,"halfway":7874,"involving":7875,"environmental":7876,"racist":7877,"drained":7878,"isolation":7879,"praise":7880,"horribly":7881,"beneficial":7882,"dedicated":7883,"hypothetical":7884,"switched":7885,"criteria":7886,"bars":7887,"vag":7888,"mexic":7889,"ara":7890,"absent":7891,"iff":7892,"lla":7893,"preach":7894,"fies":7895,"backwards":7896,"fuzzy":7897,"laughs":7898,"elsewhere":7899,"foundation":7900,"duck":7901,"bian":7902,"similarly":7903,"valued":7904,"drove":7905,"smoked":7906,"fantasies":7907,"extraverts":7908,"feminism":7909,"safety":7910,"variant":7911,"crossed":7912,"minority":7913,"manife":7914,"device":7915,"nightmares":7916,"chapter":7917,"unicorn":7918,"permanent":7919,"comprehend":7920,"taylor":7921,"kk":7922,"nag":7923,"theater":7924,"enxp":7925,"stability":7926,"los":7927,"elder":7928,"geon":7929,"imm":7930,"cheers":7931,"wished":7932,"amazon":7933,"instances":7934,"identifying":7935,"imaginative":7936,"labels":7937,"valentine":7938,"minimum":7939,"companies":7940,"psychiatrist":7941,"chameleon":7942,"uto":7943,"yelling":7944,"mold":7945,"unrealistic":7946,"hire":7947,"foo":7948,"funni":7949,"dish":7950,"glance":7951,"norms":7952,"precious":7953,"difficulties":7954,"mentioning":7955,"appeared":7956,"champ":7957,"belle":7958,"americans":7959,"blush":7960,"programs":7961,"fluent":7962,"racing":7963,"adventures":7964,"albums":7965,"compassionate":7966,"impressions":7967,"believer":7968,"83":7969,"eg":7970,"rul":7971,"alarm":7972,"toy":7973,"hog":7974,"urus":7975,"tage":7976,"ssion":7977,"agend":7978,"joe":7979,"corrup":7980,"eachother":7981,"classmates":7982,"ggy":7983,"stoic":7984,"ramble":7985,"hormon":7986,"christians":7987,"atheism":7988,"www":7989,"introspective":7990,"introspection":7991,"explode":7992,"arrange":7993,"intentional":7994,"swedish":7995,"entitled":7996,"pile":7997,"vine":7998,"reverse":7999,"lemon":8000,"havent":8001,"tiring":8002,"hee":8003,"adam":8004,"intr":8005,"neur":8006,"exposed":8007,"indian":8008,"kinder":8009,"agreement":8010,"dresses":8011,"duh":8012,"dominate":8013,"eyebrow":8014,"hunger":8015,"improving":8016,"insults":8017,"innov":8018,"melancholic":8019,"employe":8020,"disgusting":8021,"androgyn":8022,"dichotomy":8023,"impatient":8024,"magaz":8025,"iam":8026,"mul":8027,"mouse":8028,"tis":8029,"stark":8030,"acknowled":8031,"polic":8032,"exceptions":8033,"prob":8034,"sauce":8035,"tension":8036,"fails":8037,"dilem":8038,"licate":8039,"sleepy":8040,"breakdown":8041,"lingu":8042,"smiley":8043,"pengu":8044,"recommended":8045,"actors":8046,"authenticity":8047,"application":8048,"abandon":8049,"87":8050,"ido":8051,"rating":8052,"sf":8053,"zoo":8054,"thunder":8055,"recover":8056,"bearing":8057,"wicked":8058,"irish":8059,"poison":8060,"terior":8061,"terror":8062,"fiance":8063,"ferent":8064,"healing":8065,"cognition":8066,"rolls":8067,"autistic":8068,"flick":8069,"dropping":8070,"keyboard":8071,"projecting":8072,"competence":8073,"explanations":8074,"economy":8075,"elimin":8076,"thrones":8077,"temporary":8078,"punishment":8079,"scorpio":8080,"dictionary":8081,"consensus":8082,"androgynous":8083,"rink":8084,"uct":8085,"tol":8086,"mos":8087,"suited":8088,"poly":8089,"constit":8090,"prepar":8091,"quer":8092,"prop":8093,"disregard":8094,"hahahahaha":8095,"mato":8096,"aki":8097,"definitive":8098,"bliss":8099,"bucks":8100,"subconsciously":8101,"empire":8102,"aneously":8103,"trusted":8104,"animated":8105,"instit":8106,"delusion":8107,"struggles":8108,"fluid":8109,"remains":8110,"galax":8111,"products":8112,"diplo":8113,"scan":8114,"indecisive":8115,"themes":8116,"stacking":8117,"alice":8118,"lef":8119,"verted":8120,"amused":8121,"plants":8122,"nailed":8123,"girlfriends":8124,"farm":8125,"wasnt":8126,"hunting":8127,"warmth":8128,"shops":8129,"bowl":8130,"schol":8131,"nurture":8132,"acquaintance":8133,"resonate":8134,"bunny":8135,"zombies":8136,"ixtj":8137,"museum":8138,"pronoun":8139,"aesthe":8140,"york":8141,"dilemma":8142,"zu":8143,"toast":8144,"tist":8145,"rim":8146,"mastur":8147,"anta":8148,"reluct":8149,"specially":8150,"fired":8151,"finn":8152,"parad":8153,"generous":8154,"worded":8155,"buzz":8156,"personalitycafe":8157,"athle":8158,"skim":8159,"midnight":8160,"negat":8161,"slightest":8162,"anticip":8163,"suspected":8164,"crowds":8165,"invested":8166,"models":8167,"doubting":8168,"rabbit":8169,"brutal":8170,"pragmatic":8171,"clumsy":8172,"cine":8173,"dur":8174,"lance":8175,"lbs":8176,"och":8177,"reacting":8178,"sting":8179,"ordered":8180,"sep":8181,"tiger":8182,"roy":8183,"deals":8184,"gered":8185,"gemini":8186,"amuse":8187,"laziness":8188,"epi":8189,"theirs":8190,"typings":8191,"backs":8192,"august":8193,"stopping":8194,"stole":8195,"signals":8196,"2011":8197,"filter":8198,"fixing":8199,"vulnerability":8200,"formative":8201,"cartoon":8202,"41":8203,"bli":8204,"elo":8205,"ixx":8206,"rof":8207,"twit":8208,"oneself":8209,"noted":8210,"compens":8211,"offering":8212,"uding":8213,"wheel":8214,"quoting":8215,"phobia":8216,"troubles":8217,"humorous":8218,"penis":8219,"fasc":8220,"agrees":8221,"squir":8222,"bags":8223,"occurred":8224,"demonstr":8225,"hipster":8226,"integrity":8227,"assignment":8228,"economic":8229,"campus":8230,"percentage":8231,"xstj":8232,"puppy":8233,"practicing":8234,"pessimistic":8235,"repeatedly":8236,"premise":8237,"reputation":8238,"ave":8239,"bay":8240,"pff":8241,"inappropriate":8242,"respective":8243,"retreat":8244,"lex":8245,"beats":8246,"arrow":8247,"escap":8248,"outlook":8249,"sustain":8250,"urban":8251,"perceptions":8252,"whatnot":8253,"conception":8254,"shu":8255,"fried":8256,"spi":8257,"tooth":8258,"dismiss":8259,"manual":8260,"grat":8261,"realm":8262,"aches":8263,"etz":8264,"obs":8265,"download":8266,"headphones":8267,"101":8268,"empir":8269,"burned":8270,"organizing":8271,"soulmate":8272,"floating":8273,"holmes":8274,"grip":8275,"translation":8276,"knock":8277,"detect":8278,"administ":8279,"innate":8280,"martin":8281,"suspicious":8282,"pregnant":8283,"76":8284,"elic":8285,"fid":8286,"hic":8287,"kay":8288,"rang":8289,"ancing":8290,"alge":8291,"lel":8292,"dem":8293,"dood":8294,"uncertain":8295,"unpleasant":8296,"wet":8297,"poker":8298,"consul":8299,"anter":8300,"closure":8301,"subst":8302,"privi":8303,"phobic":8304,"positively":8305,"stimulation":8306,"superiority":8307,"cuddly":8308,"twenti":8309,"ambitious":8310,"oxy":8311,"clinical":8312,"citiz":8313,"prejudice":8314,"algebra":8315,"hs":8316,"tack":8317,"inqu":8318,"anity":8319,"retail":8320,"seed":8321,"nove":8322,"elli":8323,"pean":8324,"feature":8325,"coping":8326,"condu":8327,"trag":8328,"upper":8329,"whoops":8330,"tense":8331,"ideally":8332,"owner":8333,"berg":8334,"studio":8335,"worthless":8336,"detach":8337,"atheists":8338,"editing":8339,"tentious":8340,"pleasing":8341,"dressing":8342,"blowing":8343,"continued":8344,"trends":8345,"simult":8346,"asperger":8347,"nostalgic":8348,"twisted":8349,"melody":8350,"flexible":8351,"halloween":8352,"masturb":8353,"bage":8354,"cd":8355,"cti":8356,"fart":8357,"enem":8358,"toe":8359,"toys":8360,"noises":8361,"sophi":8362,"heter":8363,"posure":8364,"exfp":8365,"bleed":8366,"overthinking":8367,"disclaim":8368,"serving":8369,"mars":8370,"trips":8371,"submissive":8372,"torture":8373,"dammit":8374,"respected":8375,"translate":8376,"grandfather":8377,"creep":8378,"terrifying":8379,"texas":8380,"kicked":8381,"efficiency":8382,"instruments":8383,"genetic":8384,"genetics":8385,"supporting":8386,"shrug":8387,"underest":8388,"policy":8389,"peanut":8390,"enemies":8391,"ctic":8392,"slap":8393,"inward":8394,"ena":8395,"sti":8396,"gear":8397,"ida":8398,"cere":8399,"magn":8400,"guest":8401,"april":8402,"phleg":8403,"ette":8404,"posses":8405,"controver":8406,"implement":8407,"march":8408,"court":8409,"denial":8410,"witness":8411,"transfer":8412,"bullet":8413,"crushing":8414,"swim":8415,"xntj":8416,"triggered":8417,"luna":8418,"pondering":8419,"contemplating":8420,"execu":8421,"admittedly":8422,"bacon":8423,"indifferent":8424,"december":8425,"oly":8426,"tl":8427,"tte":8428,"stages":8429,"aline":8430,"robin":8431,"delight":8432,"coin":8433,"coat":8434,"rier":8435,"canad":8436,"wherever":8437,"phd":8438,"understandable":8439,"playlist":8440,"depri":8441,"morally":8442,"turtle":8443,"license":8444,"borrow":8445,"sorted":8446,"amazed":8447,"2012":8448,"textbook":8449,"initiative":8450,"laying":8451,"progressive":8452,"accomplished":8453,"cousins":8454,"vocab":8455,"cigarettes":8456,"twenties":8457,"gang":8458,"lac":8459,"sane":8460,"inxj":8461,"esxp":8462,"lily":8463,"depressive":8464,"maj":8465,"sons":8466,"illegal":8467,"comics":8468,"workplace":8469,"trilogy":8470,"charged":8471,"respectful":8472,"juice":8473,"delay":8474,"pencil":8475,"messing":8476,"autumn":8477,"recognized":8478,"frequency":8479,"operate":8480,"sandwich":8481,"clueless":8482,"uuuuuuuu":8483,"dollars":8484,"sensation":8485,"anthropo":8486,"selective":8487,"martial":8488,"3000":8489,"inaccurate":8490,"befriend":8491,"beside":8492,"arius":8493,"versed":8494,"forgiving":8495,"amen":8496,"yourselves":8497,"siveness":8498,"uss":8499,"hipp":8500,"smash":8501,"bush":8502,"truck":8503,"presents":8504,"eaten":8505,"hitch":8506,"juana":8507,"sunny":8508,"influences":8509,"surrounding":8510,"johnny":8511,"hypothesis":8512,"snowfla":8513,"kissing":8514,"tangible":8515,"hints":8516,"cuddling":8517,"dumped":8518,"virtual":8519,"auditory":8520,"stairs":8521,"nan":8522,"ocial":8523,"stun":8524,"nom":8525,"outright":8526,"coheren":8527,"adren":8528,"pretentious":8529,"combat":8530,"compon":8531,"grump":8532,"obama":8533,"clown":8534,"stein":8535,"confron":8536,"marvel":8537,"nietz":8538,"rained":8539,"bash":8540,"creature":8541,"psyched":8542,"brained":8543,"pops":8544,"london":8545,"flag":8546,"layers":8547,"significantly":8548,"meditate":8549,"occurs":8550,"companion":8551,"rpg":8552,"travelling":8553,"resemble":8554,"marijuana":8555,"agenda":8556,"negativity":8557,"49":8558,"69":8559,"72":8560,"eyed":8561,"eager":8562,"fence":8563,"hunch":8564,"tad":8565,"inxx":8566,"inxp":8567,"sta":8568,"sober":8569,"chic":8570,"loser":8571,"arer":8572,"arest":8573,"unpredictable":8574,"suffe":8575,"enders":8576,"shat":8577,"muscle":8578,"triple":8579,"submit":8580,"weekends":8581,"characteristic":8582,"warri":8583,"household":8584,"presentation":8585,"hurtful":8586,"amazingly":8587,"organic":8588,"motivate":8589,"feminist":8590,"racism":8591,"alternate":8592,"boots":8593,"neurotic":8594,"international":8595,"hooked":8596,"blast":8597,"cc":8598,"cular":8599,"eer":8600,"pale":8601,"bec":8602,"ulating":8603,"lav":8604,"essays":8605,"comedi":8606,"sheer":8607,"overrated":8608,"serves":8609,"ohh":8610,"wonders":8611,"freely":8612,"avoidance":8613,"summar":8614,"judgemental":8615,"opera":8616,"puns":8617,"sanity":8618,"xnfj":8619,"frozen":8620,"ambition":8621,"civiliz":8622,"supervisor":8623,"provok":8624,"73":8625,"cdo":8626,"gag":8627,"liness":8628,"mim":8629,"swo":8630,"tha":8631,"invalid":8632,"enor":8633,"ala":8634,"chol":8635,"loathe":8636,"abused":8637,"abroad":8638,"someones":8639,"ulary":8640,"promp":8641,"divid":8642,"questioned":8643,"obtain":8644,"steve":8645,"craving":8646,"prescri":8647,"hopeful":8648,"goddamn":8649,"patri":8650,"excuses":8651,"resting":8652,"popped":8653,"southern":8654,"capture":8655,"lacks":8656,"medio":8657,"fortunately":8658,"approached":8659,"sticky":8660,"manipulated":8661,"catching":8662,"treas":8663,"deepest":8664,"digging":8665,"diagnosis":8666,"talents":8667,"aura":8668,"aspergers":8669,"stimulating":8670,"released":8671,"dialogue":8672,"twitter":8673,"simultaneously":8674,"disclaimer":8675,"gart":8676,"gah":8677,"lg":8678,"wy":8679,"insom":8680,"vet":8681,"hack":8682,"tidy":8683,"chie":8684,"outcomes":8685,"extr":8686,"lake":8687,"ruined":8688,"roughly":8689,"vocar":8690,"homeless":8691,"stretch":8692,"shots":8693,"2013":8694,"restless":8695,"rolled":8696,"improved":8697,"clarification":8698,"garbage":8699,"phrases":8700,"enlighten":8701,"shorter":8702,"perceiver":8703,"basketball":8704,"galaxy":8705,"71":8706,"bones":8707,"equality":8708,"jar":8709,"labor":8710,"pam":8711,"oured":8712,"stir":8713,"noble":8714,"forts":8715,"forgiven":8716,"acious":8717,"ira":8718,"sized":8719,"guine":8720,"ctu":8721,"substance":8722,"distri":8723,"beautifully":8724,"decides":8725,"organised":8726,"attempted":8727,"referred":8728,"addictive":8729,"exerc":8730,"alcoholic":8731,"stalking":8732,"optimism":8733,"painfully":8734,"maintaining":8735,"contradictory":8736,"designer":8737,"exclusively":8738,"errors":8739,"bastard":8740,"blanket":8741,"phenomenon":8742,"theatre":8743,"sketch":8744,"distinguish":8745,"shades":8746,"vocaroo":8747,"51":8748,"dani":8749,"emails":8750,"fw":8751,"tj":8752,"xim":8753,"lime":8754,"wire":8755,"accounts":8756,"heels":8757,"amous":8758,"neath":8759,"poop":8760,"upload":8761,"derive":8762,"plate":8763,"minus":8764,"stems":8765,"listener":8766,"classroom":8767,"sung":8768,"mixture":8769,"filling":8770,"provides":8771,"cracked":8772,"briefly":8773,"occupied":8774,"performing":8775,"hundreds":8776,"thumb":8777,"colored":8778,"300":8779,"awe":8780,"cence":8781,"glit":8782,"ipod":8783,"tent":8784,"beta":8785,"asion":8786,"ica":8787,"demean":8788,"cot":8789,"ifies":8790,"irk":8791,"converse":8792,"shiny":8793,"worship":8794,"hermit":8795,"underneath":8796,"immer":8797,"disconnected":8798,"disaster":8799,"desired":8800,"agreeing":8801,"implied":8802,"shapes":8803,"surreal":8804,"handsome":8805,"cynic":8806,"regist":8807,"appearing":8808,"anecdo":8809,"cliche":8810,"countless":8811,"societal":8812,"production":8813,"successfully":8814,"distract":8815,"perfectionism":8816,"collected":8817,"legitimate":8818,"sweden":8819,"manifests":8820,"phlegmatic":8821,"nietzsche":8822,"suffered":8823,"kim":8824,"pony":8825,"resc":8826,"tomato":8827,"metr":8828,"libra":8829,"acid":8830,"costs":8831,"entry":8832,"trance":8833,"shorts":8834,"quad":8835,"prota":8836,"cts":8837,"reddit":8838,"compelled":8839,"sits":8840,"server":8841,"nazi":8842,"diverse":8843,"parks":8844,"mentor":8845,"gau":8846,"lesbian":8847,"headache":8848,"drif":8849,"casually":8850,"ternally":8851,"movements":8852,"domination":8853,"cuts":8854,"pyth":8855,"convic":8856,"favourites":8857,"bbc":8858,"holly":8859,"doctors":8860,"destroyed":8861,"sentiment":8862,"encouragement":8863,"divorced":8864,"charismatic":8865,"jacket":8866,"steady":8867,"scholar":8868,"dive":8869,"mall":8870,"tank":8871,"wrap":8872,"ona":8873,"leap":8874,"arbit":8875,"lious":8876,"depress":8877,"maid":8878,"mainten":8879,"donx":8880,"updated":8881,"boom":8882,"artwork":8883,"sedu":8884,"longing":8885,"forming":8886,"surgery":8887,"skir":8888,"settling":8889,"efforts":8890,"generalizations":8891,"ftw":8892,"psyche":8893,"roommates":8894,"joker":8895,"territory":8896,"mutually":8897,"celebrate":8898,"ambivert":8899,"inevitable":8900,"techniques":8901,"interpreting":8902,"athletic":8903,"cen":8904,"dash":8905,"fred":8906,"sni":8907,"staff":8908,"goth":8909,"nest":8910,"seeker":8911,"upbringing":8912,"laun":8913,"goodbye":8914,"thanked":8915,"parrot":8916,"blend":8917,"craf":8918,"lux":8919,"generalization":8920,"spoil":8921,"negatively":8922,"physi":8923,"adopt":8924,"validity":8925,"baseball":8926,"suitable":8927,"academ":8928,"nickname":8929,"bills":8930,"buddhi":8931,"solitary":8932,"climbing":8933,"deliberately":8934,"septe":8935,"eous":8936,"lled":8937,"nfp":8938,"passes":8939,"rust":8940,"♥♥":8941,"revel":8942,"itx":8943,"bears":8944,"asia":8945,"peak":8946,"rial":8947,"contest":8948,"selfless":8949,"diary":8950,"obst":8951,"implic":8952,"0000":8953,"magne":8954,"lump":8955,"volu":8956,"gravity":8957,"dominated":8958,"passions":8959,"satan":8960,"hahahah":8961,"commented":8962,"naruto":8963,"professors":8964,"radical":8965,"freaks":8966,"providing":8967,"axis":8968,"sloth":8969,"pills":8970,"aquarius":8971,"abandoned":8972,"january":8973,"arbitr":8974,"september":8975,"hren":8976,"jr":8977,"erd":8978,"enig":8979,"chin":8980,"iced":8981,"unting":8982,"proves":8983,"fridge":8984,"righteous":8985,"offers":8986,"learner":8987,"sorting":8988,"interestingly":8989,"corre":8990,"correlate":8991,"handy":8992,"drift":8993,"hmmmm":8994,"stays":8995,"approve":8996,"criti":8997,"ville":8998,"gradually":8999,"screams":9000,"june":9001,"flame":9002,"flor":9003,"freaked":9004,"attitudes":9005,"evolved":9006,"nuclear":9007,"assignments":9008,"rebellious":9009,"remotely":9010,"fascination":9011,"vocabulary":9012,"hsp":9013,"np":9014,"xy":9015,"inch":9016,"remarks":9017,"isy":9018,"covers":9019,"ides":9020,"proving":9021,"projection":9022,"happiest":9023,"discer":9024,"disliked":9025,"tennis":9026,"pless":9027,"shoulders":9028,"awa":9029,"paris":9030,"players":9031,"smack":9032,"controll":9033,"enjoyment":9034,"shaped":9035,"handling":9036,"gestures":9037,"physic":9038,"hurry":9039,"shoe":9040,"damned":9041,"necessity":9042,"insanity":9043,"tempted":9044,"spirits":9045,"drawings":9046,"destiny":9047,"willingness":9048,"flavor":9049,"jumped":9050,"pisces":9051,"flee":9052,"basement":9053,"foolish":9054,"paranoia":9055,"desktop":9056,"ixtp":9057,"neighborhood":9058,"inherent":9059,"rhyth":9060,"africa":9061,"garten":9062,"maintenance":9063,"ather":9064,"bounce":9065,"dj":9066,"obe":9067,"tam":9068,"informative":9069,"tober":9070,"chip":9071,"lowest":9072,"aby":9073,"supre":9074,"pause":9075,"surprises":9076,"pays":9077,"fortune":9078,"avatars":9079,"risks":9080,"property":9081,"snu":9082,"indicator":9083,"graphics":9084,"snake":9085,"camping":9086,"dorm":9087,"resonates":9088,"hesitant":9089,"weirdo":9090,"korean":9091,"giggle":9092,"bisexual":9093,"grumpy":9094,"bble":9095,"dc":9096,"gli":9097,"ium":9098,"iable":9099,"kate":9100,"ero":9101,"todd":9102,"andy":9103,"hay":9104,"lican":9105,"whore":9106,"spouse":9107,"funeral":9108,"affair":9109,"manic":9110,"osexual":9111,"dia":9112,"divide":9113,"reasonably":9114,"generic":9115,"versions":9116,"viewing":9117,"ggle":9118,"approval":9119,"sided":9120,"defending":9121,"environments":9122,"throws":9123,"aggression":9124,"abortion":9125,"achieving":9126,"crowded":9127,"disappointing":9128,"guts":9129,"determining":9130,"judgments":9131,"wolves":9132,"kisses":9133,"detective":9134,"rewarding":9135,"schizoid":9136,"quantum":9137,"william":9138,"commercial":9139,"eastern":9140,"psychedelic":9141,"python":9142,"laundry":9143,"sway":9144,"sions":9145,"tou":9146,"debt":9147,"ura":9148,"pertain":9149,"exfj":9150,"justified":9151,"antee":9152,"prefers":9153,"spit":9154,"gras":9155,"achi":9156,"sociology":9157,"cliff":9158,"narr":9159,"summary":9160,"salad":9161,"transport":9162,"nurse":9163,"resource":9164,"customers":9165,"mathematical":9166,"rainbows":9167,"terminate":9168,"zelda":9169,"published":9170,"nihil":9171,"antisocial":9172,"protagon":9173,"ahem":9174,"fist":9175,"font":9176,"tabs":9177,"yrs":9178,"aly":9179,"org":9180,"assure":9181,"hai":9182,"lize":9183,"kee":9184,"achable":9185,"convo":9186,"shin":9187,"raising":9188,"taurus":9189,"sav":9190,"boot":9191,"spor":9192,"managing":9193,"intoler":9194,"lesser":9195,"diam":9196,"diving":9197,"defines":9198,"jeff":9199,"presses":9200,"licking":9201,"awesom":9202,"excel":9203,"october":9204,"couples":9205,"horny":9206,"hunt":9207,"manipulating":9208,"static":9209,"conceptual":9210,"millions":9211,"boost":9212,"collecting":9213,"threatened":9214,"doorslam":9215,"summed":9216,"puzzles":9217,"beneath":9218,"invented":9219,"electro":9220,"identical":9221,"exercising":9222,"cart":9223,"gamer":9224,"lend":9225,"ptic":9226,"shave":9227,"santa":9228,"attain":9229,"toss":9230,"hammer":9231,"limb":9232,"chant":9233,"eldest":9234,"accounting":9235,"det":9236,"abnormal":9237,"coward":9238,"ifer":9239,"amor":9240,"polish":9241,"shark":9242,"mud":9243,"tales":9244,"hism":9245,"assass":9246,"mont":9247,"lasts":9248,"cues":9249,"ggers":9250,"secondly":9251,"ntp":9252,"virgo":9253,"reminding":9254,"nearby":9255,"apology":9256,"focuses":9257,"blues":9258,"fantasize":9259,"recognizing":9260,"mindedness":9261,"sympath":9262,"indicates":9263,"variables":9264,"swift":9265,"ratio":9266,"nursing":9267,"reflecting":9268,"buttons":9269,"kissed":9270,"buddhism":9271,"attribute":9272,"indulge":9273,"wrapped":9274,"excessive":9275,"labeled":9276,"kindergarten":9277,"tragic":9278,"adrenaline":9279,"banter":9280,"eag":9281,"pand":9282,"vom":9283,"thou":9284,"altogether":9285,"sei":9286,"lyn":9287,"liest":9288,"roof":9289,"pear":9290,"acies":9291,"entered":9292,"sies":9293,"sims":9294,"ders":9295,"spat":9296,"monitor":9297,"gaze":9298,"downs":9299,"importantly":9300,"trustworthy":9301,"couldnt":9302,"july":9303,"intuitively":9304,"texted":9305,"flav":9306,"hehehe":9307,"desert":9308,"tracks":9309,"represented":9310,"instrumental":9311,"shadows":9312,"mannerisms":9313,"trolls":9314,"celebrities":9315,"vaguely":9316,"dirt":9317,"quirks":9318,"metaphors":9319,"severely":9320,"skeptic":9321,"chuckle":9322,"sacrific":9323,"extensive":9324,"colleague":9325,"spaces":9326,"guarantee":9327,"scattered":9328,"violet":9329,"ambiguous":9330,"civilization":9331,"61":9332,"bers":9333,"wins":9334,"injustice":9335,"repre":9336,"references":9337,"theist":9338,"tos":9339,"begun":9340,"loops":9341,"depic":9342,"geome":9343,"inton":9344,"quie":9345,"sail":9346,"grind":9347,"fucks":9348,"nibal":9349,"nerve":9350,"adds":9351,"additional":9352,"prime":9353,"rambling":9354,"clearer":9355,"horses":9356,"factory":9357,"fighter":9358,"treats":9359,"traditions":9360,"iii":9361,"conclude":9362,"bullies":9363,"educ":9364,"melt":9365,"squee":9366,"grief":9367,"jackson":9368,"enthusiast":9369,"absence":9370,"twins":9371,"xstp":9372,"cocky":9373,"colleagues":9374,"politicians":9375,"bachelor":9376,"immensely":9377,"gravitate":9378,"daniel":9379,"89":9380,"ckets":9381,"jelly":9382,"kicking":9383,"twitch":9384,"von":9385,"wrest":9386,"wreck":9387,"xps":9388,"theart":9389,"ensure":9390,"stell":9391,"alert":9392,"toes":9393,"bean":9394,"soap":9395,"wired":9396,"deem":9397,"devoted":9398,"traged":9399,"prospect":9400,"artsy":9401,"immortal":9402,"emoti":9403,"inception":9404,"smar":9405,"trail":9406,"mike":9407,"shares":9408,"crystal":9409,"lawful":9410,"lawyer":9411,"avoided":9412,"truths":9413,"transform":9414,"conflicting":9415,"flood":9416,"snape":9417,"vacu":9418,"harmless":9419,"maxim":9420,"radiohead":9421,"villains":9422,"varying":9423,"heartedly":9424,"dichotom":9425,"dubstep":9426,"adequate":9427,"bree":9428,"ets":9429,"ffin":9430,"nab":9431,"itation":9432,"sopho":9433,"tier":9434,"coz":9435,"anyhow":9436,"tap":9437,"overthink":9438,"logists":9439,"extp":9440,"obsc":9441,"ohhh":9442,"cerity":9443,"highlight":9444,"wording":9445,"heading":9446,"greed":9447,"surfing":9448,"brood":9449,"writes":9450,"rainy":9451,"decades":9452,"ipad":9453,"portrait":9454,"analyse":9455,"photograph":9456,"clusive":9457,"italy":9458,"loudly":9459,"protection":9460,"selfishness":9461,"paths":9462,"automatic":9463,"carrying":9464,"oooooooooooooooo":9465,"attending":9466,"concentration":9467,"adopted":9468,"mystical":9469,"liquid":9470,"canadian":9471,"ae":9472,"dv":9473,"dino":9474,"eleg":9475,"panda":9476,"vation":9477,"inj":9478,"referen":9479,"repressed":9480,"returned":9481,"ata":9482,"alt":9483,"argh":9484,"modest":9485,"dere":9486,"dot":9487,"outfit":9488,"wears":9489,"pocket":9490,"fade":9491,"manly":9492,"experimental":9493,"auth":9494,"moron":9495,"basics":9496,"linear":9497,"freud":9498,"reminder":9499,"emma":9500,"flowing":9501,"rationalize":9502,"initiating":9503,"googled":9504,"layer":9505,"pairs":9506,"regrets":9507,"rapid":9508,"streets":9509,"flattered":9510,"virtually":9511,"compete":9512,"korea":9513,"360":9514,"ect":9515,"foun":9516,"hul":9517,"mult":9518,"reread":9519,"rob":9520,"mock":9521,"outlet":9522,"proportion":9523,"spur":9524,"spite":9525,"ryan":9526,"undergrad":9527,"file":9528,"despair":9529,"mins":9530,"gathered":9531,"misery":9532,"misleading":9533,"voke":9534,"nerds":9535,"tones":9536,"socialism":9537,"sexist":9538,"carried":9539,"cooler":9540,"classify":9541,"warming":9542,"expectation":9543,"idealists":9544,"belly":9545,"mornings":9546,"flirty":9547,"rationality":9548,"combine":9549,"requirements":9550,"radi":9551,"satisfy":9552,"observant":9553,"flesh":9554,"chips":9555,"contradict":9556,"integration":9557,"symbolic":9558,"recipe":9559,"thomas":9560,"technique":9561,"relatable":9562,"hormones":9563,"coherent":9564,"enormous":9565,"buddhist":9566,"59":9567,"ht":9568,"rar":9569,"yah":9570,"inations":9571,"retro":9572,"alm":9573,"robe":9574,"dose":9575,"ader":9576,"entering":9577,"mption":9578,"apt":9579,"ahhhh":9580,"pract":9581,"matt":9582,"minent":9583,"mentions":9584,"problematic":9585,"misconception":9586,"morbid":9587,"apples":9588,"viewpoint":9589,"heartless":9590,"shocking":9591,"grave":9592,"titan":9593,"worthwhile":9594,"spirited":9595,"animation":9596,"knowledgeable":9597,"belt":9598,"birthdays":9599,"ixfj":9600,"beatles":9601,"banana":9602,"memorize":9603,"phases":9604,"tricks":9605,"switching":9606,"butterflies":9607,"continuing":9608,"lurk":9609,"paragraphs":9610,"fundamentally":9611,"phew":9612,"conscience":9613,"architecture":9614,"weapon":9615,"differentiate":9616,"reluctant":9617,"authors":9618,"hed":9619,"kan":9620,"knit":9621,"rhe":9622,"vain":9623,"iner":9624,"resolve":9625,"resolved":9626,"retire":9627,"oul":9628,"timing":9629,"wizard":9630,"icon":9631,"mocking":9632,"coke":9633,"coaster":9634,"externally":9635,"capr":9636,"seldom":9637,"saur":9638,"vian":9639,"mug":9640,"files":9641,"owned":9642,"votes":9643,"greg":9644,"stuffed":9645,"orders":9646,"popcorn":9647,"crushed":9648,"admitting":9649,"poetic":9650,"responsibilities":9651,"distraction":9652,"nicer":9653,"rationally":9654,"eliza":9655,"comprehen":9656,"dutch":9657,"thurs":9658,"charisma":9659,"pounds":9660,"ritual":9661,"awesomeness":9662,"recur":9663,"stan":9664,"tops":9665,"meg":9666,"sect":9667,"tified":9668,"mystic":9669,"peer":9670,"accom":9671,"mole":9672,"heated":9673,"outdoors":9674,"cops":9675,"costu":9676,"opathy":9677,"poo":9678,"perceptive":9679,"exterminate":9680,"kings":9681,"stray":9682,"dial":9683,"glut":9684,"calming":9685,"dreamt":9686,"raining":9687,"weekly":9688,"patron":9689,"gggg":9690,"communist":9691,"meetup":9692,"qualify":9693,"hyster":9694,"eleph":9695,"hotel":9696,"placing":9697,"freakin":9698,"professionally":9699,"attacked":9700,"fishing":9701,"convenience":9702,"mechanics":9703,"challenged":9704,"demands":9705,"xsfj":9706,"stalker":9707,"inevitably":9708,"knee":9709,"tuesday":9710,"eyebrows":9711,"insomnia":9712,"bent":9713,"baff":9714,"cue":9715,"kor":9716,"kink":9717,"uhm":9718,"inher":9719,"retain":9720,"alan":9721,"islam":9722,"orchest":9723,"lege":9724,"mot":9725,"sial":9726,"tape":9727,"kingdom":9728,"vibr":9729,"spill":9730,"imho":9731,"standpoint":9732,"seeming":9733,"muslim":9734,"bron":9735,"pushy":9736,"horo":9737,"enneaty":9738,"dave":9739,"stereotypically":9740,"fyi":9741,"politically":9742,"session":9743,"grandparents":9744,"arrang":9745,"kicks":9746,"variation":9747,"theoretically":9748,"industrial":9749,"differing":9750,"attributes":9751,"neighbors":9752,"monolo":9753,"planets":9754,"unicorns":9755,"penguin":9756,"sophomore":9757,"150":9758,"dup":9759,"glow":9760,"pies":9761,"swords":9762,"anato":9763,"thesia":9764,"albert":9765,"orgas":9766,"whining":9767,"entrepre":9768,"pow":9769,"pole":9770,"excer":9771,"exterior":9772,"inder":9773,"india":9774,"blew":9775,"hers":9776,"fier":9777,"finals":9778,"geni":9779,"scand":9780,"socialist":9781,"gile":9782,"factual":9783,"slee":9784,"2014":9785,"boyfriends":9786,"grapher":9787,"denying":9788,"rested":9789,"lectures":9790,"spoon":9791,"dawn":9792,"services":9793,"notebook":9794,"strip":9795,"skyrim":9796,"programmer":9797,"attacking":9798,"recognition":9799,"moderately":9800,"achieved":9801,"distracting":9802,"vanilla":9803,"fragile":9804,"jerks":9805,"snail":9806,"temperaments":9807,"explor":9808,"hostile":9809,"framework":9810,"rpgs":9811,"potatoes":9812,"weapons":9813,"shakespe":9814,"coolest":9815,"explicitly":9816,"funniest":9817,"eloqu":9818,"heterosexual":9819,"arbitrary":9820,"smartest":9821,"ao":9822,"bend":9823,"gand":9824,"ival":9825,"thru":9826,"repub":9827,"memes":9828,"chron":9829,"elle":9830,"roses":9831,"icy":9832,"modif":9833,"doom":9834,"dozen":9835,"cereal":9836,"exposure":9837,"concise":9838,"caps":9839,"spelled":9840,"umin":9841,"kindly":9842,"newbie":9843,"biting":9844,"mighty":9845,"voting":9846,"entious":9847,"morph":9848,"generalized":9849,"suppress":9850,"streak":9851,"empt":9852,"networking":9853,"spiral":9854,"teenagers":9855,"approaches":9856,"purposely":9857,"consists":9858,"specifics":9859,"disappointment":9860,"separated":9861,"usible":9862,"destroying":9863,"continues":9864,"doubted":9865,"symbols":9866,"financially":9867,"contains":9868,"bruce":9869,"llllllll":9870,"psychopaths":9871,"cartoons":9872,"snowflake":9873,"thursday":9874,"gpa":9875,"leness":9876,"ole":9877,"uber":9878,"wan":9879,"wack":9880,"pered":9881,"defe":9882,"entity":9883,"pover":9884,"raz":9885,"sss":9886,"agent":9887,"pls":9888,"ummm":9889,"whims":9890,"reduce":9891,"thankyou":9892,"underdeveloped":9893,"manners":9894,"sensible":9895,"waters":9896,"versity":9897,"bucket":9898,"drank":9899,"listens":9900,"addy":9901,"region":9902,"mired":9903,"drivers":9904,"stret":9905,"mothers":9906,"breaker":9907,"tutor":9908,"qualified":9909,"stereotyping":9910,"researched":9911,"wallet":9912,"weaker":9913,"binge":9914,"furnit":9915,"colorful":9916,"bbish":9917,"boarding":9918,"circumstance":9919,"pilot":9920,"linux":9921,"deliver":9922,"threatening":9923,"skipped":9924,"cheerful":9925,"kittens":9926,"blessing":9927,"traumatic":9928,"apocalypse":9929,"november":9930,"mediocre":9931,"republican":9932,"gul":9933,"lf":9934,"stats":9935,"seman":9936,"vegg":9937,"asse":9938,"aswell":9939,"loc":9940,"poet":9941,"shining":9942,"wore":9943,"disgu":9944,"helpless":9945,"jean":9946,"steel":9947,"glory":9948,"formula":9949,"breast":9950,"basing":9951,"speculation":9952,"opinionated":9953,"approachable":9954,"majoring":9955,"hyp":9956,"hybrid":9957,"killers":9958,"fuckin":9959,"deadlines":9960,"observer":9961,"pursuit":9962,"storming":9963,"insulted":9964,"bonus":9965,"promised":9966,"sanguine":9967,"contradiction":9968,"festival":9969,"contributing":9970,"devast":9971,"reflective":9972,"disturbed":9973,"dragons":9974,"homosexual":9975,"conscientious":9976,"rofl":9977,"controversial":9978,"treasure":9979,"forgiveness":9980,"obscure":9981,"furniture":9982,"ape":9983,"eup":9984,"ials":9985,"lined":9986,"rous":9987,"ues":9988,"thre":9989,"rex":9990,"reactive":9991,"recording":9992,"erm":9993,"stones":9994,"isxj":9995,"lewis":9996,"vehic":9997,"icious":9998,"acles":9999,"perpet":10000,"quar":10001,"raises":10002,"needless":10003,"disorganized":10004,"faults":10005,"strings":10006,"mindless":10007,"matrix":10008,"tedious":10009,"ruth":10010,"misanthro":10011,"cord":10012,"musicians":10013,"responds":10014,"berries":10015,"earned":10016,"extremes":10017,"burnt":10018,"refers":10019,"ooooo":10020,"awkwardly":10021,"analyzed":10022,"kyo":10023,"complexity":10024,"tremend":10025,"visionary":10026,"snack":10027,"representation":10028,"graduating":10029,"investment":10030,"bumping":10031,"cracks":10032,"exceptionally":10033,"tactics":10034,"stealing":10035,"encouraged":10036,"mildly":10037,"arrive":10038,"arrived":10039,"assistant":10040,"delusional":10041,"elliot":10042,"tragedy":10043,"dess":10044,"dudes":10045,"oat":10046,"pical":10047,"vise":10048,"wary":10049,"recon":10050,"ono":10051,"enix":10052,"leaf":10053,"socr":10054,"mods":10055,"dome":10056,"uncertainty":10057,"unconventional":10058,"sibling":10059,"sheet":10060,"ineff":10061,"dislikes":10062,"realistically":10063,"pharm":10064,"monog":10065,"extj":10066,"akin":10067,"jeez":10068,"tender":10069,"trailer":10070,"charity":10071,"sponge":10072,"conditional":10073,"migr":10074,"spots":10075,"refused":10076,"commenting":10077,"machia":10078,"snark":10079,"interpretations":10080,"figur":10081,"impulse":10082,"undant":10083,"confrontational":10084,"consuming":10085,"revealed":10086,"applicable":10087,"xsfp":10088,"francis":10089,"duality":10090,"louis":10091,"millen":10092,"branch":10093,"endearing":10094,"infatuated":10095,"ptsd":10096,"magazine":10097,"underestimate":10098,"majors":10099,"chicago":10100,"demeanor":10101,"eagle":10102,"shakespeare":10103,"81":10104,"ea":10105,"ng":10106,"oli":10107,"wre":10108,"yd":10109,"ingen":10110,"tower":10111,"beans":10112,"ashi":10113,"aspie":10114,"arse":10115,"whiny":10116,"chu":10117,"kevin":10118,"wie":10119,"ghet":10120,"advoc":10121,"intru":10122,"union":10123,"quarter":10124,"oked":10125,"sagit":10126,"bol":10127,"item":10128,"render":10129,"cky":10130,"overbearing":10131,"disconnect":10132,"mankind":10133,"ideology":10134,"buried":10135,"atively":10136,"lightly":10137,"venture":10138,"2015":10139,"occurren":10140,"concerts":10141,"walt":10142,"behavioral":10143,"140":10144,"mixing":10145,"index":10146,"meets":10147,"feeding":10148,"deserved":10149,"roads":10150,"depths":10151,"crossing":10152,"roots":10153,"blows":10154,"participating":10155,"nicknames":10156,"attended":10157,"absorb":10158,"enlightening":10159,"thumbs":10160,"pussy":10161,"dabble":10162,"amusement":10163,"florida":10164,"130":10165,"dna":10166,"fis":10167,"fought":10168,"glee":10169,"jet":10170,"pine":10171,"uhh":10172,"vas":10173,"inhibit":10174,"resur":10175,"meals":10176,"arab":10177,"coding":10178,"sual":10179,"ophren":10180,"neil":10181,"gum":10182,"boils":10183,"overload":10184,"navy":10185,"jewel":10186,"stepping":10187,"fuel":10188,"marked":10189,"trial":10190,"calvin":10191,"norwe":10192,"warrant":10193,"searched":10194,"chased":10195,"spoiler":10196,"ntj":10197,"masoch":10198,"fortunate":10199,"kien":10200,"braz":10201,"cinnam":10202,"committing":10203,"paintings":10204,"budget":10205,"pursued":10206,"gaining":10207,"gatherings":10208,"swings":10209,"maxi":10210,"efficiently":10211,"tangent":10212,"dollar":10213,"relieved":10214,"taxes":10215,"sincerity":10216,"schizophren":10217,"energized":10218,"admirable":10219,"hobbit":10220,"squirrel":10221,"protagonist":10222,"machiavel":10223,"cinnamon":10224,"79":10225,"aven":10226,"aire":10227,"een":10228,"gus":10229,"jas":10230,"nard":10231,"tread":10232,"wrist":10233,"antic":10234,"atile":10235,"stag":10236,"behold":10237,"asu":10238,"loses":10239,"uted":10240,"defic":10241,"homes":10242,"necro":10243,"perci":10244,"conquer":10245,"simon":10246,"prophe":10247,"actress":10248,"cide":10249,"ives":10250,"spy":10251,"estim":10252,"abled":10253,"misread":10254,"craz":10255,"northern":10256,"subtypes":10257,"cube":10258,"pasta":10259,"patch":10260,"patrick":10261,"classy":10262,"weirdly":10263,"assured":10264,"phil":10265,"phies":10266,"motivational":10267,"argumentative":10268,"transcend":10269,"concluded":10270,"hoped":10271,"ethnic":10272,"yyy":10273,"victori":10274,"tolerant":10275,"nurturing":10276,"masculinity":10277,"ghosts":10278,"stitute":10279,"reckon":10280,"reckless":10281,"employment":10282,"aesthetic":10283,"archetype":10284,"documentaries":10285,"alignment":10286,"rhythm":10287,"dinosaur":10288,"db":10289,"pad":10290,"pud":10291,"rank":10292,"vod":10293,"vital":10294,"beloved":10295,"chop":10296,"elit":10297,"addressed":10298,"hoc":10299,"caution":10300,"ella":10301,"protest":10302,"readily":10303,"boobs":10304,"hermi":10305,"aph":10306,"discomfort":10307,"parking":10308,"closing":10309,"thanksgiving":10310,"stew":10311,"chea":10312,"suring":10313,"opens":10314,"priest":10315,"minecraft":10316,"haru":10317,"healthier":10318,"runner":10319,"comfortably":10320,"fallout":10321,"fitness":10322,"spends":10323,"brian":10324,"societies":10325,"supply":10326,"mercy":10327,"cooked":10328,"uuu":10329,"thood":10330,"conflicted":10331,"embar":10332,"supported":10333,"criticized":10334,"floyd":10335,"painted":10336,"machines":10337,"sympathetic":10338,"materialistic":10339,"delivery":10340,"priorit":10341,"protecting":10342,"washed":10343,"harmful":10344,"awwww":10345,"addressing":10346,"consume":10347,"obligation":10348,"obligated":10349,"karma":10350,"evange":10351,"scheme":10352,"heights":10353,"democracy":10354,"grudge":10355,"discrimination":10356,"astronomy":10357,"glorious":10358,"tolkien":10359,"privilege":10360,"conduct":10361,"provoking":10362,"volume":10363,"educational":10364,"dichotomies":10365,"hermione":10366,"cp":10367,"daddy":10368,"fry":10369,"gie":10370,"jones":10371,"kurt":10372,"ov":10373,"ota":10374,"ull":10375,"xus":10376,"rec":10377,"resort":10378,"returning":10379,"steven":10380,"aland":10381,"edward":10382,"admired":10383,"unintentionally":10384,"unemployed":10385,"uncontroll":10386,"sured":10387,"concur":10388,"presu":10389,"proved":10390,"viet":10391,"bleach":10392,"joint":10393,"appre":10394,"faking":10395,"desir":10396,"backed":10397,"beforehand":10398,"steak":10399,"childlike":10400,"inclination":10401,"varied":10402,"merry":10403,"artificial":10404,"jail":10405,"brag":10406,"initiated":10407,"insects":10408,"nutshell":10409,"variants":10410,"bonding":10411,"pinpoint":10412,"thrive":10413,"quizzes":10414,"idiotic":10415,"soothing":10416,"yyyyyyyy":10417,"android":10418,"drums":10419,"seattle":10420,"betrayed":10421,"selection":10422,"allergic":10423,"notifications":10424,"executive":10425,"geometry":10426,"anatomy":10427,"bam":10428,"fically":10429,"gall":10430,"jav":10431,"nas":10432,"sab":10433,"smal":10434,"scent":10435,"slack":10436,"inju":10437,"inconsiderate":10438,"relying":10439,"mega":10440,"seren":10441,"mytho":10442,"lotr":10443,"elf":10444,"feather":10445,"dore":10446,"cosm":10447,"goti":10448,"unconsciously":10449,"negoti":10450,"pov":10451,"cease":10452,"simi":10453,"upside":10454,"prom":10455,"rah":10456,"raging":10457,"sayin":10458,"workout":10459,"ticket":10460,"fili":10461,"divine":10462,"logies":10463,"foremost":10464,"extre":10465,"pardon":10466,"ruled":10467,"stepped":10468,"welcoming":10469,"giver":10470,"lighting":10471,"carol":10472,"baking":10473,"freel":10474,"visions":10475,"fallacy":10476,"expects":10477,"appreciates":10478,"brainstorming":10479,"shortly":10480,"judgements":10481,"nessed":10482,"distrust":10483,"nicest":10484,"evolve":10485,"instructions":10486,"shelf":10487,"plausible":10488,"hesitate":10489,"dysfunctional":10490,"cowboy":10491,"anthropology":10492,"nihilism":10493,"dent":10494,"xxt":10495,"insignificant":10496,"anarch":10497,"resume":10498,"onion":10499,"whist":10500,"escal":10501,"sore":10502,"elines":10503,"goat":10504,"likewise":10505,"hover":10506,"perpe":10507,"confirmation":10508,"upbeat":10509,"spain":10510,"fulfilled":10511,"finance":10512,"prick":10513,"angst":10514,"gency":10515,"longed":10516,"matched":10517,"ffs":10518,"emotionless":10519,"confuses":10520,"marath":10521,"ggin":10522,"minem":10523,"leather":10524,"univer":10525,"judger":10526,"sweep":10527,"entirety":10528,"facep":10529,"attentive":10530,"grows":10531,"gladly":10532,"haircut":10533,"servation":10534,"troubled":10535,"continually":10536,"contacts":10537,"sarah":10538,"meetings":10539,"sucker":10540,"significance":10541,"deemed":10542,"representative":10543,"hypocritical":10544,"behaviours":10545,"officer":10546,"achievement":10547,"blindly":10548,"browser":10549,"vitam":10550,"contemplate":10551,"consequence":10552,"collap":10553,"sheldon":10554,"guidance":10555,"aaaaaaaaaaaaaaaa":10556,"dictator":10557,"betrayal":10558,"exaggerated":10559,"endeav":10560,"symbolism":10561,"objectivity":10562,"pronounced":10563,"finnish":10564,"hippie":10565,"cynicism":10566,"monogamous":10567,"06":10568,"gently":10569,"genders":10570,"ib":10571,"kins":10572,"oms":10573,"pent":10574,"tation":10575,"twel":10576,"reviews":10577,"behalf":10578,"adul":10579,"intra":10580,"gore":10581,"unwanted":10582,"thingy":10583,"connot":10584,"sili":10585,"cage":10586,"caus":10587,"shrink":10588,"rachel":10589,"thanking":10590,"displays":10591,"digest":10592,"centre":10593,"buff":10594,"scul":10595,"scru":10596,"charles":10597,"lighter":10598,"simpler":10599,"generalize":10600,"wholeheartedly":10601,"cycles":10602,"argued":10603,"picks":10604,"quicker":10605,"masses":10606,"elev":10607,"photographer":10608,"partial":10609,"bulb":10610,"auton":10611,"recognise":10612,"recommendations":10613,"vicious":10614,"phrased":10615,"chime":10616,"blogs":10617,"maniac":10618,"neuroscience":10619,"demonstrate":10620,"pitch":10621,"script":10622,"buddies":10623,"hallu":10624,"evaluate":10625,"yikes":10626,"pirate":10627,"doomed":10628,"blatantly":10629,"employees":10630,"implications":10631,"vacuum":10632,"enneatype":10633,"athis":10634,"aus":10635,"dal":10636,"ew":10637,"metic":10638,"andrew":10639,"seas":10640,"asingly":10641,"lihood":10642,"timid":10643,"chet":10644,"uts":10645,"outbursts":10646,"adjective":10647,"pockets":10648,"shits":10649,"okc":10650,"ounge":10651,"raped":10652,"hike":10653,"funk":10654,"underground":10655,"napo":10656,"logged":10657,"afterlife":10658,"listing":10659,"brad":10660,"synes":10661,"register":10662,"approxim":10663,"eater":10664,"burns":10665,"install":10666,"opposing":10667,"benevol":10668,"photoshop":10669,"rounded":10670,"madness":10671,"grandpa":10672,"rocky":10673,"hides":10674,"firmly":10675,"equation":10676,"indicative":10677,"darling":10678,"analysing":10679,"instructor":10680,"optimist":10681,"mirrors":10682,"advantages":10683,"kudos":10684,"legitim":10685,"translated":10686,"virginity":10687,"australian":10688,"volunteering":10689,"louder":10690,"interrupt":10691,"substanti":10692,"spoilers":10693,"correction":10694,"spatial":10695,"rhetor":10696,"elizabeth":10697,"recurring":10698,"entrepreneur":10699,"120":10700,"bd":10701,"bah":10702,"ich":10703,"mam":10704,"oscar":10705,"rl":10706,"envious":10707,"stam":10708,"stink":10709,"altru":10710,"arist":10711,"whine":10712,"liars":10713,"destruction":10714,"outrage":10715,"oppon":10716,"neon":10717,"antagon":10718,"mph":10719,"goods":10720,"reland":10721,"jose":10722,"firef":10723,"izer":10724,"omi":10725,"blink":10726,"testo":10727,"humili":10728,"pressured":10729,"cram":10730,"paired":10731,"tility":10732,"creed":10733,"colleges":10734,"distress":10735,"damaged":10736,"communism":10737,"truthfully":10738,"witnessed":10739,"idealize":10740,"individuality":10741,"160":10742,"merit":10743,"starbucks":10744,"boxing":10745,"criticizing":10746,"wednes":10747,"pissing":10748,"mastermind":10749,"teams":10750,"lsd":10751,"remaining":10752,"inspirational":10753,"dramat":10754,"sacred":10755,"resonated":10756,"slave":10757,"attributed":10758,"shrugs":10759,"junkie":10760,"resentment":10761,"fabulous":10762,"fabric":10763,"portrayed":10764,"subscribe":10765,"yummy":10766,"flickr":10767,"exploration":10768,"sagittar":10769,"vodka":10770,"curl":10771,"mg":10772,"masks":10773,"oz":10774,"rud":10775,"ini":10776,"inches":10777,"arise":10778,"notori":10779,"ros":10780,"moms":10781,"outta":10782,"unts":10783,"unclear":10784,"ceiling":10785,"perse":10786,"permission":10787,"justin":10788,"caf":10789,"worm":10790,"propose":10791,"ista":10792,"chores":10793,"fined":10794,"finland":10795,"diver":10796,"bitches":10797,"blaming":10798,"scener":10799,"marx":10800,"watches":10801,"triggers":10802,"dept":10803,"licity":10804,"examine":10805,"namely":10806,"ifications":10807,"speakers":10808,"silently":10809,"titled":10810,"hype":10811,"corrected":10812,"phoenix":10813,"emily":10814,"bravo":10815,"2009":10816,"validate":10817,"addict":10818,"cises":10819,"sections":10820,"libraries":10821,"insanely":10822,"electrical":10823,"promises":10824,"transp":10825,"reflects":10826,"battles":10827,"belongs":10828,"village":10829,"yelled":10830,"lengthy":10831,"percentages":10832,"icorn":10833,"restaurants":10834,"russia":10835,"vocals":10836,"categorize":10837,"guarante":10838,"phantom":10839,"mexican":10840,"gauge":10841,"narrative":10842,"monologue":10843,"sagittarius":10844,"ime":10845,"ireland":10846,"rants":10847,"sadd":10848,"wen":10849,"thie":10850,"stig":10851,"lible":10852,"ela":10853,"depre":10854,"adder":10855,"construction":10856,"updates":10857,"prose":10858,"saint":10859,"dissect":10860,"experiments":10861,"generate":10862,"consent":10863,"humility":10864,"muscles":10865,"bake":10866,"classified":10867,"healer":10868,"warn":10869,"legends":10870,"drool":10871,"partying":10872,"rison":10873,"dancer":10874,"float":10875,"fluctu":10876,"ranting":10877,"routines":10878,"contribution":10879,"dddd":10880,"variations":10881,"rooted":10882,"obsessing":10883,"cherry":10884,"iiiiiiii":10885,"spinning":10886,"genesis":10887,"fifth":10888,"williams":10889,"grudges":10890,"complaints":10891,"indirectly":10892,"immune":10893,"inquis":10894,"registered":10895,"millenni":10896,"twelve":10897,"400":10898,"baked":10899,"gle":10900,"vu":10901,"yers":10902,"zoned":10903,"inu":10904,"anor":10905,"resolution":10906,"arthur":10907,"acer":10908,"doc":10909,"nexus":10910,"mafi":10911,"concious":10912,"seeks":10913,"plato":10914,"comfy":10915,"sheets":10916,"inet":10917,"overlap":10918,"afar":10919,"izzy":10920,"whichever":10921,"angles":10922,"believable":10923,"cries":10924,"misinterpreted":10925,"checks":10926,"mario":10927,"margin":10928,"sterone":10929,"norway":10930,"viewpoints":10931,"repul":10932,"lane":10933,"analog":10934,"dearly":10935,"password":10936,"blocks":10937,"gifs":10938,"penal":10939,"imagery":10940,"cups":10941,"exercises":10942,"graduation":10943,"mistyping":10944,"determination":10945,"bitchy":10946,"ambient":10947,"widely":10948,"increasingly":10949,"annoyance":10950,"guardian":10951,"occupation":10952,"guided":10953,"geez":10954,"extension":10955,"parallel":10956,"disrespectful":10957,"reassurance":10958,"candidate":10959,"complaint":10960,"empirical":10961,"citizen":10962,"warrior":10963,"gaga":10964,"choleric":10965,"critique":10966,"sympathize":10967,"fierce":10968,"emptiness":10969,"maximum":10970,"hockey":10971,"desirable":10972,"napoleon":10973,"gage":10974,"hue":10975,"jd":10976,"mint":10977,"mfa":10978,"uous":10979,"vv":10980,"wu":10981,"inconsistent":10982,"ingred":10983,"behaving":10984,"beef":10985,"asap":10986,"nood":10987,"soda":10988,"tici":10989,"eland":10990,"forbid":10991,"moth":10992,"coach":10993,"cosmo":10994,"goose":10995,"perfu":10996,"proto":10997,"bosses":10998,"spice":10999,"ilit":11000,"composition":11001,"immoral":11002,"disrup":11003,"probability":11004,"extend":11005,"minis":11006,"schooling":11007,"corners":11008,"glare":11009,"fication":11010,"turbul":11011,"bait":11012,"dragged":11013,"mich":11014,"202":11015,"freeze":11016,"communities":11017,"instin":11018,"instagram":11019,"blocked":11020,"eleven":11021,"drops":11022,"deadline":11023,"limiting":11024,"statistically":11025,"apologise":11026,"apologizing":11027,"biography":11028,"protein":11029,"recommendation":11030,"pulls":11031,"slide":11032,"operating":11033,"hypocris":11034,"bearable":11035,"samsung":11036,"sweetest":11037,"emphasize":11038,"outsider":11039,"whisper":11040,"whiskey":11041,"encounters":11042,"hierarchy":11043,"champion":11044,"preparing":11045,"propag":11046,"rarity":11047,"accommo":11048,"norwegian":11049,"aristo":11050,"wednesday":11051,"avi":11052,"bane":11053,"cass":11054,"dil":11055,"jess":11056,"lum":11057,"mash":11058,"reacted":11059,"recru":11060,"ongoing":11061,"eno":11062,"aro":11063,"charts":11064,"aye":11065,"loathing":11066,"ria":11067,"adams":11068,"unwilling":11069,"suf":11070,"poking":11071,"donate":11072,"tert":11073,"hired":11074,"hiya":11075,"umbre":11076,"olen":11077,"heres":11078,"meanwhile":11079,"grant":11080,"lows":11081,"naught":11082,"monty":11083,"monsters":11084,"malicious":11085,"bookstore":11086,"misogy":11087,"marsh":11088,"marine":11089,"calend":11090,"shade":11091,"wonderfully":11092,"decre":11093,"cycling":11094,"prize":11095,"waited":11096,"horiz":11097,"ashes":11098,"teaches":11099,"popping":11100,"psychologists":11101,"eats":11102,"ginger":11103,"destination":11104,"tomboy":11105,"scientifically":11106,"shutting":11107,"strengthen":11108,"furthermore":11109,"slim":11110,"appointment":11111,"entertained":11112,"strategic":11113,"swallow":11114,"skewed":11115,"priorities":11116,"calculating":11117,"contempor":11118,"summon":11119,"empathic":11120,"spicy":11121,"evolutionary":11122,"aiming":11123,"stimulated":11124,"reinforce":11125,"anonym":11126,"wwwwwwww":11127,"temporarily":11128,"motorcycle":11129,"mushrooms":11130,"strategies":11131,"conceal":11132,"probable":11133,"aesthetics":11134,"confronted":11135,"divided":11136,"hollywood":11137,"emoticons":11138,"capricorn":11139,"testosterone":11140,"ingredient":11141,"instinctive":11142,"hypocrisy":11143,"ais":11144,"aah":11145,"etern":11146,"fm":11147,"fue":11148,"iers":11149,"kra":11150,"mme":11151,"nud":11152,"tp":11153,"replaced":11154,"enn":11155,"stj":11156,"ita":11157,"beck":11158,"esh":11159,"chord":11160,"dopam":11161,"ripped":11162,"convert":11163,"casts":11164,"presume":11165,"yeh":11166,"hash":11167,"redundant":11168,"tickets":11169,"underwear":11170,"impersonal":11171,"disposition":11172,"fathom":11173,"typal":11174,"mindfulness":11175,"mond":11176,"watson":11177,"shaking":11178,"turkey":11179,"dreamers":11180,"gesture":11181,"pedest":11182,"attracts":11183,"2016":11184,"existent":11185,"fairness":11186,"appeals":11187,"notices":11188,"facade":11189,"presenting":11190,"decisiveness":11191,"draws":11192,"climate":11193,"individualistic":11194,"refrain":11195,"refuses":11196,"cutest":11197,"deadly":11198,"thodo":11199,"cleaned":11200,"2005":11201,"upsetting":11202,"ethic":11203,"microw":11204,"catches":11205,"radar":11206,"evident":11207,"tttt":11208,"indication":11209,"victory":11210,"flattering":11211,"increased":11212,"hannibal":11213,"politely":11214,"plague":11215,"soldier":11216,"weirdest":11217,"inventor":11218,"thirty":11219,"philosophers":11220,"washington":11221,"drowning":11222,"admiration":11223,"compulsive":11224,"institution":11225,"poverty":11226,"smallest":11227,"hallucin":11228,"avid":11229,"backing":11230,"fling":11231,"pg":11232,"utop":11233,"vm":11234,"refu":11235,"republic":11236,"enh":11237,"enforce":11238,"lego":11239,"edition":11240,"rocket":11241,"peg":11242,"rie":11243,"endor":11244,"ultra":11245,"moreso":11246,"prominent":11247,"venus":11248,"aste":11249,"nevertheless":11250,"disson":11251,"izz":11252,"clay":11253,"clutter":11254,"angels":11255,"diversity":11256,"generations":11257,"wardrobe":11258,"singular":11259,"welp":11260,"syl":11261,"cured":11262,"luke":11263,"appla":11264,"classics":11265,"videogames":11266,"weirdness":11267,"ennegram":11268,"jordan":11269,"zealand":11270,"psychologically":11271,"screwing":11272,"barrier":11273,"produced":11274,"productivity":11275,"publicly":11276,"sessions":11277,"striking":11278,"bragging":11279,"accordingly":11280,"3333":11281,"hahahahahahahaha":11282,"victi":11283,"wiser":11284,"irritates":11285,"aspir":11286,"achievements":11287,"assertion":11288,"records":11289,"isolate":11290,"demons":11291,"guarded":11292,"gentleman":11293,"platform":11294,"taller":11295,"applications":11296,"pessimist":11297,"lolololo":11298,"eeeeeeeeeeeeeeee":11299,"archetypes":11300,"dolph":11301,"googling":11302,"neglected":11303,"deviant":11304,"intrins":11305,"paradig":11306,"geniuses":11307,"mafia":11308,"aay":11309,"bap":11310,"clicking":11311,"fand":11312,"lud":11313,"nig":11314,"nels":11315,"oled":11316,"sass":11317,"anth":11318,"envision":11319,"alleg":11320,"alchemist":11321,"tome":11322,"esque":11323,"elsa":11324,"delicate":11325,"abras":11326,"outspoken":11327,"rides":11328,"adheren":11329,"likelihood":11330,"urable":11331,"expose":11332,"cancel":11333,"conceive":11334,"ulum":11335,"rens":11336,"blessed":11337,"fog":11338,"differs":11339,"realising":11340,"division":11341,"omni":11342,"gamy":11343,"interacted":11344,"ruining":11345,"cripp":11346,"triad":11347,"charlot":11348,"hubby":11349,"wonderland":11350,"advis":11351,"carnation":11352,"hurric":11353,"conversational":11354,"rarest":11355,"winner":11356,"indigo":11357,"massage":11358,"crucial":11359,"individually":11360,"messaging":11361,"cultiv":11362,"starters":11363,"zzzz":11364,"disagreement":11365,"requited":11366,"accum":11367,"calmly":11368,"protector":11369,"datab":11370,"inviting":11371,"association":11372,"cafebot":11373,"grim":11374,"hypocr":11375,"judgers":11376,"assert":11377,"innocence":11378,"electron":11379,"schedules":11380,"reflex":11381,"integrate":11382,"patients":11383,"progression":11384,"conceptions":11385,"spreading":11386,"spiderman":11387,"perceivers":11388,"frightening":11389,"bouncing":11390,"crawl":11391,"linguistics":11392,"assassin":11393,"quieter":11394,"breeze":11395,"elephant":11396,"cm":11397,"kale":11398,"noun":11399,"nfj":11400,"oter":11401,"wage":11402,"thx":11403,"inth":11404,"inconsist":11405,"receptive":11406,"erk":11407,"enfx":11408,"edi":11409,"edgy":11410,"chri":11411,"deer":11412,"dots":11413,"abra":11414,"intric":11415,"oda":11416,"proced":11417,"spray":11418,"rend":11419,"fires":11420,"shield":11421,"fewer":11422,"interior":11423,"smirk":11424,"vored":11425,"considers":11426,"complement":11427,"completing":11428,"hugged":11429,"dependency":11430,"torment":11431,"visually":11432,"shove":11433,"coupled":11434,"dylan":11435,"walker":11436,"touches":11437,"election":11438,"negatives":11439,"noticeable":11440,"mermaid":11441,"motivates":11442,"affecting":11443,"2001":11444,"chatty":11445,"structures":11446,"mechanisms":11447,"recorded":11448,"fools":11449,"assigned":11450,"puppies":11451,"virtue":11452,"robotic":11453,"dictate":11454,"fetish":11455,"dimensional":11456,"vagina":11457,"cinema":11458,"compensate":11459,"respectively":11460,"olymp":11461,"lavender":11462,"comedian":11463,"motto":11464,"domestic":11465,"facepalm":11466,"amed":11467,"bop":11468,"cating":11469,"gment":11470,"hrs":11471,"lis":11472,"lul":11473,"lens":11474,"lmfa":11475,"md":11476,"pant":11477,"packing":11478,"sfj":11479,"sabo":11480,"âx":11481,"stically":11482,"rots":11483,"accus":11484,"defeat":11485,"unattractive":11486,"unrequited":11487,"supr":11488,"ophi":11489,"neo":11490,"exceed":11491,"canc":11492,"mbling":11493,"realist":11494,"ysis":11495,"newspa":11496,"ieties":11497,"buck":11498,"marty":11499,"solar":11500,"cara":11501,"skies":11502,"simplistic":11503,"repor":11504,"fearful":11505,"sunset":11506,"communications":11507,"grounds":11508,"builds":11509,"180":11510,"limitations":11511,"doormat":11512,"feminists":11513,"fluff":11514,"authoritarian":11515,"journ":11516,"nutr":11517,"irritate":11518,"measures":11519,"meditating":11520,"snakes":11521,"speeches":11522,"spontaneity":11523,"journalism":11524,"copied":11525,"sensical":11526,"embarrassment":11527,"cherish":11528,"enlightened":11529,"bicy":11530,"assistance":11531,"jawz":11532,"misunderstandings":11533,"infatuation":11534,"navigate":11535,"deprived":11536,"hypno":11537,"scenery":11538,"eternity":11539,"dopamine":11540,"011":11541,"egy":11542,"fus":11543,"lamp":11544,"nate":11545,"xjs":11546,"strain":11547,"stolen":11548,"ascend":11549,"hail":11550,"lovable":11551,"peach":11552,"aco":11553,"detri":11554,"doctr":11555,"coca":11556,"rious":11557,"enta":11558,"unit":11559,"sue":11560,"exes":11561,"viable":11562,"manu":11563,"ickle":11564,"assing":11565,"awak":11566,"ffff":11567,"rubbish":11568,"confid":11569,"entile":11570,"subway":11571,"carries":11572,"generalizing":11573,"cyber":11574,"classmate":11575,"metro":11576,"aaay":11577,"developer":11578,"denied":11579,"nony":11580,"valuation":11581,"percentile":11582,"buildings":11583,"lions":11584,"improvis":11585,"explosion":11586,"jumps":11587,"memorable":11588,"engineers":11589,"independently":11590,"vana":11591,"novelty":11592,"chilling":11593,"calculated":11594,"participated":11595,"scarlet":11596,"collage":11597,"survived":11598,"prayer":11599,"adjusted":11600,"miller":11601,"permanently":11602,"interrupted":11603,"sneaky":11604,"iterate":11605,"ceremon":11606,"discern":11607,"supreme":11608,"occurrence":11609,"benevolent":11610,"dissonance":11611,"bak":11612,"bff":11613,"bpd":11614,"gad":11615,"lisa":11616,"nies":11617,"pap":11618,"wut":11619,"yn":11620,"repress":11621,"isra":11622,"secl":11623,"leth":11624,"arrested":11625,"sob":11626,"lized":11627,"chit":11628,"roast":11629,"peeps":11630,"aces":11631,"defi":11632,"demis":11633,"dearest":11634,"coordin":11635,"geass":11636,"unity":11637,"uninteresting":11638,"unconditional":11639,"holl":11640,"excess":11641,"endlessly":11642,"tai":11643,"cials":11644,"lau":11645,"boil":11646,"willpower":11647,"chore":11648,"disast":11649,"dissoci":11650,"discoura":11651,"schooled":11652,"chef":11653,"scal":11654,"futile":11655,"rowling":11656,"counted":11657,"subje":11658,"writings":11659,"simplicity":11660,"drastically":11661,"healthcare":11662,"warned":11663,"superpower":11664,"signal":11665,"assumes":11666,"spock":11667,"animate":11668,"stereotyped":11669,"aboard":11670,"resident":11671,"bloom":11672,"oooooo":11673,"simplest":11674,"clues":11675,"delve":11676,"psychopathy":11677,"moderation":11678,"catchy":11679,"sixteen":11680,"rrr":11681,"maternal":11682,"campa":11683,"lurker":11684,"shells":11685,"increases":11686,"shifting":11687,"neighbour":11688,"capitalist":11689,"behaved":11690,"infinity":11691,"cells":11692,"binary":11693,"biases":11694,"practiced":11695,"coincident":11696,"expanding":11697,"paralysis":11698,"cigarette":11699,"advertising":11700,"african":11701,"navig":11702,"nagging":11703,"distribution":11704,"luxury":11705,"stellar":11706,"costume":11707,"semantics":11708,"euphor":11709,"cosmic":11710,"similiar":11711,"adulthood":11712,"contemporary":11713,"victims":11714,"abrasive":11715,"charlotte":11716,"hypocrite":11717,"journals":11718,"daf":11719,"dances":11720,"hart":11721,"jest":11722,"jama":11723,"kier":11724,"nations":11725,"warts":11726,"insurance":11727,"incompetence":11728,"anni":11729,"anarchy":11730,"reco":11731,"relies":11732,"reacts":11733,"rephrase":11734,"meow":11735,"lyric":11736,"assa":11737,"oft":11738,"arc":11739,"chalk":11740,"lolol":11741,"located":11742,"peas":11743,"acquired":11744,"activeness":11745,"dod":11746,"golf":11747,"unbiased":11748,"expresses":11749,"console":11750,"preservation":11751,"prolonged":11752,"umbling":11753,"illumin":11754,"affir":11755,"clam":11756,"awfully":11757,"socio":11758,"certific":11759,"sorrow":11760,"curve":11761,"bugging":11762,"buffy":11763,"corny":11764,"glas":11765,"substitute":11766,"crunch":11767,"carlin":11768,"streaming":11769,"cleared":11770,"parenting":11771,"halo":11772,"respects":11773,"blocking":11774,"soulmates":11775,"flows":11776,"blade":11777,"fives":11778,"programmed":11779,"beaten":11780,"requirement":11781,"popularity":11782,"storms":11783,"contribu":11784,"crown":11785,"stares":11786,"tritypes":11787,"rejecting":11788,"devices":11789,"shifts":11790,"sentiments":11791,"experimenting":11792,"prevents":11793,"translates":11794,"employer":11795,"wealthy":11796,"taboo":11797,"strawberry":11798,"knack":11799,"blatant":11800,"seeds":11801,"masturbation":11802,"bleeding":11803,"lilysocks":11804,"component":11805,"summarize":11806,"mimic":11807,"intolerant":11808,"brooding":11809,"comprehension":11810,"orgasm":11811,"scandina":11812,"marathon":11813,"calendar":11814,"adept":11815,"bender":11816,"din":11817,"gel":11818,"kines":11819,"owe":11820,"sends":11821,"smel":11822,"rene":11823,"reign":11824,"remix":11825,"reserve":11826,"itable":11827,"itative":11828,"isons":11829,"andre":11830,"seal":11831,"editor":11832,"rope":11833,"devoid":11834,"domain":11835,"adri":11836,"uneasy":11837,"unnatural":11838,"unreasonable":11839,"exit":11840,"tyler":11841,"tely":11842,"infuri":11843,"tao":11844,"muli":11845,"spel":11846,"illnesses":11847,"immigr":11848,"disput":11849,"affin":11850,"intoxic":11851,"orted":11852,"naw":11853,"naz":11854,"geno":11855,"newer":11856,"award":11857,"worldview":11858,"interfe":11859,"highway":11860,"steer":11861,"mischie":11862,"handled":11863,"dependable":11864,"tors":11865,"planes":11866,"attractiveness":11867,"shore":11868,"superhero":11869,"develops":11870,"appreciating":11871,"spoiled":11872,"burger":11873,"idealized":11874,"frustrates":11875,"sunlight":11876,"sunglasses":11877,"commentary":11878,"barbar":11879,"pens":11880,"sale":11881,"safely":11882,"temperature":11883,"wildly":11884,"sixth":11885,"mrs":11886,"chicks":11887,"aggressively":11888,"contract":11889,"slut":11890,"candles":11891,"accomplishments":11892,"contributed":11893,"questionnaires":11894,"scrip":11895,"cuddles":11896,"wilde":11897,"competing":11898,"pacif":11899,"chemicals":11900,"metaphorical":11901,"contemplative":11902,"pronounce":11903,"vampires":11904,"promote":11905,"cheeks":11906,"fifteen":11907,"cabin":11908,"politician":11909,"excessively":11910,"induced":11911,"geography":11912,"persistent":11913,"gratitude":11914,"stimuli":11915,"enlightenment":11916,"derived":11917,"skirts":11918,"fountain":11919,"socrates":11920,"guaranteed":11921,"fueled":11922,"microwave":11923,"christop":11924,"bark":11925,"ehh":11926,"lounge":11927,"nir":11928,"ninten":11929,"rn":11930,"rates":11931,"sought":11932,"sins":11933,"xsx":11934,"stup":11935,"alled":11936,"armor":11937,"lio":11938,"tid":11939,"tible":11940,"locks":11941,"peeve":11942,"acces":11943,"acular":11944,"febru":11945,"abol":11946,"outdoor":11947,"unethical":11948,"sucking":11949,"amate":11950,"justification":11951,"maps":11952,"prevalent":11953,"upfront":11954,"plug":11955,"inept":11956,"ckles":11957,"compelling":11958,"manson":11959,"mania":11960,"clinton":11961,"offline":11962,"typist":11963,"sities":11964,"monop":11965,"jewish":11966,"downright":11967,"tended":11968,"correlated":11969,"calories":11970,"founded":11971,"crus":11972,"cracking":11973,"synony":11974,"mister":11975,"superpowers":11976,"stered":11977,"correcting":11978,"clips":11979,"debat":11980,"supplies":11981,"portal":11982,"decipher":11983,"spotlight":11984,"combines":11985,"tablet":11986,"symph":11987,"materials":11988,"quitting":11989,"browse":11990,"calculate":11991,"packed":11992,"dolls":11993,"fruits":11994,"shelter":11995,"consumed":11996,"sweetie":11997,"giggles":11998,"pregnancy":11999,"selected":12000,"nnnnnnnn":12001,"notification":12002,"delayed":12003,"eerie":12004,"toddler":12005,"vomit":12006,"vehicle":12007,"intrusive":12008,"resurrect":12009,"cheaper":12010,"mythology":12011,"athise":12012,"okcupid":12013,"suffoc":12014,"paradigm":12015,"lmfao":12016,"nirvana":12017,"nintendo":12018,"february":12019,"110":12020,"fg":12021,"pms":12022,"sang":12023,"smother":12024,"urist":12025,"attic":12026,"ality":12027,"beware":12028,"lik":12029,"eling":12030,"dele":12031,"cozy":12032,"rion":12033,"ridd":12034,"conve":12035,"shud":12036,"aggra":12037,"friggin":12038,"woot":12039,"relent":12040,"foster":12041,"overweight":12042,"diff":12043,"displaying":12044,"discard":12045,"fame":12046,"icky":12047,"newly":12048,"niche":12049,"drun":12050,"magnet":12051,"skull":12052,"distaste":12053,"2017":12054,"lana":12055,"cashier":12056,"descriptive":12057,"resulting":12058,"positives":12059,"jokingly":12060,"trades":12061,"actualized":12062,"disagreeing":12063,"willingly":12064,"trains":12065,"matching":12066,"2008":12067,"specify":12068,"danish":12069,"potent":12070,"liberty":12071,"flour":12072,"creeps":12073,"memorizing":12074,"slice":12075,"equals":12076,"covering":12077,"fashioned":12078,"weakest":12079,"churches":12080,"accidental":12081,"passively":12082,"tranqu":12083,"resistance":12084,"sloan":12085,"narrowed":12086,"sweetheart":12087,"disgusted":12088,"announce":12089,"landscape":12090,"suspicion":12091,"deliberate":12092,"simplified":12093,"reduced":12094,"employee":12095,"constitution":12096,"paradise":12097,"royal":12098,"detachment":12099,"sophistic":12100,"academically":12101,"skepticism":12102,"elegant":12103,"hedon":12104,"whimsical":12105,"inefficient":12106,"inconsistencies":12107,"amateur":12108,"jin":12109,"jere":12110,"mour":12111,"nj":12112,"nay":12113,"sth":12114,"uc":12115,"yall":12116,"yang":12117,"inquir":12118,"revive":12119,"reclusive":12120,"alle":12121,"allot":12122,"orn":12123,"sec":12124,"bees":12125,"essed":12126,"noone":12127,"soy":12128,"ello":12129,"wiz":12130,"detest":12131,"doz":12132,"outcast":12133,"rio":12134,"una":12135,"exotic":12136,"canon":12137,"uptight":12138,"composed":12139,"choir":12140,"mblance":12141,"offence":12142,"plex":12143,"pran":12144,"interven":12145,"remembers":12146,"olds":12147,"subur":12148,"sexism":12149,"listeners":12150,"ggles":12151,"situational":12152,"spook":12153,"hella":12154,"hygi":12155,"ntps":12156,"legally":12157,"1984":12158,"stressing":12159,"pains":12160,"slower":12161,"reaches":12162,"accuse":12163,"explosive":12164,"chatter":12165,"pushes":12166,"faithful":12167,"determines":12168,"internship":12169,"frown":12170,"disturb":12171,"slaves":12172,"hills":12173,"sensations":12174,"sociopathic":12175,"dedication":12176,"smiths":12177,"yield":12178,"wounds":12179,"declare":12180,"advertise":12181,"illustrate":12182,"scatter":12183,"diplomatic":12184,"escapism":12185,"components":12186,"fwb":12187,"enigma":12188,"fleeting":12189,"referencing":12190,"powder":12191,"snarky":12192,"synesthesia":12193,"naughty":12194,"eving":12195,"gary":12196,"jol":12197,"ored":12198,"sque":12199,"tard":12200,"wah":12201,"repair":12202,"atom":12203,"stoned":12204,"itch":12205,"memo":12206,"oral":12207,"vegas":12208,"asive":12209,"ofc":12210,"notions":12211,"tify":12212,"chili":12213,"lore":12214,"rod":12215,"acou":12216,"heli":12217,"iful":12218,"propos":12219,"wholly":12220,"agan":12221,"mushy":12222,"whip":12223,"funky":12224,"compart":12225,"overlook":12226,"faint":12227,"clut":12228,"clust":12229,"sensual":12230,"forehead":12231,"monk":12232,"careless":12233,"certified":12234,"imprac":12235,"expense":12236,"gible":12237,"stuffs":12238,"lightning":12239,"nyc":12240,"lucy":12241,"babe":12242,"sleeve":12243,"volunt":12244,"warcraft":12245,"horn":12246,"scot":12247,"scopes":12248,"enneagrams":12249,"ntjs":12250,"hangout":12251,"destined":12252,"penny":12253,"rises":12254,"striving":12255,"combinations":12256,"ordination":12257,"sickness":12258,"ixfx":12259,"dumble":12260,"clarifying":12261,"hahahahahaha":12262,"weights":12263,"garage":12264,"complimented":12265,"rushing":12266,"accomplishment":12267,"reflected":12268,"aimed":12269,"acquainted":12270,"contradictions":12271,"marrying":12272,"experts":12273,"punching":12274,"collar":12275,"requests":12276,"revealing":12277,"obligations":12278,"eyre":12279,"competit":12280,"signing":12281,"lemme":12282,"exaggerating":12283,"indifference":12284,"remarkable":12285,"shouting":12286,"bourne":12287,"stroke":12288,"rescue":12289,"revelation":12290,"swordsman":12291,"turbulent":12292,"adherence":12293,"subjectivity":12294,"campaign":12295,"affinity":12296,"250":12297,"aholic":12298,"dign":12299,"fuss":12300,"gasp":12301,"lers":12302,"lace":12303,"omed":12304,"rou":12305,"rats":12306,"tink":12307,"incess":12308,"youx":12309,"leash":12310,"aria":12311,"chim":12312,"looo":12313,"pecu":12314,"deth":12315,"outline":12316,"gem":12317,"unfamiliar":12318,"ifi":12319,"nec":12320,"ids":12321,"urges":12322,"poser":12323,"preoccupied":12324,"bowie":12325,"muffin":12326,"plz":12327,"whim":12328,"compose":12329,"lottery":12330,"underrated":12331,"imperfect":12332,"overseas":12333,"offending":12334,"matured":12335,"aku":12336,"paranor":12337,"bland":12338,"blun":12339,"aska":12340,"rug":12341,"smiled":12342,"cursive":12343,"tonous":12344,"subtly":12345,"fringe":12346,"speculate":12347,"largest":12348,"damaging":12349,"nonsensical":12350,"blos":12351,"deadpan":12352,"motivating":12353,"bench":12354,"purposefully":12355,"portu":12356,"explored":12357,"flaky":12358,"heheh":12359,"hollow":12360,"equations":12361,"towns":12362,"squish":12363,"orientated":12364,"practicality":12365,"vanes":12366,"vanity":12367,"mechanic":12368,"jerry":12369,"fatal":12370,"occurring":12371,"procrastinator":12372,"alternatives":12373,"sparks":12374,"conditioning":12375,"spontaneously":12376,"hillary":12377,"wilson":12378,"occupy":12379,"reported":12380,"praying":12381,"constructed":12382,"historically":12383,"infinitely":12384,"smoothly":12385,"emergency":12386,"laser":12387,"evaluation":12388,"quantity":12389,"jenny":12390,"hogwarts":12391,"acknowledging":12392,"acknowledged":12393,"stunning":12394,"pertaining":12395,"organs":12396,"sculp":12397,"legitimately":12398,"substantial":12399,"joseph":12400,"perfume":12401,"database":12402,"christopher":12403,"impractical":12404,"dumbledore":12405,"peculiar":12406,"dye":12407,"gno":12408,"gals":12409,"jag":12410,"jason":12411,"jaded":12412,"kir":12413,"nant":12414,"uhhh":12415,"wl":12416,"inal":12417,"inate":12418,"incomplete":12419,"revi":12420,"reversed":12421,"resili":12422,"aloud":12423,"itated":12424,"itals":12425,"mesh":12426,"aron":12427,"arises":12428,"esoter":12429,"hav":12430,"chrome":12431,"depp":12432,"doses":12433,"cob":12434,"coli":12435,"rivers":12436,"unpopular":12437,"unfold":12438,"lll":12439,"therine":12440,"powered":12441,"perplex":12442,"shun":12443,"quanti":12444,"uploaded":12445,"proces":12446,"tame":12447,"tasty":12448,"readers":12449,"illy":12450,"ums":12451,"dismissed":12452,"disabled":12453,"mana":12454,"finest":12455,"grit":12456,"ortex":12457,"kindle":12458,"matthe":12459,"carefree":12460,"mines":12461,"scroll":12462,"surrender":12463,"cray":12464,"cratic":12465,"magically":12466,"suppressed":12467,"heartbreak":12468,"stresses":12469,"uniform":12470,"midst":12471,"teachings":12472,"randomness":12473,"dominating":12474,"captiv":12475,"juli":12476,"extraordinary":12477,"embed":12478,"sighted":12479,"supports":12480,"risky":12481,"portland":12482,"fantasizing":12483,"ensions":12484,"firefox":12485,"flags":12486,"tables":12487,"tempered":12488,"johnson":12489,"equate":12490,"sequence":12491,"aspire":12492,"measured":12493,"designs":12494,"tunes":12495,"scheduled":12496,"neurotypical":12497,"pottermore":12498,"rationals":12499,"loosely":12500,"guidelines":12501,"torial":12502,"conformist":12503,"rubber":12504,"ssssssss":12505,"practices":12506,"execut":12507,"geeks":12508,"withdrawal":12509,"traveled":12510,"pouring":12511,"museums":12512,"spike":12513,"consult":12514,"citizens":12515,"drifting":12516,"depressants":12517,"glimp":12518,"pandora":12519,"sailor":12520,"dvd":12521,"freelance":12522,"approximately":12523,"propaganda":12524,"annivers":12525,"eva":12526,"fickle":12527,"km":12528,"kon":12529,"mig":12530,"oreg":12531,"sans":12532,"thed":12533,"alf":12534,"mew":12535,"isxp":12536,"yous":12537,"hazel":12538,"ligh":12539,"lica":12540,"lick":12541,"unimportant":12542,"unfinished":12543,"unreliable":12544,"holo":12545,"permit":12546,"theyre":12547,"worms":12548,"prey":12549,"preced":12550,"proposed":12551,"prolly":12552,"tails":12553,"taker":12554,"agency":12555,"fries":12556,"dera":12557,"vigil":12558,"sparrow":12559,"bleh":12560,"displayed":12561,"phr":12562,"objection":12563,"agreeable":12564,"welfare":12565,"socialising":12566,"formulate":12567,"cric":12568,"syll":12569,"carbon":12570,"106":12571,"sadistic":12572,"similarity":12573,"ordering":12574,"aaah":12575,"superman":12576,"fallacies":12577,"capability":12578,"romantici":12579,"valuing":12580,"sunrise":12581,"queens":12582,"knowingly":12583,"analyst":12584,"appearances":12585,"battery":12586,"creatively":12587,"ladder":12588,"spotless":12589,"suffice":12590,"commitments":12591,"poets":12592,"pancakes":12593,"ridicu":12594,"relevance":12595,"pursuits":12596,"cision":12597,"introducing":12598,"acquire":12599,"separation":12600,"murdere":12601,"thrilled":12602,"increasing":12603,"utilize":12604,"dork":12605,"tangents":12606,"plotting":12607,"vegetables":12608,"consumer":12609,"marilyn":12610,"dimensions":12611,"sociopaths":12612,"cruelty":12613,"pessimism":12614,"hypothetically":12615,"chapters":12616,"brutally":12617,"jenn":12618,"commercials":12619,"amelie":12620,"austen":12621,"mexico":12622,"preparation":12623,"oxygen":12624,"companionship":12625,"cotton":12626,"tomatoes":12627,"magnetic":12628,"diamond":12629,"wacky":12630,"reconci":12631,"jewelry":12632,"outrageous":12633,"firefly":12634,"thief":12635,"deprecating":12636,"penalty":12637,"ingredients":12638,"dozens":12639,"aversion":12640,"ahah":12641,"dough":12642,"ei":12643,"eval":12644,"hiring":12645,"jumble":12646,"jedi":12647,"knot":12648,"ktor":12649,"lind":12650,"mers":12651,"mies":12652,"rance":12653,"sack":12654,"rede":12655,"stared":12656,"alaska":12657,"towel":12658,"isis":12659,"seinf":12660,"armed":12661,"fork":12662,"wierd":12663,"pere":12664,"dean":12665,"goku":12666,"unavailable":12667,"nered":12668,"nephew":12669,"uran":12670,"exxp":12671,"endure":12672,"shred":12673,"thereof":12674,"launch":12675,"pple":12676,"spr":12677,"funn":12678,"undergraduate":12679,"seduce":12680,"dishonest":12681,"discre":12682,"dismissive":12683,"fide":12684,"yearn":12685,"omfg":12686,"iei":12687,"viewer":12688,"welcomes":12689,"skate":12690,"considerable":12691,"purchase":12692,"dads":12693,"chains":12694,"scotch":12695,"flipping":12696,"cuteness":12697,"grading":12698,"starving":12699,"passage":12700,"flutter":12701,"invasion":12702,"freaky":12703,"distractions":12704,"darth":12705,"darwin":12706,"conventions":12707,"candle":12708,"assertiveness":12709,"celebrating":12710,"accomplishing":12711,"henry":12712,"academia":12713,"harmonious":12714,"gentlemen":12715,"chester":12716,"tangled":12717,"hostility":12718,"skipping":12719,"crashing":12720,"itors":12721,"miracle":12722,"comprehensive":12723,"branches":12724,"jimmy":12725,"wrath":12726,"hawk":12727,"labeling":12728,"bachelors":12729,"elderly":12730,"immersed":12731,"abyss":12732,"squeeze":12733,"injury":12734,"arranged":12735,"disguise":12736,"elitist":12737,"stewart":12738,"perpetu":12739,"vitamin":12740,"opponent":12741,"aristotle":12742,"instinctively":12743,"hurricane":12744,"nutrition":12745,"esoteric":12746,"600":12747,"ahahaha":12748,"cable":12749,"oi":12750,"pry":12751,"pton":12752,"vion":12753,"yoda":12754,"incorrectly":12755,"reminis":12756,"atl":12757,"atlas":12758,"ench":12759,"enses":12760,"stif":12761,"vein":12762,"noisy":12763,"verge":12764,"deed":12765,"delive":12766,"abhor":12767,"outing":12768,"coal":12769,"coco":12770,"uninterested":12771,"unemotional":12772,"somethings":12773,"newest":12774,"cano":12775,"donnie":12776,"trous":12777,"anye":12778,"mped":12779,"safer":12780,"artis":12781,"ousing":12782,"dissa":12783,"fave":12784,"gran":12785,"realizes":12786,"backyard":12787,"gazing":12788,"ruins":12789,"downside":12790,"downhill":12791,"colon":12792,"oftentimes":12793,"messes":12794,"hateful":12795,"expans":12796,"county":12797,"morgan":12798,"gib":12799,"biking":12800,"brew":12801,"vids":12802,"draft":12803,"workings":12804,"octop":12805,"sweater":12806,"lawrence":12807,"temptation":12808,"stylish":12809,"virus":12810,"clients":12811,"dominants":12812,"fours":12813,"170":12814,"airport":12815,"accepts":12816,"creeped":12817,"invade":12818,"explanatory":12819,"egotist":12820,"jungle":12821,"audrey":12822,"wooden":12823,"diagnose":12824,"fleet":12825,"winds":12826,"webcam":12827,"shameless":12828,"intimidate":12829,"bluntness":12830,"harshly":12831,"tropes":12832,"sloppy":12833,"collabor":12834,"mmmmmmmm":12835,"tactic":12836,"paced":12837,"peppers":12838,"manifestation":12839,"paraly":12840,"bubbles":12841,"thurt":12842,"bastards":12843,"xxxxxxxx":12844,"invention":12845,"spaghet":12846,"phenomena":12847,"atypical":12848,"ruler":12849,"conviction":12850,"achiever":12851,"keeper":12852,"multit":12853,"retrospect":12854,"francisco":12855,"arabic":12856,"evangelion":12857,"java":12858,"sweeping":12859,"electronics":12860,"newspaper":12861,"aggrav":12862,"paranormal":12863,"seinfeld":12864,"bouts":12865,"dings":12866,"eved":12867,"fwi":12868,"gab":12869,"gence":12870,"tz":12871,"wagon":12872,"yle":12873,"zip":12874,"inadequate":12875,"anas":12876,"annie":12877,"atus":12878,"stall":12879,"stiff":12880,"nooo":12881,"tia":12882,"tious":12883,"moi":12884,"deck":12885,"cocon":12886,"uncan":12887,"unden":12888,"unks":12889,"wether":12890,"susp":12891,"opard":12892,"nether":12893,"perks":12894,"exemp":12895,"tram":12896,"trace":12897,"sian":12898,"timeless":12899,"infl":12900,"uplifting":12901,"proactive":12902,"agres":12903,"vendet":12904,"findings":12905,"overlooked":12906,"disliking":12907,"disappeared":12908,"mba":12909,"mango":12910,"offs":12911,"backpack":12912,"nause":12913,"playground":12914,"rushed":12915,"cursed":12916,"curtain":12917,"misconceptions":12918,"scence":12919,"scars":12920,"sings":12921,"valley":12922,"headaches":12923,"waist":12924,"guese":12925,"conversing":12926,"homemade":12927,"spectacular":12928,"clearing":12929,"freezing":12930,"arguably":12931,"balancing":12932,"literary":12933,"debated":12934,"damnit":12935,"hugely":12936,"hindsight":12937,"philosophies":12938,"messaged":12939,"yawn":12940,"missions":12941,"stickied":12942,"passen":12943,"salty":12944,"furry":12945,"spotting":12946,"secretive":12947,"channels":12948,"invading":12949,"9999":12950,"bows":12951,"indicated":12952,"darkest":12953,"evolving":12954,"mysteries":12955,"haters":12956,"mandatory":12957,"measuring":12958,"fati":12959,"promiscu":12960,"dramas":12961,"ditch":12962,"impulses":12963,"puzzled":12964,"knocked":12965,"sweets":12966,"monogamy":12967,"announ":12968,"lizard":12969,"inspires":12970,"magazines":12971,"definitively":12972,"pfft":12973,"guests":12974,"comedians":12975,"affairs":12976,"wrestling":12977,"immortality":12978,"orchestra":12979,"ruthless":12980,"autonomy":12981,"umbrella":12982,"horizon":12983,"deviantart":12984,"drunken":12985,"acoustic":12986,"bluntly":12987,"portuguese":12988,"redemption":12989,"vendetta":12990,"700":12991,"bind":12992,"bies":12993,"cke":12994,"etr":12995,"fang":12996,"frog":12997,"mma":12998,"nc":12999,"nfps":13000,"slu":13001,"srs":13002,"xbox":13003,"replay":13004,"retri":13005,"ati":13006,"alli":13007,"ittle":13008,"meter":13009,"orang":13010,"begging":13011,"esxj":13012,"liver":13013,"tica":13014,"chats":13015,"loan":13016,"verts":13017,"roth":13018,"accents":13019,"modes":13020,"feas":13021,"ldr":13022,"butthurt":13023,"abrup":13024,"coordination":13025,"adic":13026,"unge":13027,"unusually":13028,"unbearable":13029,"sushi":13030,"amanda":13031,"iry":13032,"posh":13033,"performed":13034,"exfx":13035,"mastered":13036,"consol":13037,"shri":13038,"upcoming":13039,"sonic":13040,"cia":13041,"sprink":13042,"rena":13043,"impose":13044,"imposed":13045,"immaturity":13046,"firing":13047,"realism":13048,"questionable":13049,"sideways":13050,"putin":13051,"implicit":13052,"socialization":13053,"waits":13054,"planner":13055,"prim":13056,"hometown":13057,"dragging":13058,"visibility":13059,"attracting":13060,"mommy":13061,"tuous":13062,"temple":13063,"titude":13064,"truthful":13065,"crude":13066,"greece":13067,"dominantly":13068,"fantast":13069,"chooses":13070,"producing":13071,"146":13072,"starcraft":13073,"thoven":13074,"135":13075,"ignores":13076,"activated":13077,"fireworks":13078,"femininity":13079,"mastery":13080,"masterpiece":13081,"predicted":13082,"crosses":13083,"owls":13084,"jersey":13085,"drains":13086,"obsessions":13087,"polls":13088,"credits":13089,"belonging":13090,"continuously":13091,"protected":13092,"engagement":13093,"leonard":13094,"fulfillment":13095,"revolves":13096,"willed":13097,"concentrating":13098,"equip":13099,"expertise":13100,"contained":13101,"oblivion":13102,"flashes":13103,"homosexuality":13104,"soldiers":13105,"reincarnation":13106,"additionally":13107,"beethoven":13108,"wounded":13109,"traumat":13110,"restricted":13111,"linguistic":13112,"recovering":13113,"aesthetically":13114,"becca":13115,"lgbt":13116,"horoscopes":13117,"perpetual":13118,"brazil":13119,"uncontrollable":13120,"collapse":13121,"notorious":13122,"transparent":13123,"pedestal":13124,"sassy":13125,"intricate":13126,"cocaine":13127,"contributions":13128,"sophisticated":13129,"oregon":13130,"delivered":13131,"spaghetti":13132,"bart":13133,"cings":13134,"ese":13135,"gb":13136,"hud":13137,"hats":13138,"hedge":13139,"mute":13140,"mama":13141,"nvm":13142,"pist":13143,"rm":13144,"sd":13145,"soften":13146,"thai":13147,"inanimate":13148,"rem":13149,"oused":13150,"secular":13151,"bever":13152,"arin":13153,"sock":13154,"lii":13155,"wid":13156,"moz":13157,"fever":13158,"ableness":13159,"outburst":13160,"cows":13161,"irresist":13162,"urai":13163,"cannab":13164,"majo":13165,"sip":13166,"shing":13167,"props":13168,"sax":13169,"lawn":13170,"boiled":13171,"selfie":13172,"spine":13173,"umi":13174,"comings":13175,"composing":13176,"bles":13177,"daydreams":13178,"posture":13179,"imper":13180,"fullest":13181,"igan":13182,"seness":13183,"naps":13184,"naomi":13185,"dilig":13186,"ancest":13187,"afterward":13188,"owning":13189,"crimes":13190,"chew":13191,"chewing":13192,"shaw":13193,"morse":13194,"subsequ":13195,"carpet":13196,"fron":13197,"appled":13198,"courtes":13199,"regain":13200,"miya":13201,"humanities":13202,"preferring":13203,"grape":13204,"resulted":13205,"denom":13206,"swearing":13207,"captured":13208,"zech":13209,"presentations":13210,"daisy":13211,"respecting":13212,"philip":13213,"bury":13214,"resid":13215,"supplement":13216,"directing":13217,"154":13218,"technic":13219,"batter":13220,"jake":13221,"defence":13222,"wannabe":13223,"2007":13224,"multip":13225,"melted":13226,"contentment":13227,"races":13228,"baggage":13229,"flew":13230,"ooooh":13231,"666":13232,"irritable":13233,"governments":13234,"metaphysical":13235,"camus":13236,"hyperbo":13237,"adapting":13238,"hipsters":13239,"palm":13240,"bella":13241,"rotten":13242,"absorbing":13243,"billy":13244,"knocking":13245,"snee":13246,"conformity":13247,"whispers":13248,"rhyme":13249,"gooey":13250,"remarkably":13251,"douchebag":13252,"simplify":13253,"doodle":13254,"patriot":13255,"anecdotal":13256,"metrics":13257,"♥♥♥♥":13258,"transportation":13259,"genocide":13260,"compartmental":13261,"processed":13262,"fwiw":13263,"713":13264,"aer":13265,"dizzy":13266,"eco":13267,"ethere":13268,"fusion":13269,"gim":13270,"gates":13271,"oon":13272,"olive":13273,"rly":13274,"rally":13275,"rural":13276,"yog":13277,"anthem":13278,"recreation":13279,"onia":13280,"atures":13281,"endo":13282,"isure":13283,"seper":13284,"lescence":13285,"ascri":13286,"nomin":13287,"solic":13288,"lims":13289,"lizing":13290,"chunk":13291,"wipe":13292,"icing":13293,"iceland":13294,"dope":13295,"riers":13296,"uncaring":13297,"unlimited":13298,"undoubted":13299,"tyrion":13300,"sill":13301,"cau":13302,"provoke":13303,"thanx":13304,"bores":13305,"offspring":13306,"matical":13307,"bler":13308,"downtown":13309,"scra":13310,"scoring":13311,"bral":13312,"toned":13313,"mormon":13314,"surve":13315,"cutie":13316,"natal":13317,"lull":13318,"considerably":13319,"regina":13320,"stored":13321,"judges":13322,"follower":13323,"lann":13324,"purse":13325,"dense":13326,"hydr":13327,"linger":13328,"flipped":13329,"deaths":13330,"emper":13331,"refusing":13332,"194":13333,"122":13334,"identifies":13335,"textbooks":13336,"apolo":13337,"issance":13338,"adolescence":13339,"salary":13340,"fury":13341,"ralph":13342,"criticisms":13343,"apologized":13344,"deserving":13345,"333":13346,"eeeee":13347,"definetly":13348,"overwhelm":13349,"egos":13350,"dumbass":13351,"bonds":13352,"regretting":13353,"tarot":13354,"ranks":13355,"riddle":13356,"bumps":13357,"intrigue":13358,"trendy":13359,"package":13360,"hannah":13361,"orangeappled":13362,"lengths":13363,"stacks":13364,"monotonous":13365,"employers":13366,"podcast":13367,"publish":13368,"publishing":13369,"democrat":13370,"unexpectedly":13371,"piercing":13372,"piercings":13373,"alexander":13374,"decline":13375,"0110":13376,"plush":13377,"excluding":13378,"knees":13379,"reciprocate":13380,"funnier":13381,"ruling":13382,"lefty":13383,"ixxp":13384,"inwardly":13385,"rapidly":13386,"gandalf":13387,"spongebob":13388,"dabbled":13389,"warranted":13390,"dramatically":13391,"reporting":13392,"israel":13393,"holland":13394,"hygiene":13395,"funnily":13396,"egotistical":13397,"cannabis":13398,"majored":13399,"717":13400,"gies":13401,"ias":13402,"jab":13403,"ost":13404,"rin":13405,"smug":13406,"tinder":13407,"xox":13408,"inating":13409,"indecisiveness":13410,"removing":13411,"onions":13412,"toll":13413,"leisure":13414,"becu":13415,"arty":13416,"esxx":13417,"haunting":13418,"aya":13419,"aced":13420,"moan":13421,"deity":13422,"deja":13423,"domine":13424,"dosto":13425,"untrue":13426,"unnecessarily":13427,"hoor":13428,"hoard":13429,"nearest":13430,"irresponsible":13431,"ceo":13432,"percus":13433,"mah":13434,"conced":13435,"convol":13436,"condem":13437,"wayne":13438,"precision":13439,"oken":13440,"raine":13441,"boiling":13442,"agami":13443,"venue":13444,"mucha":13445,"wellsy":13446,"ille":13447,"shepher":13448,"astound":13449,"overcoming":13450,"disagreed":13451,"affirm":13452,"mann":13453,"managers":13454,"finite":13455,"grabs":13456,"clone":13457,"realities":13458,"prank":13459,"monkeys":13460,"mina":13461,"menu":13462,"gaps":13463,"highlights":13464,"contacted":13465,"voy":13466,"nip":13467,"muslims":13468,"stero":13469,"vals":13470,"sham":13471,"welcomed":13472,"cules":13473,"carrots":13474,"bigo":13475,"intelli":13476,"michel":13477,"cater":13478,"volatile":13479,"reports":13480,"preferable":13481,"aneous":13482,"darko":13483,"dairy":13484,"frustrations":13485,"1995":13486,"123":13487,"strangest":13488,"167":13489,"hoodie":13490,"adoles":13491,"colorado":13492,"specified":13493,"fills":13494,"flute":13495,"grid":13496,"racial":13497,"kai":13498,"heroin":13499,"visualize":13500,"667":13501,"complains":13502,"slang":13503,"suscep":13504,"samurai":13505,"nuff":13506,"bumped":13507,"daughters":13508,"contradicting":13509,"thrift":13510,"broader":13511,"teleport":13512,"russell":13513,"reveals":13514,"guardians":13515,"recipes":13516,"revolve":13517,"establishing":13518,"foxes":13519,"peeves":13520,"possession":13521,"folder":13522,"evaluating":13523,"zoning":13524,"investigate":13525,"hobbes":13526,"derailing":13527,"reciprocated":13528,"deductive":13529,"corruption":13530,"innovative":13531,"eliminate":13532,"epitome":13533,"tackle":13534,"warriors":13535,"censor":13536,"academics":13537,"sacrificing":13538,"baffled":13539,"duplicate":13540,"tremendously":13541,"oatmeal":13542,"intrapersonal":13543,"anonymity":13544,"manufact":13545,"accessible":13546,"anniversary":13547,"phrasing":13548,"uncanny":13549,"solicited":13550,"undoubtedly":13551,"800":13552,"avo":13553,"bure":13554,"eyel":13555,"eminem":13556,"idol":13557,"nx":13558,"pable":13559,"rors":13560,"vint":13561,"vage":13562,"är":13563,"returns":13564,"thead":13565,"erson":13566,"envi":13567,"belive":13568,"ofcourse":13569,"aru":13570,"ardo":13571,"whirl":13572,"esfx":13573,"edges":13574,"loooo":13575,"eline":13576,"wider":13577,"mol":13578,"heim":13579,"abun":13580,"entries":13581,"irre":13582,"endings":13583,"conference":13584,"cath":13585,"shan":13586,"shrooms":13587,"infr":13588,"histri":13589,"cils":13590,"istan":13591,"ppin":13592,"splash":13593,"workaholic":13594,"imma":13595,"overtly":13596,"disprove":13597,"disagrees":13598,"yearning":13599,"offish":13600,"diale":13601,"bites":13602,"hardware":13603,"owns":13604,"highs":13605,"downloaded":13606,"curly":13607,"confessed":13608,"scrolls":13609,"showers":13610,"correspond":13611,"surf":13612,"handic":13613,"wavel":13614,"puber":13615,"cring":13616,"syd":13617,"painter":13618,"earning":13619,"harvest":13620,"shold":13621,"learns":13622,"followers":13623,"wheels":13624,"waitress":13625,"intuit":13626,"tempting":13627,"bride":13628,"controls":13629,"installed":13630,"fastest":13631,"1990":13632,"fathers":13633,"texture":13634,"penetr":13635,"blamed":13636,"pleasures":13637,"flirtat":13638,"universally":13639,"trainer":13640,"feeds":13641,"heaps":13642,"addictions":13643,"therapists":13644,"slipped":13645,"operation":13646,"punished":13647,"boundary":13648,"internalize":13649,"hhhhh":13650,"bitching":13651,"chills":13652,"xnxp":13653,"swan":13654,"gordon":13655,"quirk":13656,"adaptable":13657,"correlations":13658,"criminals":13659,"conditioned":13660,"alienated":13661,"bells":13662,"idiosyn":13663,"designing":13664,"policies":13665,"bottles":13666,"heavens":13667,"shooter":13668,"disciplined":13669,"groceries":13670,"777":13671,"savings":13672,"extensively":13673,"schizo":13674,"aids":13675,"pigs":13676,"flexibility":13677,"dwelling":13678,"chorus":13679,"liquor":13680,"cumber":13681,"losers":13682,"substances":13683,"cerebral":13684,"shattered":13685,"seductive":13686,"veggie":13687,"injured":13688,"divergent":13689,"intrinsic":13690,"anthony":13691,"crippling":13692,"kaleido":13693,"detrimental":13694,"coincidentally":13695,"recovery":13696,"coconut":13697,"oranges":13698,"equipment":13699,"abundance":13700,"wavelength":13701,"puberty":13702,"flirtatious":13703,"07":13704,"eq":13705,"eti":13706,"ethan":13707,"eii":13708,"gd":13709,"gla":13710,"gaw":13711,"krist":13712,"mmo":13713,"ook":13714,"pend":13715,"rh":13716,"utic":13717,"yl":13718,"incorporate":13719,"reiterate":13720,"atly":13721,"erase":13722,"allo":13723,"isite":13724,"sector":13725,"veter":13726,"asi":13727,"arcade":13728,"whit":13729,"hawa":13730,"eddie":13731,"lifel":13732,"robb":13733,"moist":13734,"dodge":13735,"abit":13736,"rider":13737,"goin":13738,"unto":13739,"hobia":13740,"anywho":13741,"timely":13742,"howl":13743,"quint":13744,"tearing":13745,"savi":13746,"ppel":13747,"spar":13748,"overtime":13749,"apps":13750,"discount":13751,"fizz":13752,"meantime":13753,"mans":13754,"manages":13755,"bestfriend":13756,"incest":13757,"contacting":13758,"curric":13759,"angered":13760,"autom":13761,"charging":13762,"crust":13763,"luther":13764,"amaze":13765,"orderly":13766,"supermarket":13767,"douglas":13768,"tub":13769,"respectfully":13770,"virtues":13771,"medieval":13772,"fearless":13773,"fighters":13774,"client":13775,"fucker":13776,"grammatical":13777,"graded":13778,"barriers":13779,"succin":13780,"transgender":13781,"passionately":13782,"explosions":13783,"statistic":13784,"biologist":13785,"liberals":13786,"aggres":13787,"memorization":13788,"perceives":13789,"predicting":13790,"punct":13791,"princip":13792,"complained":13793,"pigeon":13794,"materialism":13795,"celebration":13796,"xnfps":13797,"ambivalent":13798,"valentines":13799,"sandwi":13800,"threats":13801,"explorer":13802,"comparisons":13803,"exceptional":13804,"skiing":13805,"ambitions":13806,"vastly":13807,"grabbing":13808,"conforming":13809,"dedicate":13810,"metaphorically":13811,"giddy":13812,"pierce":13813,"hierarch":13814,"isaac":13815,"bossypants":13816,"reassuring":13817,"bridges":13818,"loosen":13819,"skimmed":13820,"consulting":13821,"smashing":13822,"prescribed":13823,"convictions":13824,"physicist":13825,"flavors":13826,"titanic":13827,"excerpt":13828,"eloquent":13829,"victoria":13830,"prioritize":13831,"anarchist":13832,"misogyn":13833,"lulz":13834,"ascendant":13835,"ceremony":13836,"demisexual":13837,"monopoly":13838,"deleting":13839,"dignity":13840,"agressive":13841,"domineering":13842,"bureau":13843,"vintage":13844,"succinct":13845,"02":13846,"09":13847,"agh":13848,"bacter":13849,"dale":13850,"eases":13851,"fud":13852,"hugh":13853,"housing":13854,"kg":13855,"kong":13856,"kanye":13857,"mbed":13858,"rack":13859,"tite":13860,"tina":13861,"ued":13862,"incompatible":13863,"anchor":13864,"reconsider":13865,"rebecca":13866,"remorse":13867,"thee":13868,"atro":13869,"eras":13870,"ergo":13871,"stjs":13872,"alig":13873,"altered":13874,"algor":13875,"tox":13876,"methe":13877,"orthodo":13878,"semin":13879,"lith":13880,"verify":13881,"eler":13882,"elusive":13883,"wii":13884,"pegged":13885,"acute":13886,"moil":13887,"deaf":13888,"hemis":13889,"rian":13890,"untill":13891,"weep":13892,"ifs":13893,"llen":13894,"allen":13895,"confide":13896,"tract":13897,"sizes":13898,"ulterior":13899,"moreover":13900,"otherap":13901,"upsets":13902,"gued":13903,"rail":13904,"tags":13905,"hijack":13906,"saga":13907,"cist":13908,"composer":13909,"goodnight":13910,"forens":13911,"disillusion":13912,"faulty":13913,"logging":13914,"newton":13915,"jews":13916,"arya":13917,"mmorp":13918,"cury":13919,"scum":13920,"maria":13921,"humid":13922,"explic":13923,"lively":13924,"bros":13925,"brook":13926,"cracy":13927,"dug":13928,"cusp":13929,"wishy":13930,"crew":13931,"humanitarian":13932,"easygoing":13933,"swept":13934,"trusts":13935,"capabilities":13936,"regarded":13937,"dyed":13938,"dystop":13939,"psychotic":13940,"origins":13941,"greet":13942,"ooooooo":13943,"satire":13944,"portions":13945,"125":13946,"landed":13947,"positivity":13948,"doubtful":13949,"mercury":13950,"starter":13951,"pencils":13952,"spiritually":13953,"2002":13954,"2006":13955,"rationale":13956,"relaxation":13957,"violated":13958,"clarified":13959,"tracked":13960,"complimenting":13961,"clubbing":13962,"fashionable":13963,"lining":13964,"swag":13965,"stimulate":13966,"broadcast":13967,"alternatively":13968,"packs":13969,"treebob":13970,"mirroring":13971,"utilit":13972,"consequently":13973,"corporations":13974,"simulation":13975,"taco":13976,"jamie":13977,"rubbing":13978,"dictates":13979,"lennon":13980,"brushing":13981,"traditionally":13982,"printed":13983,"sufficiently":13984,"dabbling":13985,"candidates":13986,"tactful":13987,"austin":13988,"corrupt":13989,"mulan":13990,"ranging":13991,"bashing":13992,"montreal":13993,"pearl":13994,"locations":13995,"threshold":13996,"dinosaurs":13997,"elevator":13998,"meticulous":13999,"rhetorical":14000,"inquisitive":14001,"refugee":14002,"baptist":14003,"fandom":14004,"conceived":14005,"jeremy":14006,"octopus":14007,"convoluted":14008,"bj":14009,"cun":14010,"cers":14011,"denti":14012,"fen":14013,"gma":14014,"gist":14015,"jup":14016,"kung":14017,"oy":14018,"ola":14019,"ogen":14020,"tits":14021,"uity":14022,"vah":14023,"vsky":14024,"wren":14025,"renew":14026,"retired":14027,"themed":14028,"enna":14029,"alds":14030,"alley":14031,"tobac":14032,"tokyo":14033,"ori":14034,"yout":14035,"archa":14036,"edic":14037,"chand":14038,"utmost":14039,"wives":14040,"moto":14041,"dew":14042,"cog":14043,"rig":14044,"adverse":14045,"unacceptable":14046,"unintentional":14047,"washy":14048,"conqu":14049,"tracking":14050,"quette":14051,"inflict":14052,"saves":14053,"sausage":14054,"selfies":14055,"themself":14056,"viva":14057,"daylight":14058,"msbossypants":14059,"josh":14060,"yesss":14061,"imperfection":14062,"overanalyze":14063,"disc":14064,"disposed":14065,"affle":14066,"diaries":14067,"forests":14068,"paras":14069,"blab":14070,"closeness":14071,"jeb":14072,"scis":14073,"scrut":14074,"triangle":14075,"brat":14076,"turmoil":14077,"gregar":14078,"nothingness":14079,"farther":14080,"waaay":14081,"advised":14082,"cuits":14083,"duties":14084,"bibli":14085,"callous":14086,"classification":14087,"homeschooled":14088,"drastic":14089,"mitch":14090,"appreciative":14091,"10000":14092,"capes":14093,"shortcomings":14094,"avoids":14095,"correctness":14096,"organisation":14097,"pork":14098,"spacey":14099,"belgi":14100,"apore":14101,"trading":14102,"thole":14103,"salmon":14104,"failures":14105,"brah":14106,"skydiving":14107,"weddings":14108,"aaaaa":14109,"shuts":14110,"obsessively":14111,"associations":14112,"hilariously":14113,"grilled":14114,"separately":14115,"pipe":14116,"susan":14117,"cardio":14118,"jesse":14119,"optimal":14120,"shameful":14121,"tuned":14122,"speeding":14123,"contempt":14124,"giggling":14125,"cameras":14126,"mmmmm":14127,"swede":14128,"alphabet":14129,"hesitation":14130,"adjusting":14131,"labyr":14132,"possessions":14133,"clockwork":14134,"paralle":14135,"emerald":14136,"exaggeration":14137,"promotion":14138,"spawn":14139,"priceless":14140,"bethdeth":14141,"pumpkin":14142,"persuasion":14143,"apocalyptic":14144,"lefto":14145,"magnific":14146,"hitchhi":14147,"confronting":14148,"prescription":14149,"hacker":14150,"glitter":14151,"skirt":14152,"peaks":14153,"obedi":14154,"limbs":14155,"photographs":14156,"hulk":14157,"inherited":14158,"razor":14159,"feathers":14160,"universities":14161,"analogies":14162,"applaud":14163,"aspirations":14164,"bicycle":14165,"discouraged":14166,"daft":14167,"assault":14168,"interfere":14169,"expansion":14170,"renaissance":14171,"mozart":14172,"courtesy":14173,"yogurt":14174,"becuase":14175,"lifelong":14176,"aggressiveness":14177,"algorith":14178,"tobacco":14179,"gregarious":14180,"labyrinth":14181,"9000":14182,"athan":14183,"cunt":14184,"dain":14185,"fag":14186,"hp":14187,"jpg":14188,"kant":14189,"mice":14190,"oven":14191,"obey":14192,"pinterest":14193,"pals":14194,"sif":14195,"ör":14196,"rethink":14197,"recl":14198,"revis":14199,"itt":14200,"itate":14201,"nova":14202,"noooo":14203,"hamp":14204,"hazy":14205,"tian":14206,"tiest":14207,"chup":14208,"ayn":14209,"loon":14210,"elite":14211,"roger":14212,"accompany":14213,"mob":14214,"hex":14215,"outdated":14216,"gears":14217,"unite":14218,"unsolicited":14219,"opposition":14220,"nets":14221,"pooh":14222,"perm":14223,"macho":14224,"tywin":14225,"congre":14226,"odor":14227,"howard":14228,"howdy":14229,"preface":14230,"hil":14231,"hips":14232,"vigor":14233,"spen":14234,"cker":14235,"jock":14236,"yesyes":14237,"disappearing":14238,"tency":14239,"affili":14240,"clark":14241,"kindred":14242,"prat":14243,"backup":14244,"lolz":14245,"curb":14246,"misinterpreting":14247,"scout":14248,"scaring":14249,"nik":14250,"nigh":14251,"craziness":14252,"singapore":14253,"ficially":14254,"eks":14255,"crum":14256,"cuit":14257,"drill":14258,"cataly":14259,"mistreat":14260,"empathise":14261,"busines":14262,"insides":14263,"anxieties":14264,"mediate":14265,"frustrate":14266,"emulate":14267,"porno":14268,"162":14269,"yahoo":14270,"accust":14271,"softer":14272,"moderator":14273,"bananas":14274,"observable":14275,"digress":14276,"wilder":14277,"weasel":14278,"zoom":14279,"perfectionistic":14280,"nuances":14281,"brighter":14282,"borders":14283,"appropriately":14284,"swap":14285,"hyperactive":14286,"pinch":14287,"broadly":14288,"adapted":14289,"threaten":14290,"sparkle":14291,"desperation":14292,"copying":14293,"angelcat":14294,"slavery":14295,"buddha":14296,"preventing":14297,"karao":14298,"guides":14299,"federal":14300,"horrifying":14301,"pacing":14302,"lifes":14303,"snoop":14304,"adaptation":14305,"terminology":14306,"lenses":14307,"miranda":14308,"energies":14309,"pirates":14310,"frightened":14311,"revolutionary":14312,"adequately":14313,"coasters":14314,"incidentally":14315,"indiana":14316,"ixxj":14317,"privileg":14318,"masturbate":14319,"turtles":14320,"uuuuuuuuuuuuuuuu":14321,"prompted":14322,"crafts":14323,"inherit":14324,"gullible":14325,"conscientiousness":14326,"machiavelli":14327,"scrubs":14328,"noodles":14329,"utopia":14330,"awakening":14331,"debatable":14332,"spooky":14333,"derailed":14334,"jennifer":14335,"netherlands":14336,"emperor":14337,"karaoke":14338,"05":14339,"714":14340,"aizar":14341,"cite":14342,"gren":14343,"html":14344,"ito":14345,"jum":14346,"kur":14347,"karen":14348,"knu":14349,"mun":14350,"pong":14351,"pness":14352,"plots":14353,"pathy":14354,"sfp":14355,"utility":14356,"͜ʖ":14357,"inadvert":14358,"invisibility":14359,"anore":14360,"erotic":14361,"enger":14362,"stations":14363,"stale":14364,"melon":14365,"ision":14366,"sevent":14367,"lexic":14368,"bebop":14369,"archo":14370,"nold":14371,"thatx":14372,"liken":14373,"chal":14374,"loosing":14375,"ellie":14376,"ghi":14377,"devo":14378,"arena":14379,"doin":14380,"doer":14381,"outfits":14382,"unted":14383,"weas":14384,"likeable":14385,"performer":14386,"maiden":14387,"donalds":14388,"teary":14389,
[...]
